{
  "version": "1.0",
  "truncation": {
    "direction": "Right",
    "max_length": 96,
    "strategy": "LongestFirst",
    "stride": 32
  },
  "padding": {
    "strategy": {
      "Fixed": 96
    },
    "direction": "Right",
    "pad_to_multiple_of": null,
    "pad_id": 0,
    "pad_type_id": 0,
    "pad_token": "[PAD]"
  },
  "added_tokens": [
    {
      "id": 0,
      "content": "[PAD]",
      "single_word": false,
      "lstrip": false,
      "rstrip": false,
      "normalized": false,
      "special": true
    },
    {
      "id": 1,
      "content": "[UNK]",
      "single_word": false,
      "lstrip": false,
      "rstrip": false,
      "normalized": false,
      "special": true
    },
    {
      "id": 2,
      "content": "[CLS]",
      "single_word": false,
      "lstrip": false,
      "rstrip": false,
      "normalized": false,
      "special": true
    },
    {
      "id": 3,
      "content": "[SEP]",
      "single_word": false,
      "lstrip": false,
      "rstrip": false,
      "normalized": false,
      "special": true
    },
    {
      "id": 4,
      "content": "[MASK]",
      "single_word": false,
      "lstrip": false,
      "rstrip": false,
      "normalized": false,
      "special": true
    }
  ],
  "normalizer": {
    "type": "BertNormalizer",
    "clean_text": true,
    "handle_chinese_chars": true,
    "strip_accents": null,
    "lowercase": true
  },
  "pre_tokenizer": {
    "type": "BertPreTokenizer"
  },
  "post_processor": {
    "type": "TemplateProcessing",
    "single": [
      {
        "SpecialToken": {
          "id": "[CLS]",
          "type_id": 0
        }
      },
      {
        "Sequence": {
          "id": "A",
          "type_id": 0
        }
      },
      {
        "SpecialToken": {
          "id": "[SEP]",
          "type_id": 0
        }
      }
    ],
    "pair": [
      {
        "SpecialToken": {
          "id": "[CLS]",
          "type_id": 0
        }
      },
      {
        "Sequence": {
          "id": "A",
          "type_id": 0
        }
      },
      {
        "SpecialToken": {
          "id": "[SEP]",
          "type_id": 0
        }
      },
      {
        "Sequence": {
          "id": "B",
          "type_id": 1
        }
      },
      {
        "SpecialToken": {
          "id": "[SEP]",
          "type_id": 1
        }
      }
    ],
    "special_tokens": {
      "[CLS]": {
        "id": "[CLS]",
        "ids": [
          2
        ],
        "tokens": [
          "[CLS]"
        ]
      },
      "[SEP]": {
        "id": "[SEP]",
        "ids": [
          3
        ],
        "tokens": [
          "[SEP]"
        ]
      }
    }
  },
  "decoder": {
    "type": "WordPiece",
    "prefix": "##",
    "cleanup": true
  },
  "model": {
    "type": "WordPiece",
    "unk_token": "[UNK]",
    "continuing_subword_prefix": "##",
    "max_input_chars_per_word": 100,
    "vocab": {
      "[PAD]": 0,
      "[UNK]": 1,
      "[CLS]": 2,
      "[SEP]": 3,
      "[MASK]": 4,
      "[unused1]": 5,
      "[unused2]": 6,
      "[unused3]": 7,
      "[unused4]": 8,
      "[unused5]": 9,
      "[unused6]": 10,
      "[unused7]": 11,
      "[unused8]": 12,
      "[unused9]": 13,
      "[unused10]": 14,
      "[unused11]": 15,
      "[unused12]": 16,
      "[unused13]": 17,
      "[unused14]": 18,
      "[unused15]": 19,
      "[unused16]": 20,
      "[unused17]": 21,
      "[unused18]": 22,
      "[unused19]": 23,
      "[unused20]": 24,
      "<s>": 25,
      "</s>": 26,
      "<pad>": 27,
      "<unk>": 28,
      "<cls>": 29,
      "<sep>": 30,
      "<mask>": 31,
      "!": 32,
      "\"": 33,
      "#": 34,
      "$": 35,
      "%": 36,
      "&": 37,
      "'": 38,
      "(": 39,
      ")": 40,
      "*": 41,
      "+": 42,
      ",": 43,
      "-": 44,
      ".": 45,
      "/": 46,
      "0": 47,
      "1": 48,
      "2": 49,
      "3": 50,
      "4": 51,
      "5": 52,
      "6": 53,
      "7": 54,
      "8": 55,
      "9": 56,
      ":": 57,
      ";": 58,
      "<": 59,
      "=": 60,
      ">": 61,
      "?": 62,
      "@": 63,
      "A": 64,
      "B": 65,
      "C": 66,
      "D": 67,
      "E": 68,
      "F": 69,
      "G": 70,
      "H": 71,
      "I": 72,
      "J": 73,
      "K": 74,
      "L": 75,
      "M": 76,
      "N": 77,
      "O": 78,
      "P": 79,
      "Q": 80,
      "R": 81,
      "S": 82,
      "T": 83,
      "U": 84,
      "V": 85,
      "W": 86,
      "X": 87,
      "Y": 88,
      "Z": 89,
      "[": 90,
      "\\": 91,
      "]": 92,
      "^": 93,
      "_": 94,
      "`": 95,
      "a": 96,
      "b": 97,
      "c": 98,
      "d": 99,
      "e": 100,
      "f": 101,
      "g": 102,
      "h": 103,
      "i": 104,
      "j": 105,
      "k": 106,
      "l": 107,
      "m": 108,
      "n": 109,
      "o": 110,
      "p": 111,
      "q": 112,
      "r": 113,
      "s": 114,
      "t": 115,
      "u": 116,
      "v": 117,
      "w": 118,
      "x": 119,
      "y": 120,
      "z": 121,
      "{": 122,
      "|": 123,
      "}": 124,
      "~": 125,
      "¡": 126,
      "¢": 127,
      "£": 128,
      "¤": 129,
      "¥": 130,
      "¦": 131,
      "§": 132,
      "¨": 133,
      "ª": 134,
      "«": 135,
      "¬": 136,
      "®": 137,
      "¯": 138,
      "°": 139,
      "±": 140,
      "²": 141,
      "³": 142,
      "´": 143,
      "µ": 144,
      "¶": 145,
      "·": 146,
      "¸": 147,
      "¹": 148,
      "º": 149,
      "»": 150,
      "¼": 151,
      "½": 152,
      "¾": 153,
      "¿": 154,
      "À": 155,
      "Á": 156,
      "Â": 157,
      "Ã": 158,
      "Ä": 159,
      "Å": 160,
      "Æ": 161,
      "Ç": 162,
      "È": 163,
      "É": 164,
      "Ê": 165,
      "Ë": 166,
      "Ì": 167,
      "Í": 168,
      "Î": 169,
      "Ï": 170,
      "Ð": 171,
      "Ñ": 172,
      "Ò": 173,
      "Ó": 174,
      "Ô": 175,
      "Õ": 176,
      "Ö": 177,
      "×": 178,
      "Ø": 179,
      "Ù": 180,
      "Ú": 181,
      "Û": 182,
      "Ü": 183,
      "Ý": 184,
      "Þ": 185,
      "ß": 186,
      "à": 187,
      "á": 188,
      "â": 189,
      "ã": 190,
      "ä": 191,
      "å": 192,
      "æ": 193,
      "ç": 194,
      "è": 195,
      "é": 196,
      "ê": 197,
      "ë": 198,
      "ì": 199,
      "í": 200,
      "î": 201,
      "ï": 202,
      "ð": 203,
      "ñ": 204,
      "ò": 205,
      "ó": 206,
      "ô": 207,
      "õ": 208,
      "ö": 209,
      "÷": 210,
      "ø": 211,
      "ù": 212,
      "ú": 213,
      "û": 214,
      "ü": 215,
      "ý": 216,
      "þ": 217,
      "ÿ": 218,
      "Ā": 219,
      "ā": 220,
      "Ă": 221,
      "ă": 222,
      "Ą": 223,
      "ą": 224,
      "Ć": 225,
      "ć": 226,
      "ĉ": 227,
      "Č": 228,
      "č": 229,
      "Ď": 230,
      "ď": 231,
      "Đ": 232,
      "đ": 233,
      "Ē": 234,
      "ē": 235,
      "Ĕ": 236,
      "ĕ": 237,
      "Ė": 238,
      "ė": 239,
      "Ę": 240,
      "ę": 241,
      "Ě": 242,
      "ě": 243,
      "ĝ": 244,
      "ğ": 245,
      "Ġ": 246,
      "ġ": 247,
      "Ħ": 248,
      "ħ": 249,
      "Ī": 250,
      "ī": 251,
      "Ĭ": 252,
      "ĭ": 253,
      "İ": 254,
      "ı": 255,
      "ĳ": 256,
      "ķ": 257,
      "Ĺ": 258,
      "ĺ": 259,
      "Ľ": 260,
      "ľ": 261,
      "Ł": 262,
      "ł": 263,
      "Ń": 264,
      "ń": 265,
      "ņ": 266,
      "ň": 267,
      "ŋ": 268,
      "Ō": 269,
      "ō": 270,
      "Ŏ": 271,
      "ŏ": 272,
      "Ő": 273,
      "ő": 274,
      "Œ": 275,
      "œ": 276,
      "ŕ": 277,
      "Ř": 278,
      "ř": 279,
      "Ś": 280,
      "ś": 281,
      "ŝ": 282,
      "Ş": 283,
      "ş": 284,
      "Š": 285,
      "š": 286,
      "Ţ": 287,
      "ţ": 288,
      "Ť": 289,
      "ť": 290,
      "ũ": 291,
      "Ū": 292,
      "ū": 293,
      "Ŭ": 294,
      "ŭ": 295,
      "ů": 296,
      "Ű": 297,
      "ű": 298,
      "ų": 299,
      "Ÿ": 300,
      "Ź": 301,
      "ź": 302,
      "Ż": 303,
      "ż": 304,
      "Ž": 305,
      "ž": 306,
      "ſ": 307,
      "ƒ": 308,
      "ơ": 309,
      "ư": 310,
      "ǀ": 311,
      "ǎ": 312,
      "ǐ": 313,
      "ǔ": 314,
      "ǝ": 315,
      "ǧ": 316,
      "Ș": 317,
      "ș": 318,
      "Ț": 319,
      "ț": 320,
      "ȧ": 321,
      "ɐ": 322,
      "ɑ": 323,
      "ɒ": 324,
      "ɔ": 325,
      "ə": 326,
      "ɛ": 327,
      "ɜ": 328,
      "ɟ": 329,
      "ɣ": 330,
      "ɩ": 331,
      "ɪ": 332,
      "ɫ": 333,
      "ɲ": 334,
      "ɹ": 335,
      "ɾ": 336,
      "ʃ": 337,
      "ʊ": 338,
      "ʌ": 339,
      "ʎ": 340,
      "ʒ": 341,
      "ʝ": 342,
      "ʧ": 343,
      "ʰ": 344,
      "ʲ": 345,
      "ʷ": 346,
      "ʺ": 347,
      "ʻ": 348,
      "ʼ": 349,
      "ʾ": 350,
      "ʿ": 351,
      "˃": 352,
      "ˆ": 353,
      "ˇ": 354,
      "ˈ": 355,
      "ˉ": 356,
      "ˊ": 357,
      "ˌ": 358,
      "ː": 359,
      "ˑ": 360,
      "˗": 361,
      "˘": 362,
      "˙": 363,
      "˚": 364,
      "˛": 365,
      "˜": 366,
      "˝": 367,
      "ˮ": 368,
      "̀": 369,
      "́": 370,
      "̂": 371,
      "̃": 372,
      "̄": 373,
      "̈": 374,
      "̊": 375,
      "̋": 376,
      "̌": 377,
      "̡": 378,
      "̣": 379,
      "̥": 380,
      "̩": 381,
      "̮": 382,
      "̯": 383,
      "̲": 384,
      "̵": 385,
      "̶": 386,
      "̿": 387,
      "͜": 388,
      "͡": 389,
      ";": 390,
      "Α": 391,
      "Β": 392,
      "Γ": 393,
      "Δ": 394,
      "Ε": 395,
      "Ζ": 396,
      "Η": 397,
      "Θ": 398,
      "Ι": 399,
      "Κ": 400,
      "Λ": 401,
      "Μ": 402,
      "Ν": 403,
      "Ξ": 404,
      "Ο": 405,
      "Π": 406,
      "Ρ": 407,
      "Σ": 408,
      "Τ": 409,
      "Υ": 410,
      "Φ": 411,
      "Χ": 412,
      "Ψ": 413,
      "Ω": 414,
      "ά": 415,
      "έ": 416,
      "ή": 417,
      "ί": 418,
      "α": 419,
      "β": 420,
      "γ": 421,
      "δ": 422,
      "ε": 423,
      "ζ": 424,
      "η": 425,
      "θ": 426,
      "ι": 427,
      "κ": 428,
      "λ": 429,
      "μ": 430,
      "ν": 431,
      "ξ": 432,
      "ο": 433,
      "π": 434,
      "ρ": 435,
      "ς": 436,
      "σ": 437,
      "τ": 438,
      "υ": 439,
      "φ": 440,
      "χ": 441,
      "ψ": 442,
      "ω": 443,
      "ό": 444,
      "ύ": 445,
      "ώ": 446,
      "ϑ": 447,
      "ϕ": 448,
      "ϟ": 449,
      "ϱ": 450,
      "І": 451,
      "Ј": 452,
      "Ў": 453,
      "А": 454,
      "Б": 455,
      "В": 456,
      "Г": 457,
      "Д": 458,
      "Е": 459,
      "Ж": 460,
      "З": 461,
      "И": 462,
      "К": 463,
      "Л": 464,
      "М": 465,
      "Н": 466,
      "О": 467,
      "П": 468,
      "Р": 469,
      "С": 470,
      "Т": 471,
      "У": 472,
      "Ф": 473,
      "Х": 474,
      "Ц": 475,
      "Ч": 476,
      "Ш": 477,
      "Щ": 478,
      "Э": 479,
      "Ю": 480,
      "Я": 481,
      "а": 482,
      "б": 483,
      "в": 484,
      "г": 485,
      "д": 486,
      "е": 487,
      "ж": 488,
      "з": 489,
      "и": 490,
      "й": 491,
      "к": 492,
      "л": 493,
      "м": 494,
      "н": 495,
      "о": 496,
      "п": 497,
      "р": 498,
      "с": 499,
      "т": 500,
      "у": 501,
      "ф": 502,
      "х": 503,
      "ц": 504,
      "ч": 505,
      "ш": 506,
      "щ": 507,
      "ъ": 508,
      "ы": 509,
      "ь": 510,
      "э": 511,
      "ю": 512,
      "я": 513,
      "ё": 514,
      "є": 515,
      "і": 516,
      "ї": 517,
      "ј": 518,
      "љ": 519,
      "њ": 520,
      "ћ": 521,
      "қ": 522,
      "ӓ": 523,
      "ӧ": 524,
      "ө": 525,
      "ա": 526,
      "ְ": 527,
      "ֲ": 528,
      "ִ": 529,
      "ֵ": 530,
      "ֶ": 531,
      "ַ": 532,
      "ָ": 533,
      "ֹ": 534,
      "ּ": 535,
      "ׁ": 536,
      "א": 537,
      "ב": 538,
      "ג": 539,
      "ד": 540,
      "ה": 541,
      "ו": 542,
      "ז": 543,
      "ח": 544,
      "ט": 545,
      "י": 546,
      "ך": 547,
      "כ": 548,
      "ל": 549,
      "ם": 550,
      "מ": 551,
      "ן": 552,
      "נ": 553,
      "ס": 554,
      "ע": 555,
      "פ": 556,
      "צ": 557,
      "ק": 558,
      "ר": 559,
      "ש": 560,
      "ת": 561,
      "،": 562,
      "ا": 563,
      "ب": 564,
      "ة": 565,
      "ت": 566,
      "ج": 567,
      "ح": 568,
      "د": 569,
      "ر": 570,
      "س": 571,
      "ع": 572,
      "ق": 573,
      "ك": 574,
      "ل": 575,
      "م": 576,
      "ن": 577,
      "ه": 578,
      "و": 579,
      "ي": 580,
      "َ": 581,
      "क": 582,
      "त": 583,
      "म": 584,
      "र": 585,
      "ा": 586,
      "ि": 587,
      "्": 588,
      "า": 589,
      "ღ": 590,
      "᠍": 591,
      "ᴪ": 592,
      "ḍ": 593,
      "ḥ": 594,
      "ṁ": 595,
      "ṃ": 596,
      "ṅ": 597,
      "ṇ": 598,
      "Ṛ": 599,
      "ṛ": 600,
      "ṣ": 601,
      "Ṭ": 602,
      "ṭ": 603,
      "ạ": 604,
      "ả": 605,
      "ἀ": 606,
      "ἄ": 607,
      "ἐ": 608,
      "ἔ": 609,
      "ἰ": 610,
      "ὁ": 611,
      "ὄ": 612,
      "ὐ": 613,
      "ὰ": 614,
      "ά": 615,
      "έ": 616,
      "ὴ": 617,
      "ή": 618,
      "ὶ": 619,
      "ί": 620,
      "ὸ": 621,
      "ό": 622,
      "ύ": 623,
      "ῆ": 624,
      "ῖ": 625,
      "ῦ": 626,
      "ῶ": 627,
      "‐": 628,
      "‑": 629,
      "‒": 630,
      "–": 631,
      "—": 632,
      "―": 633,
      "‖": 634,
      "‘": 635,
      "’": 636,
      "‚": 637,
      "‛": 638,
      "“": 639,
      "”": 640,
      "„": 641,
      "‟": 642,
      "†": 643,
      "‡": 644,
      "•": 645,
      "‣": 646,
      "…": 647,
      "‧": 648,
      "‰": 649,
      "′": 650,
      "″": 651,
      "‹": 652,
      "›": 653,
      "‼": 654,
      "⁃": 655,
      "⁄": 656,
      "⁉": 657,
      "⁰": 658,
      "⁴": 659,
      "⁵": 660,
      "₁": 661,
      "₂": 662,
      "€": 663,
      "⃣": 664,
      "⃰": 665,
      "℃": 666,
      "ℓ": 667,
      "№": 668,
      "ℝ": 669,
      "™": 670,
      "Ω": 671,
      "ℹ": 672,
      "⅓": 673,
      "⅔": 674,
      "←": 675,
      "↑": 676,
      "→": 677,
      "↓": 678,
      "↔": 679,
      "↩": 680,
      "↺": 681,
      "⇒": 682,
      "⇓": 683,
      "⇔": 684,
      "⇨": 685,
      "⇩": 686,
      "⇾": 687,
      "∀": 688,
      "∂": 689,
      "∃": 690,
      "∅": 691,
      "∆": 692,
      "∈": 693,
      "∑": 694,
      "−": 695,
      "∗": 696,
      "∘": 697,
      "∙": 698,
      "√": 699,
      "∞": 700,
      "∣": 701,
      "∧": 702,
      "∨": 703,
      "∩": 704,
      "∪": 705,
      "∫": 706,
      "∼": 707,
      "≈": 708,
      "≠": 709,
      "≡": 710,
      "≤": 711,
      "≥": 712,
      "≫": 713,
      "⊆": 714,
      "⊗": 715,
      "⊙": 716,
      "⋅": 717,
      "〈": 718,
      "〉": 719,
      "⏩": 720,
      "⏰": 721,
      "Ⓡ": 722,
      "─": 723,
      "│": 724,
      "═": 725,
      "╱": 726,
      "▀": 727,
      "▂": 728,
      "▄": 729,
      "█": 730,
      "■": 731,
      "□": 732,
      "▪": 733,
      "▫": 734,
      "▬": 735,
      "▲": 736,
      "▶": 737,
      "▷": 738,
      "▸": 739,
      "►": 740,
      "▼": 741,
      "▾": 742,
      "◄": 743,
      "◆": 744,
      "◊": 745,
      "○": 746,
      "●": 747,
      "◦": 748,
      "◼": 749,
      "◾": 750,
      "☀": 751,
      "★": 752,
      "☆": 753,
      "☎": 754,
      "☐": 755,
      "☑": 756,
      "☕": 757,
      "☛": 758,
      "☝": 759,
      "☞": 760,
      "☹": 761,
      "☺": 762,
      "☻": 763,
      "☼": 764,
      "♀": 765,
      "♂": 766,
      "♔": 767,
      "♕": 768,
      "♠": 769,
      "♡": 770,
      "♣": 771,
      "♥": 772,
      "♦": 773,
      "♨": 774,
      "♪": 775,
      "♫": 776,
      "⚕": 777,
      "⚠": 778,
      "⚡": 779,
      "⚽": 780,
      "⛔": 781,
      "✅": 782,
      "✈": 783,
      "✌": 784,
      "✍": 785,
      "✓": 786,
      "✔": 787,
      "✖": 788,
      "✘": 789,
      "✝": 790,
      "✡": 791,
      "✦": 792,
      "✨": 793,
      "✶": 794,
      "✿": 795,
      "❀": 796,
      "❄": 797,
      "❌": 798,
      "❓": 799,
      "❖": 800,
      "❗": 801,
      "❣": 802,
      "❤": 803,
      "❧": 804,
      "❶": 805,
      "❷": 806,
      "➖": 807,
      "➙": 808,
      "➜": 809,
      "➠": 810,
      "➡": 811,
      "➢": 812,
      "➤": 813,
      "➽": 814,
      "⠀": 815,
      "⦁": 816,
      "⬇": 817,
      "⭐": 818,
      "ⲁ": 819,
      "、": 820,
      "《": 821,
      "》": 822,
      "「": 823,
      "」": 824,
      "【": 825,
      "】": 826,
      "い": 827,
      "き": 828,
      "し": 829,
      "の": 830,
      "り": 831,
      "ん": 832,
      "イ": 833,
      "ス": 834,
      "ツ": 835,
      "ト": 836,
      "ル": 837,
      "ン": 838,
      "・": 839,
      "ー": 840,
      "一": 841,
      "三": 842,
      "不": 843,
      "世": 844,
      "中": 845,
      "之": 846,
      "二": 847,
      "五": 848,
      "人": 849,
      "佛": 850,
      "八": 851,
      "公": 852,
      "六": 853,
      "功": 854,
      "北": 855,
      "十": 856,
      "善": 857,
      "四": 858,
      "国": 859,
      "地": 860,
      "大": 861,
      "天": 862,
      "太": 863,
      "如": 864,
      "子": 865,
      "少": 866,
      "山": 867,
      "心": 868,
      "拳": 869,
      "日": 870,
      "書": 871,
      "有": 872,
      "本": 873,
      "正": 874,
      "武": 875,
      "氣": 876,
      "法": 877,
      "無": 878,
      "生": 879,
      "神": 880,
      "經": 881,
      "艖": 882,
      "茶": 883,
      "菩": 884,
      "行": 885,
      "道": 886,
      "金": 887,
      "ﬀ": 888,
      "ﬁ": 889,
      "ﬂ": 890,
      "ﬅ": 891,
      "︎": 892,
      "️": 893,
      "（": 894,
      "）": 895,
      "，": 896,
      "｜": 897,
      "￼": 898,
      "🇪": 899,
      "🇭": 900,
      "🇺": 901,
      "🌞": 902,
      "🌡": 903,
      "🌱": 904,
      "🌳": 905,
      "🌷": 906,
      "🌸": 907,
      "🌺": 908,
      "🌿": 909,
      "🍀": 910,
      "🍆": 911,
      "🍌": 912,
      "🍷": 913,
      "🍽": 914,
      "🎁": 915,
      "🎄": 916,
      "🎉": 917,
      "🎧": 918,
      "🎬": 919,
      "🎸": 920,
      "🏃": 921,
      "🏆": 922,
      "🏥": 923,
      "🏻": 924,
      "🏼": 925,
      "🐱": 926,
      "🐶": 927,
      "🐾": 928,
      "👀": 929,
      "👇": 930,
      "👈": 931,
      "👉": 932,
      "👋": 933,
      "👌": 934,
      "👍": 935,
      "👏": 936,
      "👨": 937,
      "👩": 938,
      "👶": 939,
      "💀": 940,
      "💉": 941,
      "💊": 942,
      "💋": 943,
      "💔": 944,
      "💕": 945,
      "💖": 946,
      "💗": 947,
      "💙": 948,
      "💚": 949,
      "💜": 950,
      "💝": 951,
      "💞": 952,
      "💡": 953,
      "💥": 954,
      "💪": 955,
      "💰": 956,
      "📌": 957,
      "📖": 958,
      "📢": 959,
      "🔊": 960,
      "🔞": 961,
      "🔥": 962,
      "🔴": 963,
      "🔸": 964,
      "🔹": 965,
      "😀": 966,
      "😁": 967,
      "😂": 968,
      "😃": 969,
      "😄": 970,
      "😅": 971,
      "😆": 972,
      "😇": 973,
      "😈": 974,
      "😉": 975,
      "😊": 976,
      "😋": 977,
      "😌": 978,
      "😍": 979,
      "😎": 980,
      "😏": 981,
      "😐": 982,
      "😒": 983,
      "😔": 984,
      "😕": 985,
      "😘": 986,
      "😛": 987,
      "😜": 988,
      "😝": 989,
      "😞": 990,
      "😠": 991,
      "😡": 992,
      "😢": 993,
      "😥": 994,
      "😦": 995,
      "😨": 996,
      "😬": 997,
      "😭": 998,
      "😮": 999,
      "😯": 1000,
      "😱": 1001,
      "😲": 1002,
      "😳": 1003,
      "😷": 1004,
      "🙁": 1005,
      "🙂": 1006,
      "🙃": 1007,
      "🙄": 1008,
      "🙈": 1009,
      "🙌": 1010,
      "🙏": 1011,
      "🚴": 1012,
      "🟠": 1013,
      "🟢": 1014,
      "🤓": 1015,
      "🤔": 1016,
      "🤗": 1017,
      "🤘": 1018,
      "🤞": 1019,
      "🤣": 1020,
      "🤩": 1021,
      "🤪": 1022,
      "🤫": 1023,
      "🤭": 1024,
      "🤷": 1025,
      "🥇": 1026,
      "🥬": 1027,
      "🥰": 1028,
      "🥳": 1029,
      "🦄": 1030,
      "🧚": 1031,
      "##o": 1032,
      "##u": 1033,
      "##l": 1034,
      "##c": 1035,
      "##k": 1036,
      "##a": 1037,
      "##r": 1038,
      "##á": 1039,
      "##í": 1040,
      "##s": 1041,
      "##d": 1042,
      "##e": 1043,
      "##y": 1044,
      "##v": 1045,
      "##b": 1046,
      "##t": 1047,
      "##i": 1048,
      "##g": 1049,
      "##n": 1050,
      "##z": 1051,
      "##é": 1052,
      "##p": 1053,
      "##ő": 1054,
      "##ó": 1055,
      "##m": 1056,
      "##O": 1057,
      "##ü": 1058,
      "##j": 1059,
      "##ö": 1060,
      "##h": 1061,
      "##ú": 1062,
      "##f": 1063,
      "##0": 1064,
      "##4": 1065,
      "##2": 1066,
      "##1": 1067,
      "##9": 1068,
      "##G": 1069,
      "##x": 1070,
      "##ű": 1071,
      "##Y": 1072,
      "##Í": 1073,
      "##R": 1074,
      "##A": 1075,
      "##C": 1076,
      "##S": 1077,
      "##Á": 1078,
      "##D": 1079,
      "##T": 1080,
      "##8": 1081,
      "##B": 1082,
      "##U": 1083,
      "##5": 1084,
      "##6": 1085,
      "##X": 1086,
      "##w": 1087,
      "##F": 1088,
      "##3": 1089,
      "##L": 1090,
      "##M": 1091,
      "##õ": 1092,
      "##Q": 1093,
      "##ô": 1094,
      "##Z": 1095,
      "##Ő": 1096,
      "##N": 1097,
      "##E": 1098,
      "##I": 1099,
      "##H": 1100,
      "##K": 1101,
      "##Ü": 1102,
      "##P": 1103,
      "##7": 1104,
      "##Å": 1105,
      "##J": 1106,
      "##V": 1107,
      "##W": 1108,
      "##û": 1109,
      "##š": 1110,
      "##∈": 1111,
      "##q": 1112,
      "##̋": 1113,
      "##́": 1114,
      "##🙈": 1115,
      "##É": 1116,
      "##è": 1117,
      "##ı": 1118,
      "##Ö": 1119,
      "##à": 1120,
      "##ï": 1121,
      "##Ă": 1122,
      "##ľ": 1123,
      "##Ú": 1124,
      "##Ó": 1125,
      "##λ": 1126,
      "##ο": 1127,
      "##ι": 1128,
      "##φ": 1129,
      "##ή": 1130,
      "##ä": 1131,
      "##¬": 1132,
      "##ž": 1133,
      "##ʌ": 1134,
      "##ʃ": 1135,
      "##ə": 1136,
      "##¸": 1137,
      "##ñ": 1138,
      "##р": 1139,
      "##о": 1140,
      "##м": 1141,
      "##а": 1142,
      "##д": 1143,
      "##я": 1144,
      "##н": 1145,
      "##и": 1146,
      "##т": 1147,
      "##ь": 1148,
      "##ē": 1149,
      "##ń": 1150,
      "##®": 1151,
      "##у": 1152,
      "##в": 1153,
      "##Ĺ": 1154,
      "##☺": 1155,
      "##️": 1156,
      "##â": 1157,
      "##ş": 1158,
      "##€": 1159,
      "##ý": 1160,
      "##Õ": 1161,
      "##Ą": 1162,
      "##ł": 1163,
      "##˝": 1164,
      "##Ÿ": 1165,
      "##̈": 1166,
      "##×": 1167,
      "##😁": 1168,
      "##Œ": 1169,
      "##±": 1170,
      "##Ä": 1171,
      "##ī": 1172,
      "##Ű": 1173,
      "##е": 1174,
      "##ш": 1175,
      "##Š": 1176,
      "##ų": 1177,
      "##л": 1178,
      "##ê": 1179,
      "##æ": 1180,
      "##÷": 1181,
      "##Ã": 1182,
      "##►": 1183,
      "##ſ": 1184,
      "##ć": 1185,
      "##ì": 1186,
      "##ë": 1187,
      "##η": 1188,
      "##γ": 1189,
      "##▪": 1190,
      "##ś": 1191,
      "##ы": 1192,
      "##к": 1193,
      "##ť": 1194,
      "##ε": 1195,
      "##σ": 1196,
      "##μ": 1197,
      "##˛": 1198,
      "##î": 1199,
      "##¹": 1200,
      "##å": 1201,
      "##´": 1202,
      "##−": 1203,
      "##б": 1204,
      "##ā": 1205,
      "##→": 1206,
      "##ц": 1207,
      "##拳": 1208,
      "##十": 1209,
      "##六": 1210,
      "##功": 1211,
      "##ò": 1212,
      "##з": 1213,
      "##ъ": 1214,
      "##Û": 1215,
      "##ț": 1216,
      "##À": 1217,
      "##ō": 1218,
      "##م": 1219,
      "##ą": 1220,
      "##œ": 1221,
      "##Ô": 1222,
      "##ș": 1223,
      "##˙": 1224,
      "##ß": 1225,
      "##č": 1226,
      "##İ": 1227,
      "##ù": 1228,
      "##ď": 1229,
      "##ż": 1230,
      "##£": 1231,
      "##س": 1232,
      "##ي": 1233,
      "##ل": 1234,
      "##ṣ": 1235,
      "##™": 1236,
      "##°": 1237,
      "##∙": 1238,
      "##ŭ": 1239,
      "##ј": 1240,
      "##α": 1241,
      "##κ": 1242,
      "##ρ": 1243,
      "##υ": 1244,
      "##ū": 1245,
      "##ç": 1246,
      "##👍": 1247,
      "##ę": 1248,
      "##ж": 1249,
      "##ź": 1250,
      "##ğ": 1251,
      "##ḥ": 1252,
      "##ю": 1253,
      "##ǝ": 1254,
      "##🙏": 1255,
      "##ὐ": 1256,
      "##ό": 1257,
      "##ς": 1258,
      "##ч": 1259,
      "##с": 1260,
      "##Â": 1261,
      "##ø": 1262,
      "##Ť": 1263,
      "##ṛ": 1264,
      "##ṭ": 1265,
      "##ě": 1266,
      "##Ω": 1267,
      "##😉": 1268,
      "##🦄": 1269,
      "##≈": 1270,
      "##ė": 1271,
      "##ř": 1272,
      "##ּ": 1273,
      "##ְ": 1274,
      "##פ": 1275,
      "##ִ": 1276,
      "##י": 1277,
      "##ו": 1278,
      "##Ě": 1279,
      "##ћ": 1280,
      "##ĳ": 1281,
      "##ф": 1282,
      "##Ś": 1283,
      "##ň": 1284,
      "##є": 1285,
      "##ţ": 1286,
      "##😂": 1287,
      "##π": 1288,
      "##ί": 1289,
      "##Ø": 1290,
      "##国": 1291,
      "##大": 1292,
      "##¤": 1293,
      "##β": 1294,
      "##ν": 1295,
      "##💔": 1296,
      "##ﬁ": 1297,
      "##⃣": 1298,
      "##ɪ": 1299,
      "##─": 1300,
      "##ˇ": 1301,
      "##і": 1302,
      "##ă": 1303,
      "##ː": 1304,
      "##ﬅ": 1305,
      "##ã": 1306,
      "##イ": 1307,
      "##⋅": 1308,
      "##ˑ": 1309,
      "##Æ": 1310,
      "##ĕ": 1311,
      "##й": 1312,
      "##²": 1313,
      "##µ": 1314,
      "##щ": 1315,
      "##п": 1316,
      "##ơ": 1317,
      "##đ": 1318,
      "##ů": 1319,
      "##³": 1320,
      "##❤": 1321,
      "##Ā": 1322,
      "##ˆ": 1323,
      "##ņ": 1324,
      "##し": 1325,
      "##ﬀ": 1326,
      "##Ľ": 1327,
      "##º": 1328,
      "##🤣": 1329,
      "##😄": 1330,
      "##ί": 1331,
      "##τ": 1332,
      "##ω": 1333,
      "##њ": 1334,
      "##נ": 1335,
      "##א": 1336,
      "##ŝ": 1337,
      "##🙂": 1338,
      "##∩": 1339,
      "##ŕ": 1340,
      "##ɛ": 1341,
      "##δ": 1342,
      "##˗": 1343,
      "##г": 1344,
      "##Р": 1345,
      "##Е": 1346,
      "##З": 1347,
      "##Н": 1348,
      "##Т": 1349,
      "##А": 1350,
      "##Ц": 1351,
      "##И": 1352,
      "##Ј": 1353,
      "##У": 1354,
      "##ÿ": 1355,
      "##Ŭ": 1356,
      "##х": 1357,
      "##ˈ": 1358,
      "##🏻": 1359,
      "##℃": 1360,
      "##ά": 1361,
      "##̩": 1362,
      "##Ψ": 1363,
      "##∑": 1364,
      "##♂": 1365,
      "##🚴": 1366,
      "##♀": 1367,
      "##¼": 1368,
      "##😲": 1369,
      "##⁄": 1370,
      "##ʲ": 1371,
      "##人": 1372,
      "##ɔ": 1373,
      "##ð": 1374,
      "##˘": 1375,
      "##ˌ": 1376,
      "##า": 1377,
      "##Д": 1378,
      "##К": 1379,
      "##ῶ": 1380,
      "##љ": 1381,
      "##̃": 1382,
      "##ǔ": 1383,
      "##ӧ": 1384,
      "##Ł": 1385,
      "##✌": 1386,
      "##😘": 1387,
      "##ʰ": 1388,
      "##Ž": 1389,
      "##Ź": 1390,
      "##≤": 1391,
      "##έ": 1392,
      "##ĝ": 1393,
      "##¥": 1394,
      "##😃": 1395,
      "##þ": 1396,
      "##С": 1397,
      "##🙃": 1398,
      "##ん": 1399,
      "##の": 1400,
      "##Ē": 1401,
      "##В": 1402,
      "##Ш": 1403,
      "##ἰ": 1404,
      "##ŋ": 1405,
      "##ָ": 1406,
      "##ר": 1407,
      "##ם": 1408,
      "##ό": 1409,
      "##χ": 1410,
      "##ζ": 1411,
      "##ħ": 1412,
      "##😋": 1413,
      "##Ř": 1414,
      "##💕": 1415,
      "##♥": 1416,
      "##■": 1417,
      "##Î": 1418,
      "##╱": 1419,
      "##ל": 1420,
      "##ή": 1421,
      "##θ": 1422,
      "##È": 1423,
      "##ב": 1424,
      "##ֵ": 1425,
      "##︎": 1426,
      "##Ý": 1427,
      "##↩": 1428,
      "##ǎ": 1429,
      "##😕": 1430,
      "##қ": 1431,
      "##Ρ": 1432,
      "##Ç": 1433,
      "##山": 1434,
      "##地": 1435,
      "##生": 1436,
      "##Δ": 1437,
      "##い": 1438,
      "##ー": 1439,
      "##✔": 1440,
      "##Ì": 1441,
      "##र": 1442,
      "##ि": 1443,
      "##्": 1444,
      "##̣": 1445,
      "##Ê": 1446,
      "##מ": 1447,
      "##¢": 1448,
      "##🇺": 1449,
      "##ώ": 1450,
      "##¨": 1451,
      "##≡": 1452,
      "##ξ": 1453,
      "##ύ": 1454,
      "##¦": 1455,
      "##Ħ": 1456,
      "##ʊ": 1457,
      "##̥": 1458,
      "##❗": 1459,
      "##ª": 1460,
      "##￼": 1461,
      "##ɾ": 1462,
      "##ṅ": 1463,
      "##ן": 1464,
      "##≥": 1465,
      "##●": 1466,
      "##Č": 1467,
      "##無": 1468,
      "##ũ": 1469,
      "##🎉": 1470,
      "##✈": 1471,
      "##ṇ": 1472,
      "##日": 1473,
      "##☆": 1474,
      "##😊": 1475,
      "##≠": 1476,
      "##Ж": 1477,
      "##П": 1478,
      "##Ω": 1479,
      "##⇒": 1480,
      "##Ę": 1481,
      "##Ю": 1482,
      "##🤔": 1483,
      "##̶": 1484,
      "##ק": 1485,
      "##ַ": 1486,
      "##ח": 1487,
      "##✓": 1488,
      "##Х": 1489,
      "##М": 1490,
      "##⚡": 1491,
      "##😅": 1492,
      "##ʧ": 1493,
      "##ש": 1494,
      "##و": 1495,
      "##少": 1496,
      "##˜": 1497,
      "##🤗": 1498,
      "##💞": 1499,
      "##✅": 1500,
      "##̯": 1501,
      "##👌": 1502,
      "##💚": 1503,
      "##😯": 1504,
      "##神": 1505,
      "##͡": 1506,
      "##̲": 1507,
      "##👏": 1508,
      "##🏼": 1509,
      "##Ć": 1510,
      "##🔸": 1511,
      "##√": 1512,
      "##ˮ": 1513,
      "##🐾": 1514,
      "##Ĕ": 1515,
      "##Я": 1516,
      "##😇": 1517,
      "##り": 1518,
      "##佛": 1519,
      "##¾": 1520,
      "##ϑ": 1521,
      "##道": 1522,
      "##Θ": 1523,
      "##ɒ": 1524,
      "##Π": 1525,
      "##Α": 1526,
      "##Ο": 1527,
      "##Σ": 1528,
      "##ה": 1529,
      "##ז": 1530,
      "##כ": 1531,
      "##😀": 1532,
      "##茶": 1533,
      "##ト": 1534,
      "##ン": 1535,
      "##😝": 1536,
      "##Ù": 1537,
      "##Ī": 1538,
      "##ġ": 1539,
      "##ḍ": 1540,
      "##ر": 1541,
      "##ك": 1542,
      "##ﬂ": 1543,
      "##ʺ": 1544,
      "##ṁ": 1545,
      "##中": 1546,
      "##本": 1547,
      "##心": 1548,
      "##ṃ": 1549,
      "##Ō": 1550,
      "##💪": 1551,
      "##子": 1552,
      "##🌿": 1553,
      "##🌱": 1554,
      "##♡": 1555,
      "##क": 1556,
      "##👀": 1557,
      "##⊙": 1558,
      "##⭐": 1559,
      "##ा": 1560,
      "##🌞": 1561,
      "##✡": 1562,
      "##👶": 1563,
      "##⊆": 1564,
      "##💙": 1565,
      "##😢": 1566,
      "##ʾ": 1567,
      "##̀": 1568,
      "##ֹ": 1569,
      "##ת": 1570,
      "##ד": 1571,
      "##ך": 1572,
      "##ℓ": 1573,
      "##˚": 1574,
      "##э": 1575,
      "##О": 1576,
      "##ة": 1577,
      "##😎": 1578,
      "##ϟ": 1579,
      "##│": 1580,
      "##Г": 1581,
      "##ά": 1582,
      "##❓": 1583,
      "##ǐ": 1584,
      "##🐶": 1585,
      "##😷": 1586,
      "##☀": 1587,
      "##ֲ": 1588,
      "##⁰": 1589,
      "##ё": 1590,
      "##ї": 1591,
      "##Đ": 1592,
      "##😍": 1593,
      "##ĭ": 1594,
      "##不": 1595,
      "##ׁ": 1596,
      "##ע": 1597,
      "##↑": 1598,
      "##ʼ": 1599,
      "##ֶ": 1600,
      "##½": 1601,
      "##ǧ": 1602,
      "##□": 1603,
      "##五": 1604,
      "##🤷": 1605,
      "##Б": 1606,
      "##Ţ": 1607,
      "##💖": 1608,
      "##ŏ": 1609,
      "##ن": 1610,
      "##ȧ": 1611,
      "##★": 1612,
      "##◄": 1613,
      "##🏆": 1614,
      "##ƒ": 1615,
      "##ʎ": 1616,
      "##₂": 1617,
      "##म": 1618,
      "##🎄": 1619,
      "##∫": 1620,
      "##💗": 1621,
      "##ψ": 1622,
      "##צ": 1623,
      "##🤭": 1624,
      "##太": 1625,
      "##💋": 1626,
      "##👩": 1627,
      "##त": 1628,
      "##艖": 1629,
      "##Ў": 1630,
      "##ʿ": 1631,
      "##◆": 1632,
      "##ա": 1633,
      "##∘": 1634,
      "##ῦ": 1635,
      "##ĺ": 1636,
      "##💜": 1637,
      "##ө": 1638,
      "##ق": 1639,
      "##菩": 1640,
      "##♫": 1641,
      "##♪": 1642,
      "##♦": 1643,
      "##一": 1644,
      "##之": 1645,
      "##有": 1646,
      "##▼": 1647,
      "##Ι": 1648,
      "##🧚": 1649,
      "##Ф": 1650,
      "##⦁": 1651,
      "##Ò": 1652,
      "##∅": 1653,
      "##Л": 1654,
      "##∼": 1655,
      "##Φ": 1656,
      "##ג": 1657,
      "##👨": 1658,
      "##✖": 1659,
      "##ӓ": 1660,
      "##∣": 1661,
      "##ĉ": 1662,
      "##▀": 1663,
      "##ب": 1664,
      "##ا": 1665,
      "##👉": 1666,
      "##😆": 1667,
      "##🏃": 1668,
      "##😭": 1669,
      "##ῖ": 1670,
      "##ὶ": 1671,
      "##🥰": 1672,
      "##Ë": 1673,
      "##ɹ": 1674,
      "##∗": 1675,
      "##💥": 1676,
      "##氣": 1677,
      "##̌": 1678,
      "##Ï": 1679,
      "##↔": 1680,
      "##̂": 1681,
      "##Υ": 1682,
      "##Κ": 1683,
      "##Ε": 1684,
      "##Τ": 1685,
      "##🙌": 1686,
      "##🤞": 1687,
      "##❄": 1688,
      "##😜": 1689,
      "##➖": 1690,
      "##💉": 1691,
      "##◾": 1692,
      "##έ": 1693,
      "##ʷ": 1694,
      "##⬇": 1695,
      "##█": 1696,
      "##ʻ": 1697,
      "##Ñ": 1698,
      "##∂": 1699,
      "##ح": 1700,
      "##↓": 1701,
      "##Ń": 1702,
      "##Ŏ": 1703,
      "##Γ": 1704,
      "##♠": 1705,
      "##♣": 1706,
      "##∀": 1707,
      "##⁵": 1708,
      "##І": 1709,
      "##ķ": 1710,
      "##▶": 1711,
      "##⚠": 1712,
      "##😱": 1713,
      "##🌷": 1714,
      "##Ż": 1715,
      "##َ": 1716,
      "##き": 1717,
      "##😌": 1718,
      "##∞": 1719,
      "##二": 1720,
      "##ῆ": 1721,
      "##😔": 1722,
      "##ϕ": 1723,
      "##🙁": 1724,
      "##ɜ": 1725,
      "##🇭": 1726,
      "##Ð": 1727,
      "##←": 1728,
      "##Þ": 1729,
      "##✨": 1730,
      "##ه": 1731,
      "##∪": 1732,
      "##🍆": 1733,
      "##ὸ": 1734,
      "##如": 1735,
      "##ϱ": 1736,
      "##Ν": 1737,
      "##Ζ": 1738,
      "##法": 1739,
      "##🙄": 1740,
      "##😥": 1741,
      "##̊": 1742,
      "##🍀": 1743,
      "##ύ": 1744,
      "##😡": 1745,
      "##ɐ": 1746,
      "##經": 1747,
      "##Ț": 1748,
      "##¯": 1749,
      "##ル": 1750,
      "##Ş": 1751,
      "##❣": 1752,
      "##ɑ": 1753,
      "##武": 1754,
      "##🍷": 1755,
      "##▲": 1756,
      "##▸": 1757,
      "##Ď": 1758,
      "##😠": 1759,
      "##🎁": 1760,
      "##⁴": 1761,
      "##Ĭ": 1762,
      "##😬": 1763,
      "##💝": 1764,
      "##ư": 1765,
      "##∆": 1766,
      "##ℝ": 1767,
      "##ツ": 1768,
      "##◊": 1769,
      "##ạ": 1770,
      "##⛔": 1771,
      "##ʒ": 1772,
      "##ت": 1773,
      "##▄": 1774,
      "##正": 1775,
      "##😞": 1776,
      "##ὁ": 1777,
      "##😈": 1778,
      "##🍽": 1779,
      "##🤩": 1780,
      "##🌳": 1781,
      "##ɩ": 1782,
      "##☕": 1783,
      "##ả": 1784,
      "##🥇": 1785,
      "##▬": 1786,
      "##Ū": 1787,
      "##😏": 1788,
      "##ט": 1789,
      "##◦": 1790,
      "##Χ": 1791,
      "##Μ": 1792,
      "##Β": 1793,
      "##⚽": 1794,
      "##🐱": 1795,
      "##ס": 1796,
      "##̡": 1797,
      "##∃": 1798,
      "##ɲ": 1799,
      "##善": 1800,
      "##̮": 1801,
      "##行": 1802,
      "##🤓": 1803,
      "##̄": 1804,
      "##ˊ": 1805,
      "##د": 1806,
      "##天": 1807,
      "##ˉ": 1808,
      "##🌸": 1809,
      "##Э": 1810,
      "##⠀": 1811,
      "##❀": 1812,
      "##｜": 1813,
      "##➡": 1814,
      "##ɣ": 1815,
      "##⇔": 1816,
      "##≫": 1817,
      "##🎸": 1818,
      "##ج": 1819,
      "##Λ": 1820,
      "##Η": 1821,
      "##ع": 1822,
      "##☝": 1823,
      "##🔥": 1824,
      "##Ș": 1825,
      "##🥳": 1826,
      "##☛": 1827,
      "##○": 1828,
      "##🔞": 1829,
      "##👋": 1830,
      "##💰": 1831,
      "##☹": 1832,
      "##👇": 1833,
      "##三": 1834,
      "##🍌": 1835,
      "##ス": 1836,
      "##😳": 1837,
      "##😮": 1838,
      "##☎": 1839,
      "##₁": 1840,
      "##ὴ": 1841,
      "##世": 1842,
      "##😛": 1843,
      "##書": 1844,
      "##🤫": 1845,
      "##Ч": 1846,
      "##☻": 1847,
      "##🥬": 1848,
      "##▾": 1849,
      "##№": 1850,
      "##ɫ": 1851,
      "##公": 1852,
      "##Ṭ": 1853,
      "##🤪": 1854,
      "##ⲁ": 1855,
      "##😨": 1856,
      "##🌺": 1857,
      "##北": 1858,
      "##四": 1859,
      "##ὄ": 1860,
      "##∧": 1861,
      "##ἐ": 1862,
      "##Щ": 1863,
      "##ɟ": 1864,
      "##ʝ": 1865,
      "##⚕": 1866,
      "##八": 1867,
      "##🔊": 1868,
      "##💡": 1869,
      "##⅓": 1870,
      "##ℹ": 1871,
      "##⃰": 1872,
      "##📢": 1873,
      "##═": 1874,
      "##⊗": 1875,
      "##🤘": 1876,
      "##⏰": 1877,
      "##Ė": 1878,
      "##🇪": 1879,
      "##💊": 1880,
      "##金": 1881,
      "##❌": 1882,
      "##🎬": 1883,
      "##☼": 1884,
      "##⇨": 1885,
      "##▫": 1886,
      "##✍": 1887,
      "##✿": 1888,
      "##♨": 1889,
      "##̵": 1890,
      "##❧": 1891,
      "##ღ": 1892,
      "##👈": 1893,
      "##😐": 1894,
      "##🎧": 1895,
      "##➢": 1896,
      "##ὰ": 1897,
      "##∨": 1898,
      "##♕": 1899,
      "##♔": 1900,
      "##ἄ": 1901,
      "##Ⓡ": 1902,
      "##⅔": 1903,
      "##📌": 1904,
      "##🌡": 1905,
      "##➤": 1906,
      "##Ξ": 1907,
      "##↺": 1908,
      "##➜": 1909,
      "##💀": 1910,
      "##✝": 1911,
      "##😦": 1912,
      "##😒": 1913,
      "##🔹": 1914,
      "##🏥": 1915,
      "##➠": 1916,
      "##◼": 1917,
      "##✘": 1918,
      "##☑": 1919,
      "##˃": 1920,
      "##📖": 1921,
      "##͜": 1922,
      "##ἔ": 1923,
      "##☞": 1924,
      "##➙": 1925,
      "##🔴": 1926,
      "##✶": 1927,
      "##❶": 1928,
      "##⏩": 1929,
      "##ἀ": 1930,
      "##🟢": 1931,
      "##⇓": 1932,
      "##🟠": 1933,
      "##❖": 1934,
      "##▂": 1935,
      "##⇩": 1936,
      "##▷": 1937,
      "##ǀ": 1938,
      "##☐": 1939,
      "##Ġ": 1940,
      "##Ṛ": 1941,
      "##✦": 1942,
      "##➽": 1943,
      "##᠍": 1944,
      "##̿": 1945,
      "##❷": 1946,
      "##at": 1947,
      "##er": 1948,
      "##an": 1949,
      "##ek": 1950,
      "##al": 1951,
      "##le": 1952,
      "##ás": 1953,
      "##te": 1954,
      "##és": 1955,
      "sz": 1956,
      "##eg": 1957,
      "az": 1958,
      "##on": 1959,
      "##ak": 1960,
      "##tt": 1961,
      "##es": 1962,
      "##ál": 1963,
      "##ár": 1964,
      "##in": 1965,
      "##ol": 1966,
      "##or": 1967,
      "##em": 1968,
      "##ny": 1969,
      "##og": 1970,
      "##ok": 1971,
      "##ag": 1972,
      "és": 1973,
      "##ég": 1974,
      "##ez": 1975,
      "##os": 1976,
      "##ik": 1977,
      "##ar": 1978,
      "el": 1979,
      "##ér": 1980,
      "##is": 1981,
      "meg": 1982,
      "##zt": 1983,
      "##ly": 1984,
      "##as": 1985,
      "##bb": 1986,
      "eg": 1987,
      "##án": 1988,
      "##ít": 1989,
      "##át": 1990,
      "##oz": 1991,
      "egy": 1992,
      "##be": 1993,
      "##ogy": 1994,
      "##ap": 1995,
      "##ze": 1996,
      "##ve": 1997,
      "is": 1998,
      "##agy": 1999,
      "##nk": 2000,
      "##ül": 2001,
      "kö": 2002,
      "hogy": 2003,
      "##ni": 2004,
      "##om": 2005,
      "##ék": 2006,
      "fe": 2007,
      "##re": 2008,
      "##ség": 2009,
      "##ág": 2010,
      "##ban": 2011,
      "##ben": 2012,
      "##de": 2013,
      "##it": 2014,
      "##ad": 2015,
      "##he": 2016,
      "##nt": 2017,
      "##ll": 2018,
      "nem": 2019,
      "##am": 2020,
      "##cs": 2021,
      "##lt": 2022,
      "##ét": 2023,
      "##nek": 2024,
      "##ott": 2025,
      "##ól": 2026,
      "##ény": 2027,
      "cs": 2028,
      "##ele": 2029,
      "##ja": 2030,
      "ki": 2031,
      "min": 2032,
      "le": 2033,
      "##ed": 2034,
      "##ra": 2035,
      "##él": 2036,
      "be": 2037,
      "##ig": 2038,
      "##ép": 2039,
      "##het": 2040,
      "##me": 2041,
      "##ul": 2042,
      "##ák": 2043,
      "##us": 2044,
      "##nak": 2045,
      "##az": 2046,
      "##aj": 2047,
      "fel": 2048,
      "al": 2049,
      "##let": 2050,
      "##ai": 2051,
      "szer": 2052,
      "##zer": 2053,
      "##se": 2054,
      "##unk": 2055,
      "##ány": 2056,
      "##eze": 2057,
      "##ám": 2058,
      "##ész": 2059,
      "##hat": 2060,
      "##én": 2061,
      "##ot": 2062,
      "ak": 2063,
      "ér": 2064,
      "##nd": 2065,
      "tö": 2066,
      "##ci": 2067,
      "gy": 2068,
      "##ől": 2069,
      "##ut": 2070,
      "##int": 2071,
      "##art": 2072,
      "Az": 2073,
      "##ság": 2074,
      "##áz": 2075,
      "##olt": 2076,
      "##lő": 2077,
      "##il": 2078,
      "##od": 2079,
      "##szer": 2080,
      "##uk": 2081,
      "te": 2082,
      "##esz": 2083,
      "##ud": 2084,
      "köz": 2085,
      "##ont": 2086,
      "##ált": 2087,
      "##ke": 2088,
      "vagy": 2089,
      "re": 2090,
      "##mi": 2091,
      "##tet": 2092,
      "me": 2093,
      "ke": 2094,
      "##len": 2095,
      "##ük": 2096,
      "##asz": 2097,
      "ad": 2098,
      "##kö": 2099,
      "leg": 2100,
      "##ért": 2101,
      "##ne": 2102,
      "##eke": 2103,
      "ez": 2104,
      "ter": 2105,
      "##ab": 2106,
      "##áll": 2107,
      "ny": 2108,
      "val": 2109,
      "##lye": 2110,
      "##iz": 2111,
      "##ók": 2112,
      "de": 2113,
      "##ön": 2114,
      "mi": 2115,
      "##dő": 2116,
      "##00": 2117,
      "##val": 2118,
      "##atás": 2119,
      "##ond": 2120,
      "##vel": 2121,
      "##ert": 2122,
      "##ünk": 2123,
      "##ív": 2124,
      "##rt": 2125,
      "##zet": 2126,
      "##tel": 2127,
      "nagy": 2128,
      "##alm": 2129,
      "elő": 2130,
      "##áj": 2131,
      "##ése": 2132,
      "he": 2133,
      "##olg": 2134,
      "##nál": 2135,
      "van": 2136,
      "##ítás": 2137,
      "##vet": 2138,
      "tud": 2139,
      "##att": 2140,
      "##ább": 2141,
      "##kor": 2142,
      "volt": 2143,
      "ut": 2144,
      "lehet": 2145,
      "##ában": 2146,
      "ker": 2147,
      "áll": 2148,
      "már": 2149,
      "##ző": 2150,
      "##ód": 2151,
      "szám": 2152,
      "##mény": 2153,
      "##ezet": 2154,
      "##eket": 2155,
      "##av": 2156,
      "##ge": 2157,
      "##ss": 2158,
      "##okat": 2159,
      "##ye": 2160,
      "##ber": 2161,
      "##orm": 2162,
      "##ára": 2163,
      "##tett": 2164,
      "csak": 2165,
      "##ében": 2166,
      "##ba": 2167,
      "##kez": 2168,
      "##ött": 2169,
      "minde": 2170,
      "év": 2171,
      "##aszt": 2172,
      "##ov": 2173,
      "##ály": 2174,
      "##ére": 2175,
      "##ta": 2176,
      "am": 2177,
      "pr": 2178,
      "mag": 2179,
      "##ció": 2180,
      "##koz": 2181,
      "##oly": 2182,
      "##hoz": 2183,
      "##je": 2184,
      "##tem": 2185,
      "még": 2186,
      "ha": 2187,
      "kap": 2188,
      "##leg": 2189,
      "jele": 2190,
      "##ély": 2191,
      "##ír": 2192,
      "szem": 2193,
      "##ony": 2194,
      "tart": 2195,
      "kell": 2196,
      "em": 2197,
      "##tes": 2198,
      "Sz": 2199,
      "##lés": 2200,
      "##ese": 2201,
      "20": 2202,
      "##um": 2203,
      "más": 2204,
      "##ld": 2205,
      "es": 2206,
      "##éz": 2207,
      "##nny": 2208,
      "##dés": 2209,
      "##ur": 2210,
      "ame": 2211,
      "##ök": 2212,
      "##isz": 2213,
      "##est": 2214,
      "ne": 2215,
      "##ént": 2216,
      "mint": 2217,
      "fog": 2218,
      "##ból": 2219,
      "több": 2220,
      "##agyar": 2221,
      "##egy": 2222,
      "##ső": 2223,
      "##ható": 2224,
      "szere": 2225,
      "ig": 2226,
      "kép": 2227,
      "##vé": 2228,
      "##ir": 2229,
      "##zés": 2230,
      "##lyen": 2231,
      "##ör": 2232,
      "kül": 2233,
      "azt": 2234,
      "vég": 2235,
      "##obb": 2236,
      "##asznál": 2237,
      "##ása": 2238,
      "##lle": 2239,
      "##ató": 2240,
      "hely": 2241,
      "##ng": 2242,
      "öss": 2243,
      "##ia": 2244,
      "##kal": 2245,
      "##óg": 2246,
      "##sége": 2247,
      "sem": 2248,
      "rend": 2249,
      "##ának": 2250,
      "nap": 2251,
      "##ós": 2252,
      "##id": 2253,
      "##ti": 2254,
      "##ület": 2255,
      "át": 2256,
      "##ást": 2257,
      "##ors": 2258,
      "##ten": 2259,
      "##pe": 2260,
      "ese": 2261,
      "amely": 2262,
      "##hez": 2263,
      "minden": 2264,
      "##ális": 2265,
      "##zág": 2266,
      "##del": 2267,
      "alap": 2268,
      "##ult": 2269,
      "Ez": 2270,
      "új": 2271,
      "##ült": 2272,
      "##ról": 2273,
      "##juk": 2274,
      "ar": 2275,
      "##ajd": 2276,
      "##va": 2277,
      "mű": 2278,
      "##hető": 2279,
      "er": 2280,
      "##iss": 2281,
      "##iszt": 2282,
      "##ozz": 2283,
      "##zel": 2284,
      "##fe": 2285,
      "##abb": 2286,
      "##ával": 2287,
      "##éke": 2288,
      "idő": 2289,
      "eset": 2290,
      "oly": 2291,
      "##öv": 2292,
      "Eg": 2293,
      "##ere": 2294,
      "##ján": 2295,
      "##ort": 2296,
      "##ob": 2297,
      "##ják": 2298,
      "201": 2299,
      "##zi": 2300,
      "akkor": 2301,
      "bi": 2302,
      "##lj": 2303,
      "for": 2304,
      "mind": 2305,
      "##atok": 2306,
      "tal": 2307,
      "##ének": 2308,
      "munk": 2309,
      "##ani": 2310,
      "tan": 2311,
      "valam": 2312,
      "##áció": 2313,
      "ami": 2314,
      "##zen": 2315,
      "##ch": 2316,
      "##ozt": 2317,
      "##ikus": 2318,
      "##ítés": 2319,
      "##im": 2320,
      "##ád": 2321,
      "hat": 2322,
      "##op": 2323,
      "lát": 2324,
      "sok": 2325,
      "olyan": 2326,
      "han": 2327,
      "kör": 2328,
      "##árt": 2329,
      "kor": 2330,
      "##ost": 2331,
      "vál": 2332,
      "##ltal": 2333,
      "##ős": 2334,
      "##ót": 2335,
      "##ket": 2336,
      "##szt": 2337,
      "##ín": 2338,
      "##eszt": 2339,
      "hi": 2340,
      "##tele": 2341,
      "##ők": 2342,
      "ember": 2343,
      "##jt": 2344,
      "ve": 2345,
      "term": 2346,
      "íg": 2347,
      "alk": 2348,
      "##old": 2349,
      "in": 2350,
      "##edig": 2351,
      "rész": 2352,
      "szerint": 2353,
      "##ilág": 2354,
      "##éle": 2355,
      "után": 2356,
      "##ém": 2357,
      "##csol": 2358,
      "##lv": 2359,
      "##esen": 2360,
      "##üg": 2361,
      "or": 2362,
      "##ások": 2363,
      "##ről": 2364,
      "jog": 2365,
      "##teg": 2366,
      "##ított": 2367,
      "##na": 2368,
      "##ös": 2369,
      "##árs": 2370,
      "így": 2371,
      "##and": 2372,
      "kér": 2373,
      "kész": 2374,
      "##ovább": 2375,
      "##ass": 2376,
      "azon": 2377,
      "érd": 2378,
      "##almaz": 2379,
      "##ug": 2380,
      "tört": 2381,
      "által": 2382,
      "##oss": 2383,
      "követ": 2384,
      "szak": 2385,
      "Egy": 2386,
      "##li": 2387,
      "bizt": 2388,
      "##ri": 2389,
      "##issz": 2390,
      "pedig": 2391,
      "ren": 2392,
      "két": 2393,
      "mert": 2394,
      "##sen": 2395,
      "telj": 2396,
      "foly": 2397,
      "sor": 2398,
      "külön": 2399,
      "jó": 2400,
      "ah": 2401,
      "##kel": 2402,
      "##vez": 2403,
      "lesz": 2404,
      "ép": 2405,
      "kis": 2406,
      "##ási": 2407,
      "##ink": 2408,
      "jelent": 2409,
      "##ontos": 2410,
      "##ce": 2411,
      "##áros": 2412,
      "19": 2413,
      "##ikor": 2414,
      "##ből": 2415,
      "##atos": 2416,
      "##íz": 2417,
      "né": 2418,
      "első": 2419,
      "Ha": 2420,
      "##ével": 2421,
      "##tek": 2422,
      "##mer": 2423,
      "##vény": 2424,
      "ben": 2425,
      "hozz": 2426,
      "használ": 2427,
      "szab": 2428,
      "##öz": 2429,
      "magyar": 2430,
      "adat": 2431,
      "##erm": 2432,
      "ellen": 2433,
      "##ikai": 2434,
      "kez": 2435,
      "##llet": 2436,
      "vissz": 2437,
      "##őr": 2438,
      "Nem": 2439,
      "##nnyi": 2440,
      "mond": 2441,
      "seg": 2442,
      "##ász": 2443,
      "hal": 2444,
      "##any": 2445,
      "úg": 2446,
      "úgy": 2447,
      "majd": 2448,
      "ok": 2449,
      "megf": 2450,
      "##mű": 2451,
      "fej": 2452,
      "##ló": 2453,
      "tovább": 2454,
      "gond": 2455,
      "##ház": 2456,
      "##öl": 2457,
      "##llett": 2458,
      "sze": 2459,
      "##pont": 2460,
      "kapcsol": 2461,
      "##tr": 2462,
      "igaz": 2463,
      "##alom": 2464,
      "##szerű": 2465,
      "világ": 2466,
      "##nap": 2467,
      "történ": 2468,
      "##ossz": 2469,
      "illet": 2470,
      "##áb": 2471,
      "##ési": 2472,
      "személy": 2473,
      "##yan": 2474,
      "##séges": 2475,
      "vált": 2476,
      "##adás": 2477,
      "##lan": 2478,
      "ir": 2479,
      "között": 2480,
      "##vezet": 2481,
      "ug": 2482,
      "je": 2483,
      "nagyon": 2484,
      "keze": 2485,
      "élet": 2486,
      "tör": 2487,
      "##ked": 2488,
      "##öld": 2489,
      "fi": 2490,
      "mely": 2491,
      "mód": 2492,
      "##ati": 2493,
      "##kol": 2494,
      "##met": 2495,
      "##fi": 2496,
      "ere": 2497,
      "saj": 2498,
      "##zak": 2499,
      "##óz": 2500,
      "ért": 2501,
      "bel": 2502,
      "##ata": 2503,
      "##incs": 2504,
      "nek": 2505,
      "fő": 2506,
      "egész": 2507,
      "Mi": 2508,
      "##lm": 2509,
      "össze": 2510,
      "való": 2511,
      "szolg": 2512,
      "##ram": 2513,
      "##aság": 2514,
      "##kül": 2515,
      "##ést": 2516,
      "ezt": 2517,
      "talál": 2518,
      "##iv": 2519,
      "##ként": 2520,
      "##jük": 2521,
      "biztos": 2522,
      "##azd": 2523,
      "##év": 2524,
      "##eme": 2525,
      "##zett": 2526,
      "##pr": 2527,
      "##áv": 2528,
      "##ezett": 2529,
      "##ess": 2530,
      "aki": 2531,
      "##ország": 2532,
      "teljes": 2533,
      "##atkoz": 2534,
      "##sal": 2535,
      "##állal": 2536,
      "##eb": 2537,
      "##ját": 2538,
      "##form": 2539,
      "lehető": 2540,
      "jelen": 2541,
      "én": 2542,
      "##teni": 2543,
      "##akor": 2544,
      "fele": 2545,
      "##úl": 2546,
      "##kép": 2547,
      "##lal": 2548,
      "szük": 2549,
      "##lem": 2550,
      "##ill": 2551,
      "##inek": 2552,
      "ját": 2553,
      "össz": 2554,
      "egye": 2555,
      "##fog": 2556,
      "megt": 2557,
      "##észe": 2558,
      "en": 2559,
      "segít": 2560,
      "Magyar": 2561,
      "cél": 2562,
      "##kod": 2563,
      "##bbe": 2564,
      "##lát": 2565,
      "an": 2566,
      "##izs": 2567,
      "int": 2568,
      "rendszer": 2569,
      "##ha": 2570,
      "ugyan": 2571,
      "##éd": 2572,
      "old": 2573,
      "kom": 2574,
      "ide": 2575,
      "dolg": 2576,
      "##atal": 2577,
      "##őt": 2578,
      "##ozott": 2579,
      "egyik": 2580,
      "most": 2581,
      "##jele": 2582,
      "##ített": 2583,
      "##ven": 2584,
      "illetve": 2585,
      "alatt": 2586,
      "##köz": 2587,
      "##ító": 2588,
      "##ise": 2589,
      "##szág": 2590,
      "##ván": 2591,
      "##erek": 2592,
      "##séget": 2593,
      "vezet": 2594,
      "##ormány": 2595,
      "Min": 2596,
      "tám": 2597,
      "##ing": 2598,
      "##ord": 2599,
      "##ógy": 2600,
      "##hely": 2601,
      "##ozás": 2602,
      "##omány": 2603,
      "cí": 2604,
      "##áról": 2605,
      "fér": 2606,
      "rendel": 2607,
      "ott": 2608,
      "von": 2609,
      "érdek": 2610,
      "##arad": 2611,
      "st": 2612,
      "biz": 2613,
      "bár": 2614,
      "##yen": 2615,
      "akik": 2616,
      "##st": 2617,
      "##ull": 2618,
      "##ck": 2619,
      "jár": 2620,
      "##üt": 2621,
      "##óp": 2622,
      "per": 2623,
      "itt": 2624,
      "##ög": 2625,
      "##alak": 2626,
      "##üle": 2627,
      "##ór": 2628,
      "megfele": 2629,
      "ár": 2630,
      "##észt": 2631,
      "##ran": 2632,
      "hang": 2633,
      "besz": 2634,
      "200": 2635,
      "ír": 2636,
      "##vány": 2637,
      "##nne": 2638,
      "##zik": 2639,
      "##éld": 2640,
      "##nél": 2641,
      "felh": 2642,
      "##ács": 2643,
      "any": 2644,
      "##atlan": 2645,
      "valamint": 2646,
      "##ések": 2647,
      "kon": 2648,
      "##lat": 2649,
      "id": 2650,
      "##ogram": 2651,
      "##ából": 2652,
      "csal": 2653,
      "##oszt": 2654,
      "ind": 2655,
      "lak": 2656,
      "visz": 2657,
      "10": 2658,
      "szeret": 2659,
      "##élkül": 2660,
      "ked": 2661,
      "számára": 2662,
      "arra": 2663,
      "amit": 2664,
      "##izsg": 2665,
      "##rend": 2666,
      "##szak": 2667,
      "ver": 2668,
      "De": 2669,
      "##nő": 2670,
      "üg": 2671,
      "vár": 2672,
      "##ába": 2673,
      "##önt": 2674,
      "##det": 2675,
      "##bben": 2676,
      "miatt": 2677,
      "fig": 2678,
      "elm": 2679,
      "##ozó": 2680,
      "hanem": 2681,
      "él": 2682,
      "##nni": 2683,
      "sik": 2684,
      "##ip": 2685,
      "nincs": 2686,
      "##jár": 2687,
      "száz": 2688,
      "Gy": 2689,
      "jel": 2690,
      "##hány": 2691,
      "felt": 2692,
      "tele": 2693,
      "műkö": 2694,
      "##ege": 2695,
      "oldal": 2696,
      "Cs": 2697,
      "##állítás": 2698,
      "amikor": 2699,
      "##pen": 2700,
      "##ver": 2701,
      "következ": 2702,
      "##öt": 2703,
      "##ekt": 2704,
      "##get": 2705,
      "út": 2706,
      "##ekkel": 2707,
      "##ügy": 2708,
      "saját": 2709,
      "péld": 2710,
      "##den": 2711,
      "par": 2712,
      "társ": 2713,
      "ország": 2714,
      "ism": 2715,
      "Meg": 2716,
      "##emény": 2717,
      "mellett": 2718,
      "választ": 2719,
      "vesz": 2720,
      "##lap": 2721,
      "ügy": 2722,
      "##atot": 2723,
      "se": 2724,
      "##nyv": 2725,
      "##esség": 2726,
      "rendelkez": 2727,
      "##lyet": 2728,
      "##almas": 2729,
      "nélkül": 2730,
      "##ását": 2731,
      "##utat": 2732,
      "##ekben": 2733,
      "##ajt": 2734,
      "##ób": 2735,
      "##ári": 2736,
      "megs": 2737,
      "vé": 2738,
      "gyógy": 2739,
      "kív": 2740,
      "##ező": 2741,
      "megfelelő": 2742,
      "azonban": 2743,
      "szín": 2744,
      "pén": 2745,
      "##ant": 2746,
      "elv": 2747,
      "##br": 2748,
      "##zs": 2749,
      "gondol": 2750,
      "##dig": 2751,
      "előtt": 2752,
      "vállal": 2753,
      "szolgált": 2754,
      "##fel": 2755,
      "ör": 2756,
      "##elem": 2757,
      "hatás": 2758,
      "##mel": 2759,
      "##ölt": 2760,
      "beteg": 2761,
      "##ológ": 2762,
      "ahol": 2763,
      "##up": 2764,
      "kiv": 2765,
      "##árom": 2766,
      "har": 2767,
      "##fej": 2768,
      "folyam": 2769,
      "aut": 2770,
      "##olna": 2771,
      "##ütt": 2772,
      "jobb": 2773,
      "##osan": 2774,
      "foglal": 2775,
      "##öm": 2776,
      "igény": 2777,
      "gyerm": 2778,
      "család": 2779,
      "##tette": 2780,
      "##éb": 2781,
      "esz": 2782,
      "ilyen": 2783,
      "##ter": 2784,
      "##ánt": 2785,
      "test": 2786,
      "##zeti": 2787,
      "ban": 2788,
      "tár": 2789,
      "##ió": 2790,
      "támog": 2791,
      "gazd": 2792,
      "##osz": 2793,
      "##keze": 2794,
      "fal": 2795,
      "##uróp": 2796,
      "##sel": 2797,
      "vi": 2798,
      "##dmény": 2799,
      "alkalmaz": 2800,
      "akár": 2801,
      "##úly": 2802,
      "gyakor": 2803,
      "rá": 2804,
      "szól": 2805,
      "##íj": 2806,
      "szó": 2807,
      "##újt": 2808,
      "kerül": 2809,
      "##tam": 2810,
      "keres": 2811,
      "##ához": 2812,
      "során": 2813,
      "Fe": 2814,
      "##áp": 2815,
      "##ezés": 2816,
      "kar": 2817,
      "program": 2818,
      "siker": 2819,
      "##ítő": 2820,
      "##leszt": 2821,
      "##vés": 2822,
      "##tak": 2823,
      "##usz": 2824,
      "vissza": 2825,
      "##ája": 2826,
      "##ékeny": 2827,
      "##ásár": 2828,
      "##telen": 2829,
      "volna": 2830,
      "##né": 2831,
      "##omb": 2832,
      "bizony": 2833,
      "túl": 2834,
      "##un": 2835,
      "pont": 2836,
      "aján": 2837,
      "fontos": 2838,
      "ma": 2839,
      "annak": 2840,
      "##áló": 2841,
      "tag": 2842,
      "##ítani": 2843,
      "jav": 2844,
      "jól": 2845,
      "hagy": 2846,
      "##zám": 2847,
      "Nagy": 2848,
      "alapján": 2849,
      "##adó": 2850,
      "inform": 2851,
      "együtt": 2852,
      "##ki": 2853,
      "hozzá": 2854,
      "##onság": 2855,
      "##of": 2856,
      "##vétel": 2857,
      "##lás": 2858,
      "pár": 2859,
      "olv": 2860,
      "eredmény": 2861,
      "hu": 2862,
      "##okkal": 2863,
      "##ember": 2864,
      "##dul": 2865,
      "##gel": 2866,
      "##net": 2867,
      "mindig": 2868,
      "##ciók": 2869,
      "##iség": 2870,
      "##őe": 2871,
      "magas": 2872,
      "##anak": 2873,
      "##sze": 2874,
      "fél": 2875,
      "im": 2876,
      "szabad": 2877,
      "termék": 2878,
      "##seny": 2879,
      "##lek": 2880,
      "##men": 2881,
      "##ően": 2882,
      "ház": 2883,
      "esetén": 2884,
      "##ang": 2885,
      "csap": 2886,
      "##dett": 2887,
      "mindenk": 2888,
      "##íg": 2889,
      "játék": 2890,
      "azok": 2891,
      "nyil": 2892,
      "##sor": 2893,
      "tesz": 2894,
      "eml": 2895,
      "##udap": 2896,
      "tü": 2897,
      "sp": 2898,
      "azért": 2899,
      "marad": 2900,
      "15": 2901,
      "ön": 2902,
      "haz": 2903,
      "##kész": 2904,
      "##iszen": 2905,
      "ed": 2906,
      "##gen": 2907,
      "##ségek": 2908,
      "##aszn": 2909,
      "##ökke": 2910,
      "##ségi": 2911,
      "##SZ": 2912,
      "form": 2913,
      "üz": 2914,
      "di": 2915,
      "has": 2916,
      "lett": 2917,
      "##ául": 2918,
      "##ker": 2919,
      "##erg": 2920,
      "hossz": 2921,
      "tanul": 2922,
      "anyag": 2923,
      "közös": 2924,
      "lép": 2925,
      "gyermek": 2926,
      "nyom": 2927,
      "szerző": 2928,
      "##dik": 2929,
      "felhasznál": 2930,
      "vizsg": 2931,
      "##ással": 2932,
      "akar": 2933,
      "Is": 2934,
      "költ": 2935,
      "##assz": 2936,
      "El": 2937,
      "##ánk": 2938,
      "ezért": 2939,
      "irány": 2940,
      "mér": 2941,
      "dönt": 2942,
      "hét": 2943,
      "##ie": 2944,
      "##uszt": 2945,
      "##tesen": 2946,
      "##ic": 2947,
      "##tart": 2948,
      "pl": 2949,
      "##lik": 2950,
      "Szer": 2951,
      "kérdés": 2952,
      "pály": 2953,
      "##ozat": 2954,
      "##ist": 2955,
      "18": 2956,
      "alak": 2957,
      "tér": 2958,
      "megv": 2959,
      "##iai": 2960,
      "elér": 2961,
      "##szám": 2962,
      "megsz": 2963,
      "különb": 2964,
      "##inak": 2965,
      "##vos": 2966,
      "körny": 2967,
      "tek": 2968,
      "kezelés": 2969,
      "##mal": 2970,
      "ele": 2971,
      "moz": 2972,
      "##obl": 2973,
      "##ájék": 2974,
      "törvény": 2975,
      "szabály": 2976,
      "fogy": 2977,
      "##nök": 2978,
      "##ános": 2979,
      "olvas": 2980,
      "állam": 2981,
      "kit": 2982,
      "elég": 2983,
      "három": 2984,
      "kut": 2985,
      "##tal": 2986,
      "##tól": 2987,
      "##oldal": 2988,
      "##éhez": 2989,
      "##vő": 2990,
      "##leges": 2991,
      "##határ": 2992,
      "Be": 2993,
      "##llem": 2994,
      "könny": 2995,
      "##út": 2996,
      "##eken": 2997,
      "##chn": 2998,
      "##oblém": 2999,
      "web": 3000,
      "##hon": 3001,
      "##ús": 3002,
      "hiszen": 3003,
      "##ilm": 3004,
      "reg": 3005,
      "kötele": 3006,
      "érték": 3007,
      "Magyarország": 3008,
      "##últ": 3009,
      "##oport": 3010,
      "kereszt": 3011,
      "##só": 3012,
      "felad": 3013,
      "##yel": 3014,
      "##éről": 3015,
      "ór": 3016,
      "ismer": 3017,
      "kat": 3018,
      "szükséges": 3019,
      "Le": 3020,
      "kezd": 3021,
      "mill": 3022,
      "éle": 3023,
      "##lom": 3024,
      "##anyag": 3025,
      "bar": 3026,
      "vannak": 3027,
      "nép": 3028,
      "##olit": 3029,
      "##ves": 3030,
      "szin": 3031,
      "milyen": 3032,
      "város": 3033,
      "##ocs": 3034,
      "haj": 3035,
      "megjele": 3036,
      "##ásra": 3037,
      "Te": 3038,
      "elt": 3039,
      "##oll": 3040,
      "hó": 3041,
      "Köz": 3042,
      "víz": 3043,
      "hát": 3044,
      "ezek": 3045,
      "##ika": 3046,
      "12": 3047,
      "000": 3048,
      "##atott": 3049,
      "öt": 3050,
      "##úr": 3051,
      "valami": 3052,
      "##tatás": 3053,
      "másik": 3054,
      "bele": 3055,
      "##zön": 3056,
      "vér": 3057,
      "##ment": 3058,
      "szolgáltatás": 3059,
      "egyéb": 3060,
      "##ügg": 3061,
      "##ékony": 3062,
      "##alék": 3063,
      "##űn": 3064,
      "##end": 3065,
      "rég": 3066,
      "##ábor": 3067,
      "##ését": 3068,
      "##vise": 3069,
      "##ka": 3070,
      "lét": 3071,
      "problém": 3072,
      "terület": 3073,
      "##nn": 3074,
      "eng": 3075,
      "táv": 3076,
      "##zín": 3077,
      "##élt": 3078,
      "##delmi": 3079,
      "amelyek": 3080,
      "##asztal": 3081,
      "megold": 3082,
      "##atban": 3083,
      "##ítása": 3084,
      "gyerek": 3085,
      "##őbb": 3086,
      "##osság": 3087,
      "nő": 3088,
      "part": 3089,
      "éves": 3090,
      "##hát": 3091,
      "##árm": 3092,
      "körül": 3093,
      "kí": 3094,
      "##da": 3095,
      "történe": 3096,
      "##ulajd": 3097,
      "##okban": 3098,
      "intéz": 3099,
      "##zör": 3100,
      "##ner": 3101,
      "##éter": 3102,
      "ze": 3103,
      "##ren": 3104,
      "szervezet": 3105,
      "például": 3106,
      "##zal": 3107,
      "egyes": 3108,
      "##ákat": 3109,
      "szint": 3110,
      "kormány": 3111,
      "##íteni": 3112,
      "##tetlen": 3113,
      "##ítja": 3114,
      "Budap": 3115,
      "##öző": 3116,
      "##oh": 3117,
      "##ismer": 3118,
      "##étel": 3119,
      "zs": 3120,
      "##ször": 3121,
      "szív": 3122,
      "belül": 3123,
      "határ": 3124,
      "##ájékozt": 3125,
      "adott": 3126,
      "tap": 3127,
      "tény": 3128,
      "bek": 3129,
      "##ebb": 3130,
      "verseny": 3131,
      "##nok": 3132,
      "##ációs": 3133,
      "##ium": 3134,
      "kös": 3135,
      "abb": 3136,
      "##foly": 3137,
      "##jobb": 3138,
      "És": 3139,
      "##lag": 3140,
      "##ine": 3141,
      "tiszt": 3142,
      "vonatkoz": 3143,
      "fáj": 3144,
      "##átt": 3145,
      "tet": 3146,
      "esetben": 3147,
      "Or": 3148,
      "cég": 3149,
      "nyug": 3150,
      "Ad": 3151,
      "gyors": 3152,
      "##elő": 3153,
      "beszél": 3154,
      "kés": 3155,
      "szép": 3156,
      "##jon": 3157,
      "megh": 3158,
      "neh": 3159,
      "viszont": 3160,
      "Ön": 3161,
      "nagyobb": 3162,
      "kics": 3163,
      "##acs": 3164,
      "##von": 3165,
      "személyes": 3166,
      "növ": 3167,
      "másod": 3168,
      "##ört": 3169,
      "haszn": 3170,
      "##íp": 3171,
      "egyszerű": 3172,
      "##ügyi": 3173,
      "##vékeny": 3174,
      "##tlen": 3175,
      "##mány": 3176,
      "adatok": 3177,
      "##után": 3178,
      "##zor": 3179,
      "##eknek": 3180,
      "##ub": 3181,
      "cím": 3182,
      "##lak": 3183,
      "hall": 3184,
      "nye": 3185,
      "##ói": 3186,
      "közel": 3187,
      "csökke": 3188,
      "korább": 3189,
      "30": 3190,
      "##ezni": 3191,
      "legjobb": 3192,
      "lenne": 3193,
      "##égy": 3194,
      "##nal": 3195,
      "##nti": 3196,
      "mell": 3197,
      "Európ": 3198,
      "##álni": 3199,
      "##eren": 3200,
      "##ook": 3201,
      "##zó": 3202,
      "##ülés": 3203,
      "jut": 3204,
      "##esebb": 3205,
      "ol": 3206,
      "ink": 3207,
      "##övet": 3208,
      "kialak": 3209,
      "##ait": 3210,
      "erős": 3211,
      "##ulás": 3212,
      "iskol": 3213,
      "men": 3214,
      "egym": 3215,
      "##szik": 3216,
      "mai": 3217,
      "könyv": 3218,
      "hason": 3219,
      "##akt": 3220,
      "legyen": 3221,
      "11": 3222,
      "hogyan": 3223,
      "##cia": 3224,
      "részt": 3225,
      "mit": 3226,
      "pénz": 3227,
      "##oj": 3228,
      "néhány": 3229,
      "vezető": 3230,
      "tulajd": 3231,
      "oszt": 3232,
      "##ür": 3233,
      "hír": 3234,
      "képes": 3235,
      "ing": 3236,
      "természe": 3237,
      "nyújt": 3238,
      "okoz": 3239,
      "##atív": 3240,
      "hónap": 3241,
      "elh": 3242,
      "##olás": 3243,
      "##jegy": 3244,
      "##mények": 3245,
      "##gató": 3246,
      "néz": 3247,
      "meghatár": 3248,
      "##hetetlen": 3249,
      "tevékeny": 3250,
      "enged": 3251,
      "##öbb": 3252,
      "##íts": 3253,
      "Am": 3254,
      "Er": 3255,
      "##ike": 3256,
      "százalék": 3257,
      "vásár": 3258,
      "##all": 3259,
      "munka": 3260,
      "##za": 3261,
      "##óbb": 3262,
      "as": 3263,
      "##ülő": 3264,
      "##ün": 3265,
      "##olni": 3266,
      "##nyom": 3267,
      "##éte": 3268,
      "##mai": 3269,
      "##almi": 3270,
      "##ésre": 3271,
      "inkább": 3272,
      "##uló": 3273,
      "süt": 3274,
      "##lős": 3275,
      "techn": 3276,
      "##jel": 3277,
      "##asági": 3278,
      "segítség": 3279,
      "##heti": 3280,
      "semmi": 3281,
      "##rás": 3282,
      "vagyok": 3283,
      "támogatás": 3284,
      "gt": 3285,
      "helyzet": 3286,
      "iz": 3287,
      "##zat": 3288,
      "##új": 3289,
      "##ítése": 3290,
      "##apot": 3291,
      "kr": 3292,
      "##tat": 3293,
      "##őség": 3294,
      "##ébe": 3295,
      "Ne": 3296,
      "##zab": 3297,
      "erő": 3298,
      "harm": 3299,
      "cik": 3300,
      "további": 3301,
      "lel": 3302,
      "##ációk": 3303,
      "gyógyszer": 3304,
      "##ánd": 3305,
      "##emel": 3306,
      "##AT": 3307,
      "nemzet": 3308,
      "forint": 3309,
      "ezzel": 3310,
      "őket": 3311,
      "lehetőség": 3312,
      "film": 3313,
      "szerepe": 3314,
      "##zük": 3315,
      "fok": 3316,
      "##fér": 3317,
      "tr": 3318,
      "Hogy": 3319,
      "##lenül": 3320,
      "tartalmaz": 3321,
      "ahogy": 3322,
      "nyilván": 3323,
      "##övő": 3324,
      "##álat": 3325,
      "##nagy": 3326,
      "fejleszt": 3327,
      "##érték": 3328,
      "rossz": 3329,
      "fény": 3330,
      "szükség": 3331,
      "nev": 3332,
      "fr": 3333,
      "##mus": 3334,
      "##ong": 3335,
      "##ame": 3336,
      "##viselő": 3337,
      "vele": 3338,
      "hiv": 3339,
      "##ágy": 3340,
      "##árd": 3341,
      "telep": 3342,
      "##ac": 3343,
      "##oló": 3344,
      "##nyi": 3345,
      "Fel": 3346,
      "legal": 3347,
      "Budapest": 3348,
      "##nkormány": 3349,
      "érdekében": 3350,
      "##tő": 3351,
      "##úg": 3352,
      "##II": 3353,
      "vit": 3354,
      "##ock": 3355,
      "közül": 3356,
      "14": 3357,
      "igen": 3358,
      "##ted": 3359,
      "##jai": 3360,
      "elfog": 3361,
      "##EL": 3362,
      "tapasztal": 3363,
      "##lése": 3364,
      "íz": 3365,
      "##csak": 3366,
      "##ford": 3367,
      "férfi": 3368,
      "vas": 3369,
      "##hér": 3370,
      "##hogy": 3371,
      "##álló": 3372,
      "##zése": 3373,
      "##zem": 3374,
      "polit": 3375,
      "eszköz": 3376,
      "##zott": 3377,
      "##íti": 3378,
      "16": 3379,
      "##ige": 3380,
      "##föld": 3381,
      "##oknak": 3382,
      "##ari": 3383,
      "következő": 3384,
      "##ei": 3385,
      "került": 3386,
      "##emes": 3387,
      "##mag": 3388,
      "létre": 3389,
      "Pr": 3390,
      "##fon": 3391,
      "teljesen": 3392,
      "szóló": 3393,
      "##évő": 3394,
      "##ark": 3395,
      "egyszer": 3396,
      "##jén": 3397,
      "perc": 3398,
      "##nnyiben": 3399,
      "bír": 3400,
      "##atosan": 3401,
      "hon": 3402,
      "egyed": 3403,
      "##ral": 3404,
      "##dése": 3405,
      "##talan": 3406,
      "##ekre": 3407,
      "##hatja": 3408,
      "fiatal": 3409,
      "arról": 3410,
      "gép": 3411,
      "##jét": 3412,
      "##féle": 3413,
      "föld": 3414,
      "tájékozt": 3415,
      "ennek": 3416,
      "##ták": 3417,
      "bem": 3418,
      "különböző": 3419,
      "##mér": 3420,
      "##zás": 3421,
      "##ttek": 3422,
      "##ozni": 3423,
      "##la": 3424,
      "újra": 3425,
      "##ón": 3426,
      "##sebb": 3427,
      "ag": 3428,
      "##dött": 3429,
      "szok": 3430,
      "mivel": 3431,
      "dr": 3432,
      "##telt": 3433,
      "mutat": 3434,
      "szerződés": 3435,
      "inter": 3436,
      "##szab": 3437,
      "##űr": 3438,
      "szerep": 3439,
      "kívül": 3440,
      "köszön": 3441,
      "Ak": 3442,
      "##jabb": 3443,
      "csat": 3444,
      "##jában": 3445,
      "##elet": 3446,
      "egyre": 3447,
      "található": 3448,
      "##andó": 3449,
      "13": 3450,
      "biztonság": 3451,
      "##rel": 3452,
      "##tetés": 3453,
      "pontos": 3454,
      "díj": 3455,
      "ment": 3456,
      "##közi": 3457,
      "eljár": 3458,
      "En": 3459,
      "prób": 3460,
      "##per": 3461,
      "##ista": 3462,
      "##súly": 3463,
      "kl": 3464,
      "megáll": 3465,
      "##itk": 3466,
      "##ozik": 3467,
      "##akat": 3468,
      "megb": 3469,
      "##vi": 3470,
      "emlék": 3471,
      "##ípus": 3472,
      "száll": 3473,
      "false": 3474,
      "bőr": 3475,
      "rende": 3476,
      "##kezelés": 3477,
      "tudom": 3478,
      "Azt": 3479,
      "négy": 3480,
      "kere": 3481,
      "elle": 3482,
      "fogyaszt": 3483,
      "##szere": 3484,
      "##ester": 3485,
      "egészség": 3486,
      "##fél": 3487,
      "ti": 3488,
      "keresztül": 3489,
      "##delem": 3490,
      "Ny": 3491,
      "emberek": 3492,
      "##től": 3493,
      "nyelv": 3494,
      "Ki": 3495,
      "tárg": 3496,
      "##for": 3497,
      "szav": 3498,
      "neki": 3499,
      "##nagyobb": 3500,
      "csoport": 3501,
      "17": 3502,
      "##áját": 3503,
      "tárgy": 3504,
      "kam": 3505,
      "fut": 3506,
      "mik": 3507,
      "alkot": 3508,
      "vonatkozó": 3509,
      "##adik": 3510,
      "##nem": 3511,
      "orvos": 3512,
      "##intett": 3513,
      "##tár": 3514,
      "##ezte": 3515,
      "bal": 3516,
      "készül": 3517,
      "##lődés": 3518,
      "kifej": 3519,
      "második": 3520,
      "##álaszt": 3521,
      "kir": 3522,
      "legalább": 3523,
      "##meg": 3524,
      "forg": 3525,
      "##ösen": 3526,
      "ellát": 3527,
      "##álás": 3528,
      "módon": 3529,
      "annyi": 3530,
      "mozg": 3531,
      "történő": 3532,
      "része": 3533,
      "##ítmény": 3534,
      "látog": 3535,
      "óta": 3536,
      "számít": 3537,
      "fájd": 3538,
      "##uár": 3539,
      "utol": 3540,
      "erre": 3541,
      "##edés": 3542,
      "tehát": 3543,
      "voltak": 3544,
      "társad": 3545,
      "ezen": 3546,
      "tém": 3547,
      "környezet": 3548,
      "##gal": 3549,
      "Már": 3550,
      "str": 3551,
      "hiány": 3552,
      "##veg": 3553,
      "eddig": 3554,
      "Re": 3555,
      "valak": 3556,
      "##osítás": 3557,
      "bor": 3558,
      "kéz": 3559,
      "##okon": 3560,
      "valós": 3561,
      "##olgált": 3562,
      "hosszú": 3563,
      "hir": 3564,
      "azzal": 3565,
      "##sági": 3566,
      "használat": 3567,
      "barát": 3568,
      "##ásban": 3569,
      "Al": 3570,
      "##őz": 3571,
      "##ókat": 3572,
      "##ca": 3573,
      "##oci": 3574,
      "##ezt": 3575,
      "fizet": 3576,
      "szerv": 3577,
      "##brand": 3578,
      "Me": 3579,
      "benne": 3580,
      "megjelen": 3581,
      "kellett": 3582,
      "os": 3583,
      "kény": 3584,
      "25": 3585,
      "##város": 3586,
      "##avar": 3587,
      "##szor": 3588,
      "##otta": 3589,
      "##ságot": 3590,
      "legnagyobb": 3591,
      "bő": 3592,
      "##itás": 3593,
      "mondta": 3594,
      "hasonló": 3595,
      "##adott": 3596,
      "állapot": 3597,
      "tulajdon": 3598,
      "##írt": 3599,
      "##álja": 3600,
      "##adt": 3601,
      "##nye": 3602,
      "röv": 3603,
      "199": 3604,
      "éppen": 3605,
      "nyer": 3606,
      "##ánc": 3607,
      "##uális": 3608,
      "baj": 3609,
      "Sze": 3610,
      "Ezt": 3611,
      "cse": 3612,
      "raj": 3613,
      "##élet": 3614,
      "játs": 3615,
      "ugyanis": 3616,
      "tölt": 3617,
      "válasz": 3618,
      "##ázat": 3619,
      "##tében": 3620,
      "Minden": 3621,
      "később": 3622,
      "##hatnak": 3623,
      "hozzáj": 3624,
      "magát": 3625,
      "tű": 3626,
      "ezer": 3627,
      "ebben": 3628,
      "##tor": 3629,
      "##ektr": 3630,
      "kih": 3631,
      "##20": 3632,
      "vállalkoz": 3633,
      "írt": 3634,
      "kik": 3635,
      "pia": 3636,
      "elem": 3637,
      "##ET": 3638,
      "##ma": 3639,
      "##ölcs": 3640,
      "jellem": 3641,
      "csapat": 3642,
      "##ern": 3643,
      "##omag": 3644,
      "##tó": 3645,
      "ajánl": 3646,
      "fordul": 3647,
      "közép": 3648,
      "##éket": 3649,
      "kult": 3650,
      "##átor": 3651,
      "##arab": 3652,
      "súly": 3653,
      "##iket": 3654,
      "csin": 3655,
      "sport": 3656,
      "##ésére": 3657,
      "köze": 3658,
      "alá": 3659,
      "##uh": 3660,
      "##zék": 3661,
      "közvet": 3662,
      "lap": 3663,
      "otthon": 3664,
      "energ": 3665,
      "##észet": 3666,
      "##izt": 3667,
      "##olog": 3668,
      "weboldal": 3669,
      "##okra": 3670,
      "érdemes": 3671,
      "éve": 3672,
      "legf": 3673,
      "változ": 3674,
      "köt": 3675,
      "nehéz": 3676,
      "felelős": 3677,
      "##adék": 3678,
      "szinte": 3679,
      "##sér": 3680,
      "##ER": 3681,
      "egyen": 3682,
      "sokkal": 3683,
      "jövő": 3684,
      "tudja": 3685,
      "gyű": 3686,
      "foglalkoz": 3687,
      "##ományos": 3688,
      "##védelmi": 3689,
      "##yű": 3690,
      "című": 3691,
      "##ndő": 3692,
      "Isten": 3693,
      "##uház": 3694,
      "fin": 3695,
      "##mun": 3696,
      "rendez": 3697,
      "##rendszer": 3698,
      "abban": 3699,
      "##ukat": 3700,
      "##ib": 3701,
      "menny": 3702,
      "##ow": 3703,
      "##nék": 3704,
      "kevés": 3705,
      "##őzés": 3706,
      "közt": 3707,
      "##aton": 3708,
      "##kozt": 3709,
      "##llen": 3710,
      "mindenki": 3711,
      "##áig": 3712,
      "##ard": 3713,
      "##zed": 3714,
      "szempont": 3715,
      "értel": 3716,
      "szen": 3717,
      "##ssz": 3718,
      "##ya": 3719,
      "##éret": 3720,
      "időszak": 3721,
      "maga": 3722,
      "##cse": 3723,
      "Ezek": 3724,
      "lény": 3725,
      "##lni": 3726,
      "kiz": 3727,
      "kíván": 3728,
      "ill": 3729,
      "évi": 3730,
      "##tető": 3731,
      "##kezett": 3732,
      "mégis": 3733,
      "hív": 3734,
      "##azit": 3735,
      "##atni": 3736,
      "##által": 3737,
      "##ázs": 3738,
      "##ode": 3739,
      "kisz": 3740,
      "talán": 3741,
      "készült": 3742,
      "kal": 3743,
      "elektr": 3744,
      "##ította": 3745,
      "He": 3746,
      "legt": 3747,
      "összes": 3748,
      "megm": 3749,
      "lévő": 3750,
      "##ft": 3751,
      "##jából": 3752,
      "##rende": 3753,
      "élő": 3754,
      "helye": 3755,
      "követően": 3756,
      "érintett": 3757,
      "megk": 3758,
      "véle": 3759,
      "jú": 3760,
      "miért": 3761,
      "utolsó": 3762,
      "##ind": 3763,
      "##amar": 3764,
      "100": 3765,
      "millió": 3766,
      "szemben": 3767,
      "jegy": 3768,
      "megállap": 3769,
      "##szín": 3770,
      "on": 3771,
      "javas": 3772,
      "vet": 3773,
      "##ndég": 3774,
      "Íg": 3775,
      "##ah": 3776,
      "kicsit": 3777,
      "találkoz": 3778,
      "érvény": 3779,
      "##utató": 3780,
      "jelenleg": 3781,
      "##áns": 3782,
      "függ": 3783,
      "fert": 3784,
      "gyárt": 3785,
      "##sága": 3786,
      "szakmai": 3787,
      "##úz": 3788,
      "##nia": 3789,
      "##hetnek": 3790,
      "ap": 3791,
      "##egye": 3792,
      "esetében": 3793,
      "komoly": 3794,
      "##emp": 3795,
      "##attal": 3796,
      "##jának": 3797,
      "míg": 3798,
      "Így": 3799,
      "##olja": 3800,
      "tervez": 3801,
      "ős": 3802,
      "betegség": 3803,
      "figyel": 3804,
      "Ar": 3805,
      "módszer": 3806,
      "felé": 3807,
      "végre": 3808,
      "##deti": 3809,
      "##óta": 3810,
      "##lete": 3811,
      "##izmus": 3812,
      "kisebb": 3813,
      "br": 3814,
      "##lus": 3815,
      "##gazd": 3816,
      "helyi": 3817,
      "típus": 3818,
      "aztán": 3819,
      "##ett": 3820,
      "##ázt": 3821,
      "közben": 3822,
      "##oda": 3823,
      "jogos": 3824,
      "Bal": 3825,
      "##uz": 3826,
      "működés": 3827,
      "##0000": 3828,
      "képviselő": 3829,
      "megy": 3830,
      "Ennek": 3831,
      "Mind": 3832,
      "##nö": 3833,
      "fehér": 3834,
      "adó": 3835,
      "##yelem": 3836,
      "##con": 3837,
      "##beli": 3838,
      "##étele": 3839,
      "mar": 3840,
      "##ozta": 3841,
      "vendég": 3842,
      "ellenőr": 3843,
      "ható": 3844,
      "ford": 3845,
      "előre": 3846,
      "terv": 3847,
      "mot": 3848,
      "##unkat": 3849,
      "segítségével": 3850,
      "oda": 3851,
      "akt": 3852,
      "##óval": 3853,
      "##atta": 3854,
      "elérhető": 3855,
      "tekin": 3856,
      "tök": 3857,
      "##jed": 3858,
      "föl": 3859,
      "honlap": 3860,
      "üzlet": 3861,
      "##fizet": 3862,
      "Egyes": 3863,
      "##üz": 3864,
      "kapcsolatos": 3865,
      "##ológiai": 3866,
      "dí": 3867,
      "táp": 3868,
      "##ünke": 3869,
      "feladat": 3870,
      "Én": 3871,
      "kieg": 3872,
      "##hetőe": 3873,
      "##hetően": 3874,
      "##ünket": 3875,
      "hol": 3876,
      "hozzájár": 3877,
      "értéke": 3878,
      "számos": 3879,
      "fen": 3880,
      "jelentkez": 3881,
      "bet": 3882,
      "cikk": 3883,
      "költség": 3884,
      "Ér": 3885,
      "figye": 3886,
      "esemény": 3887,
      "isbrand": 3888,
      "##csi": 3889,
      "do": 3890,
      "Dr": 3891,
      "ünne": 3892,
      "##ottak": 3893,
      "érkez": 3894,
      "##szabály": 3895,
      "##öng": 3896,
      "jobban": 3897,
      "##ódó": 3898,
      "Elő": 3899,
      "szor": 3900,
      "pap": 3901,
      "##eleg": 3902,
      "##nos": 3903,
      "zár": 3904,
      "dolog": 3905,
      "##EN": 3906,
      "Ame": 3907,
      "##ásával": 3908,
      "##atikus": 3909,
      "SZ": 3910,
      "##óri": 3911,
      "hatékony": 3912,
      "##iskol": 3913,
      "persze": 3914,
      "nyit": 3915,
      "rövid": 3916,
      "rög": 3917,
      "##alma": 3918,
      "ge": 3919,
      "információk": 3920,
      "##kezelő": 3921,
      "emberi": 3922,
      "##ívül": 3923,
      "évek": 3924,
      "parazit": 3925,
      "##utt": 3926,
      "##log": 3927,
      "azonos": 3928,
      "engedély": 3929,
      "szervez": 3930,
      "##lett": 3931,
      "##tenek": 3932,
      "pill": 3933,
      "nemzetközi": 3934,
      "megtal": 3935,
      "nekem": 3936,
      "##jen": 3937,
      "valaki": 3938,
      "Né": 3939,
      "##jelent": 3940,
      "célja": 3941,
      "##üket": 3942,
      "##vált": 3943,
      "##gek": 3944,
      "##isztr": 3945,
      "forr": 3946,
      "stb": 3947,
      "##ítható": 3948,
      "tevékenység": 3949,
      "máj": 3950,
      "##igaz": 3951,
      "##ítvány": 3952,
      "##ábbi": 3953,
      "##apcsol": 3954,
      "lég": 3955,
      "intézmény": 3956,
      "##ására": 3957,
      "kid": 3958,
      "##éssel": 3959,
      "Kr": 3960,
      "bekez": 3961,
      "elmúlt": 3962,
      "fot": 3963,
      "##úra": 3964,
      "##hetett": 3965,
      "án": 3966,
      "In": 3967,
      "##akran": 3968,
      "rem": 3969,
      "hib": 3970,
      "##zí": 3971,
      "pan": 3972,
      "kev": 3973,
      "##kör": 3974,
      "##port": 3975,
      "##ntart": 3976,
      "##vonal": 3977,
      "tanács": 3978,
      "##line": 3979,
      "##ászló": 3980,
      "többe": 3981,
      "##ódik": 3982,
      "##ue": 3983,
      "funk": 3984,
      "kapcsolatban": 3985,
      "élmény": 3986,
      "többi": 3987,
      "láb": 3988,
      "##ookie": 3989,
      "hazai": 3990,
      "2019": 3991,
      "vise": 3992,
      "nál": 3993,
      "korábban": 3994,
      "##vezető": 3995,
      "Csak": 3996,
      "lem": 3997,
      "amer": 3998,
      "mer": 3999,
      "dok": 4000,
      "veszély": 4001,
      "##ától": 4002,
      "tüne": 4003,
      "harmadik": 4004,
      "vel": 4005,
      "jön": 4006,
      "50": 4007,
      "ismert": 4008,
      "információ": 4009,
      "##gyű": 4010,
      "##har": 4011,
      "mindent": 4012,
      "##zió": 4013,
      "##ottság": 4014,
      "##öve": 4015,
      "darab": 4016,
      "24": 4017,
      "##nnyire": 4018,
      "évben": 4019,
      "szüle": 4020,
      "kezdő": 4021,
      "helyet": 4022,
      "biztosít": 4023,
      "##hatatlan": 4024,
      "ismere": 4025,
      "##mód": 4026,
      "##di": 4027,
      "ról": 4028,
      "európ": 4029,
      "melyek": 4030,
      "megelő": 4031,
      "alkal": 4032,
      "megkö": 4033,
      "szöv": 4034,
      "##eget": 4035,
      "könnye": 4036,
      "csomag": 4037,
      "21": 4038,
      "álló": 4039,
      "##ilis": 4040,
      "adatkezelés": 4041,
      "régi": 4042,
      "##zési": 4043,
      "óra": 4044,
      "Most": 4045,
      "##adi": 4046,
      "valame": 4047,
      "Mar": 4048,
      "##ásokat": 4049,
      "##óság": 4050,
      "Nagyon": 4051,
      "távol": 4052,
      "milli": 4053,
      "mod": 4054,
      "##akar": 4055,
      "természetes": 4056,
      "figyelem": 4057,
      "##vas": 4058,
      "Ist": 4059,
      "azokat": 4060,
      "egyetlen": 4061,
      "##ttp": 4062,
      "##ozza": 4063,
      "##ox": 4064,
      "els": 4065,
      "általában": 4066,
      "tett": 4067,
      "poz": 4068,
      "##des": 4069,
      "kutatás": 4070,
      "##ncs": 4071,
      "Amennyiben": 4072,
      "európai": 4073,
      "sikerült": 4074,
      "##oha": 4075,
      "fű": 4076,
      "Adat": 4077,
      "amelyet": 4078,
      "hoz": 4079,
      "szerk": 4080,
      "alábbi": 4081,
      "telefon": 4082,
      "##hajt": 4083,
      "##pal": 4084,
      "##jön": 4085,
      "2018": 4086,
      "önkormány": 4087,
      "amerikai": 4088,
      "##nként": 4089,
      "##les": 4090,
      "zöld": 4091,
      "köve": 4092,
      "Sok": 4093,
      "gyakorlat": 4094,
      "polg": 4095,
      "mikor": 4096,
      "##éből": 4097,
      "látt": 4098,
      "##hatunk": 4099,
      "##fele": 4100,
      "vagyunk": 4101,
      "történt": 4102,
      "##ttal": 4103,
      "Tud": 4104,
      "István": 4105,
      "tekint": 4106,
      "ész": 4107,
      "mérték": 4108,
      "##függ": 4109,
      "##rá": 4110,
      "##úgy": 4111,
      "##pt": 4112,
      "belső": 4113,
      "lány": 4114,
      "##hi": 4115,
      "##óbbi": 4116,
      "újabb": 4117,
      "viszony": 4118,
      "Bár": 4119,
      "##oc": 4120,
      "kedvez": 4121,
      "vélemény": 4122,
      "null": 4123,
      "##valós": 4124,
      "dohány": 4125,
      "ab": 4126,
      "##éli": 4127,
      "##hhez": 4128,
      "##ületi": 4129,
      "##ns": 4130,
      "##ulladás": 4131,
      "szintén": 4132,
      "megny": 4133,
      "##min": 4134,
      "miniszt": 4135,
      "hivatal": 4136,
      "ang": 4137,
      "használt": 4138,
      "Szab": 4139,
      "##aval": 4140,
      "kapott": 4141,
      "Ft": 4142,
      "utaz": 4143,
      "ét": 4144,
      "neve": 4145,
      "##intem": 4146,
      "Szere": 4147,
      "Ug": 4148,
      "lenni": 4149,
      "##sorban": 4150,
      "##ármaz": 4151,
      "proj": 4152,
      "##GY": 4153,
      "hál": 4154,
      "Szent": 4155,
      "teszi": 4156,
      "And": 4157,
      "##érd": 4158,
      "##üs": 4159,
      "ág": 4160,
      "azaz": 4161,
      "növek": 4162,
      "talált": 4163,
      "##éri": 4164,
      "ahhoz": 4165,
      "megle": 4166,
      "tő": 4167,
      "##észen": 4168,
      "kock": 4169,
      "Áll": 4170,
      "##kívül": 4171,
      "éj": 4172,
      "##ory": 4173,
      "magam": 4174,
      "cookie": 4175,
      "##ay": 4176,
      "osztály": 4177,
      "##ködés": 4178,
      "##tóber": 4179,
      "##nki": 4180,
      "emel": 4181,
      "Magyarországon": 4182,
      "##tember": 4183,
      "tökéle": 4184,
      "alkalom": 4185,
      "amp": 4186,
      "Még": 4187,
      "Alap": 4188,
      "dob": 4189,
      "szí": 4190,
      "tor": 4191,
      "##kr": 4192,
      "##atja": 4193,
      "ex": 4194,
      "korlát": 4195,
      "mennyiség": 4196,
      "kapcsolat": 4197,
      "##fő": 4198,
      "##eszer": 4199,
      "értelm": 4200,
      "László": 4201,
      "gazdasági": 4202,
      "Ig": 4203,
      "Van": 4204,
      "##árólag": 4205,
      "##használ": 4206,
      "##díj": 4207,
      "##jára": 4208,
      "kínál": 4209,
      "Zs": 4210,
      "átlag": 4211,
      "vide": 4212,
      "nevez": 4213,
      "##keres": 4214,
      "kór": 4215,
      "Term": 4216,
      "ismét": 4217,
      "épület": 4218,
      "megvalós": 4219,
      "szár": 4220,
      "##ái": 4221,
      "##ent": 4222,
      "rom": 4223,
      "növény": 4224,
      "##ff": 4225,
      "##alt": 4226,
      "legtöbb": 4227,
      "örök": 4228,
      "##ítette": 4229,
      "először": 4230,
      "érint": 4231,
      "##tei": 4232,
      "jelleg": 4233,
      "##beteg": 4234,
      "elkész": 4235,
      "bizonyos": 4236,
      "igazán": 4237,
      "##ségét": 4238,
      "gyakran": 4239,
      "##hatjuk": 4240,
      "minőség": 4241,
      "napon": 4242,
      "végén": 4243,
      "##zínű": 4244,
      "##ím": 4245,
      "##inc": 4246,
      "általános": 4247,
      "hid": 4248,
      "##tent": 4249,
      "ek": 4250,
      "##yek": 4251,
      "Kö": 4252,
      "jellemző": 4253,
      "vérnyom": 4254,
      "adatokat": 4255,
      "érvényes": 4256,
      "##ro": 4257,
      "Egye": 4258,
      "jött": 4259,
      "##émi": 4260,
      "történet": 4261,
      "##uc": 4262,
      "elnök": 4263,
      "22": 4264,
      "##osabb": 4265,
      "jelentős": 4266,
      "Int": 4267,
      "##folyam": 4268,
      "Val": 4269,
      "halál": 4270,
      "irod": 4271,
      "napi": 4272,
      "csod": 4273,
      "rep": 4274,
      "tudjuk": 4275,
      "elfogad": 4276,
      "származ": 4277,
      "partner": 4278,
      "##dv": 4279,
      "##ument": 4280,
      "##kedés": 4281,
      "széle": 4282,
      "fenntart": 4283,
      "##tan": 4284,
      "##junk": 4285,
      "sér": 4286,
      "megfelelőe": 4287,
      "megfelelően": 4288,
      "Hogyan": 4289,
      "40": 4290,
      "##nger": 4291,
      "eredeti": 4292,
      "##age": 4293,
      "száma": 4294,
      "##akban": 4295,
      "kb": 4296,
      "Leg": 4297,
      "elmond": 4298,
      "ám": 4299,
      "arány": 4300,
      "központ": 4301,
      "##acsony": 4302,
      "kísér": 4303,
      "##oldog": 4304,
      "##ontosabb": 4305,
      "##ilag": 4306,
      "meghatározott": 4307,
      "helyen": 4308,
      "tisz": 4309,
      "től": 4310,
      "rek": 4311,
      "##úcs": 4312,
      "##fek": 4313,
      "##szi": 4314,
      "##almat": 4315,
      "0000": 4316,
      "Itt": 4317,
      "léte": 4318,
      "##jú": 4319,
      "Tan": 4320,
      "fogad": 4321,
      "##mely": 4322,
      "##árg": 4323,
      "azonnal": 4324,
      "szob": 4325,
      "esetleg": 4326,
      "hisz": 4327,
      "csökkent": 4328,
      "Európai": 4329,
      "##delm": 4330,
      "pillan": 4331,
      "Amikor": 4332,
      "Tovább": 4333,
      "kizárólag": 4334,
      "##lel": 4335,
      "Ke": 4336,
      "szoci": 4337,
      "tekintet": 4338,
      "##irág": 4339,
      "##tag": 4340,
      "vett": 4341,
      "##örg": 4342,
      "nyí": 4343,
      "##ved": 4344,
      "negy": 4345,
      "csup": 4346,
      "indul": 4347,
      "lt": 4348,
      "sokat": 4349,
      "történik": 4350,
      "##bert": 4351,
      "felnő": 4352,
      "különösen": 4353,
      "##néz": 4354,
      "##éne": 4355,
      "fájdalom": 4356,
      "00": 4357,
      "##kori": 4358,
      "látható": 4359,
      "http": 4360,
      "király": 4361,
      "##akkor": 4362,
      "##földi": 4363,
      "##ásának": 4364,
      "##cius": 4365,
      "kiegész": 4366,
      "október": 4367,
      "helyez": 4368,
      "ezeket": 4369,
      "##erő": 4370,
      "továbbá": 4371,
      "Per": 4372,
      "##szí": 4373,
      "lényeg": 4374,
      "##yei": 4375,
      "komp": 4376,
      "##ism": 4377,
      "##ptember": 4378,
      "##dék": 4379,
      "##avaly": 4380,
      "##ézet": 4381,
      "##érium": 4382,
      "gar": 4383,
      "##álkoz": 4384,
      "lass": 4385,
      "jan": 4386,
      "óv": 4387,
      "##onikus": 4388,
      "sőt": 4389,
      "pi": 4390,
      "##hang": 4391,
      "köszönhetően": 4392,
      "tenni": 4393,
      "##erem": 4394,
      "##atók": 4395,
      "##ügget": 4396,
      "Kft": 4397,
      "ünnep": 4398,
      "##vég": 4399,
      "##hes": 4400,
      "##ainak": 4401,
      "vizsgál": 4402,
      "terüle": 4403,
      "eltér": 4404,
      "bármi": 4405,
      "utc": 4406,
      "##prób": 4407,
      "pályáz": 4408,
      "ellenére": 4409,
      "##eres": 4410,
      "##alap": 4411,
      "folyamatosan": 4412,
      "##mond": 4413,
      "##mit": 4414,
      "tanulmány": 4415,
      "kezelése": 4416,
      "oktatás": 4417,
      "##ítési": 4418,
      "összeg": 4419,
      "##peci": 4420,
      "Új": 4421,
      "Ma": 4422,
      "korábbi": 4423,
      "##űnik": 4424,
      "##olc": 4425,
      "visszat": 4426,
      "mély": 4427,
      "##erenc": 4428,
      "##éni": 4429,
      "nemcsak": 4430,
      "##séggel": 4431,
      "##vár": 4432,
      "Mag": 4433,
      "addig": 4434,
      "##részt": 4435,
      "János": 4436,
      "végig": 4437,
      "friss": 4438,
      "köny": 4439,
      "múlt": 4440,
      "op": 4441,
      "német": 4442,
      "arc": 4443,
      "##alk": 4444,
      "párt": 4445,
      "Nemzeti": 4446,
      "tartott": 4447,
      "##üm": 4448,
      "##öny": 4449,
      "idén": 4450,
      "##olta": 4451,
      "annyira": 4452,
      "autó": 4453,
      "##ÁS": 4454,
      "rendkívül": 4455,
      "##eset": 4456,
      "hull": 4457,
      "##éklet": 4458,
      "dolgoz": 4459,
      "legfontosabb": 4460,
      "##21": 4461,
      "fiz": 4462,
      "akad": 4463,
      "hirdet": 4464,
      "##par": 4465,
      "##éppen": 4466,
      "közötti": 4467,
      "érez": 4468,
      "tit": 4469,
      "Ugyan": 4470,
      "amelynek": 4471,
      "##ulat": 4472,
      "##orvos": 4473,
      "##csk": 4474,
      "szereplő": 4475,
      "szeg": 4476,
      "politikai": 4477,
      "helyett": 4478,
      "23": 4479,
      "##llene": 4480,
      "temp": 4481,
      "szöveg": 4482,
      "szerinti": 4483,
      "2014": 4484,
      "##fr": 4485,
      "##ői": 4486,
      "##ace": 4487,
      "##ttól": 4488,
      "érz": 4489,
      "online": 4490,
      "##vész": 4491,
      "##utatás": 4492,
      "Mivel": 4493,
      "##org": 4494,
      "játsz": 4495,
      "rendezvény": 4496,
      "igénybe": 4497,
      "##ide": 4498,
      "alkalmas": 4499,
      "##ron": 4500,
      "szakember": 4501,
      "##vél": 4502,
      "##hatók": 4503,
      "##írás": 4504,
      "név": 4505,
      "##zetes": 4506,
      "kötelezett": 4507,
      "pe": 4508,
      "##értel": 4509,
      "figyelm": 4510,
      "##essz": 4511,
      "##ast": 4512,
      "felső": 4513,
      "##bből": 4514,
      "##hetjük": 4515,
      "bekezdés": 4516,
      "mög": 4517,
      "milliárd": 4518,
      "##tés": 4519,
      "##ion": 4520,
      "érdeke": 4521,
      "##adásul": 4522,
      "jelenti": 4523,
      "##örös": 4524,
      "terem": 4525,
      "május": 4526,
      "megismer": 4527,
      "##zést": 4528,
      "tényleg": 4529,
      "##ró": 4530,
      "megbíz": 4531,
      "jogszabály": 4532,
      "let": 4533,
      "##nénk": 4534,
      "Ferenc": 4535,
      "##iát": 4536,
      "kateg": 4537,
      "cser": 4538,
      "munkav": 4539,
      "##attint": 4540,
      "Biz": 4541,
      "##iszer": 4542,
      "méret": 4543,
      "kellene": 4544,
      "mos": 4545,
      "Több": 4546,
      "##erül": 4547,
      "Péter": 4548,
      "férgek": 4549,
      "valószínű": 4550,
      "##hetünk": 4551,
      "##kedő": 4552,
      "2013": 4553,
      "##nie": 4554,
      "2016": 4555,
      "igénye": 4556,
      "##üntet": 4557,
      "2015": 4558,
      "##cember": 4559,
      "mail": 4560,
      "feld": 4561,
      "jogosult": 4562,
      "##ovember": 4563,
      "hű": 4564,
      "Br": 4565,
      "hő": 4566,
      "##AL": 4567,
      "##világ": 4568,
      "feltétel": 4569,
      "igazi": 4570,
      "##hol": 4571,
      "Nap": 4572,
      "##lési": 4573,
      "dél": 4574,
      "függet": 4575,
      "kiváló": 4576,
      "St": 4577,
      "egészen": 4578,
      "könnyen": 4579,
      "időpont": 4580,
      "külső": 4581,
      "II": 4582,
      "vagyis": 4583,
      "csupán": 4584,
      "##ógép": 4585,
      "seb": 4586,
      "január": 4587,
      "##erős": 4588,
      "kommun": 4589,
      "megvált": 4590,
      "##ájában": 4591,
      "##rész": 4592,
      "akart": 4593,
      "kett": 4594,
      "végzett": 4595,
      "at": 4596,
      "##ics": 4597,
      "dokument": 4598,
      "Pe": 4599,
      "##faj": 4600,
      "##prilis": 4601,
      "elsősorban": 4602,
      "teljesítmény": 4603,
      "##zk": 4604,
      "##ílus": 4605,
      "egyedül": 4606,
      "Fő": 4607,
      "##nöke": 4608,
      "hús": 4609,
      "projekt": 4610,
      "folyamat": 4611,
      "vágy": 4612,
      "##OS": 4613,
      "Mik": 4614,
      "gyorsan": 4615,
      "működ": 4616,
      "lé": 4617,
      "Em": 4618,
      "fenn": 4619,
      "##özben": 4620,
      "egymás": 4621,
      "önmag": 4622,
      "##övel": 4623,
      "##mentes": 4624,
      "csökken": 4625,
      "szeptember": 4626,
      "folyt": 4627,
      "cuk": 4628,
      "folytat": 4629,
      "##gatás": 4630,
      "max": 4631,
      "gomb": 4632,
      "##lőtt": 4633,
      "##írus": 4634,
      "##ítják": 4635,
      "##odell": 4636,
      "finom": 4637,
      "##lék": 4638,
      "megrende": 4639,
      "##ársaság": 4640,
      "vérnyomás": 4641,
      "ingatlan": 4642,
      "##letek": 4643,
      "Kül": 4644,
      "regisztr": 4645,
      "hamar": 4646,
      "végül": 4647,
      "##pár": 4648,
      "alapvet": 4649,
      "Szolgált": 4650,
      "##igy": 4651,
      "##geteg": 4652,
      "##ándor": 4653,
      "véd": 4654,
      "##cion": 4655,
      "##könyv": 4656,
      "##tunk": 4657,
      "##esztő": 4658,
      "##vér": 4659,
      "hátt": 4660,
      "fek": 4661,
      "bűn": 4662,
      "természetesen": 4663,
      "mintha": 4664,
      "gye": 4665,
      "szél": 4666,
      "bank": 4667,
      "szolgál": 4668,
      "lehetséges": 4669,
      "apr": 4670,
      "boldog": 4671,
      "Ezért": 4672,
      "##AR": 4673,
      "##urális": 4674,
      "ingyen": 4675,
      "tíz": 4676,
      "sorozat": 4677,
      "utóbbi": 4678,
      "különleges": 4679,
      "alacsony": 4680,
      "elkez": 4681,
      "március": 4682,
      "zavar": 4683,
      "venni": 4684,
      "##aként": 4685,
      "##ökö": 4686,
      "keretében": 4687,
      "csatlak": 4688,
      "bér": 4689,
      "norm": 4690,
      "##ésével": 4691,
      "egyébként": 4692,
      "vége": 4693,
      "##tegy": 4694,
      "részére": 4695,
      "##öngész": 4696,
      "##edik": 4697,
      "Józ": 4698,
      "vill": 4699,
      "##son": 4700,
      "##napi": 4701,
      "rendelkezik": 4702,
      "meleg": 4703,
      "##lex": 4704,
      "##ekete": 4705,
      "##eztet": 4706,
      "##ója": 4707,
      "hozzájárul": 4708,
      "növel": 4709,
      "##ozása": 4710,
      "##ell": 4711,
      "feltétele": 4712,
      "##lott": 4713,
      "sütik": 4714,
      "##aink": 4715,
      "kár": 4716,
      "##hagy": 4717,
      "kárt": 4718,
      "##emet": 4719,
      "##ítási": 4720,
      "An": 4721,
      "hatalmas": 4722,
      "##OR": 4723,
      "##íció": 4724,
      "vez": 4725,
      "nők": 4726,
      "Nek": 4727,
      "##ssze": 4728,
      "hom": 4729,
      "et": 4730,
      "együttmű": 4731,
      "##ítva": 4732,
      "##egen": 4733,
      "őr": 4734,
      "2017": 4735,
      "csill": 4736,
      "beállítás": 4737,
      "természet": 4738,
      "##bé": 4739,
      "angol": 4740,
      "##bel": 4741,
      "ők": 4742,
      "vág": 4743,
      "##nius": 4744,
      "EU": 4745,
      "##iről": 4746,
      "speci": 4747,
      "diák": 4748,
      "agy": 4749,
      "étel": 4750,
      "rendelet": 4751,
      "##ították": 4752,
      "zene": 4753,
      "nyilatkoz": 4754,
      "##odás": 4755,
      "##ancs": 4756,
      "##raj": 4757,
      "##amin": 4758,
      "követel": 4759,
      "##abban": 4760,
      "épp": 4761,
      "gondolkod": 4762,
      "##lyel": 4763,
      "képest": 4764,
      "Mű": 4765,
      "##orú": 4766,
      "##elen": 4767,
      "tur": 4768,
      "tavaly": 4769,
      "prof": 4770,
      "kiemel": 4771,
      "##red": 4772,
      "Bar": 4773,
      "ég": 4774,
      "##agóg": 4775,
      "hatály": 4776,
      "##OL": 4777,
      "##AN": 4778,
      "vid": 4779,
      "##af": 4780,
      "Kér": 4781,
      "valóban": 4782,
      "##ánál": 4783,
      "##ED": 4784,
      "fran": 4785,
      "küz": 4786,
      "fejlődés": 4787,
      "többet": 4788,
      "elkép": 4789,
      "Által": 4790,
      "benn": 4791,
      "felett": 4792,
      "Kar": 4793,
      "megér": 4794,
      "század": 4795,
      "##lcs": 4796,
      "##lám": 4797,
      "december": 4798,
      "ének": 4799,
      "26": 4800,
      "lehetővé": 4801,
      "##vá": 4802,
      "széles": 4803,
      "##vizsg": 4804,
      "köteles": 4805,
      "tartalm": 4806,
      "egyszerűe": 4807,
      "tudni": 4808,
      "rögz": 4809,
      "befoly": 4810,
      "egyszerűen": 4811,
      "2011": 4812,
      "áld": 4813,
      "##ákkal": 4814,
      "##állás": 4815,
      "##bizt": 4816,
      "##élye": 4817,
      "##ázis": 4818,
      "lelk": 4819,
      "élv": 4820,
      "állat": 4821,
      "av": 4822,
      "szület": 4823,
      "képe": 4824,
      "hasznos": 4825,
      "egyedi": 4826,
      "##étől": 4827,
      "##feren": 4828,
      "alkalommal": 4829,
      "közé": 4830,
      "##vek": 4831,
      "járt": 4832,
      "2012": 4833,
      "eme": 4834,
      "##igit": 4835,
      "##itív": 4836,
      "böngész": 4837,
      "##ürdő": 4838,
      "értékes": 4839,
      "időben": 4840,
      "oldalon": 4841,
      "édes": 4842,
      "tápl": 4843,
      "november": 4844,
      "##nkor": 4845,
      "tagja": 4846,
      "alig": 4847,
      "munkat": 4848,
      "Ezen": 4849,
      "##umi": 4850,
      "##esztiv": 4851,
      "piac": 4852,
      "##her": 4853,
      "szül": 4854,
      "##ÉS": 4855,
      "kiválaszt": 4856,
      "gyakorl": 4857,
      "##imp": 4858,
      "elkö": 4859,
      "kötelező": 4860,
      "##fordul": 4861,
      "##vők": 4862,
      "##inte": 4863,
      "április": 4864,
      "##általán": 4865,
      "##nyal": 4866,
      "megoldás": 4867,
      "lakás": 4868,
      "Kös": 4869,
      "##EK": 4870,
      "ber": 4871,
      "##óra": 4872,
      "jogi": 4873,
      "##ságát": 4874,
      "hallg": 4875,
      "##véd": 4876,
      "minél": 4877,
      "Ország": 4878,
      "Mert": 4879,
      "stílus": 4880,
      "##pén": 4881,
      "kiad": 4882,
      "soha": 4883,
      "öröm": 4884,
      "##erült": 4885,
      "Úg": 4886,
      "##sef": 4887,
      "27": 4888,
      "Úgy": 4889,
      "##osok": 4890,
      "##usztus": 4891,
      "28": 4892,
      "készít": 4893,
      "##ná": 4894,
      "vad": 4895,
      "lehetett": 4896,
      "##nel": 4897,
      "pontosan": 4898,
      "##esti": 4899,
      "Uni": 4900,
      "gyerekek": 4901,
      "mut": 4902,
      "motor": 4903,
      "##ümölcs": 4904,
      "##hass": 4905,
      "Go": 4906,
      "szavaz": 4907,
      "megtalál": 4908,
      "##óban": 4909,
      "Vagy": 4910,
      "##ES": 4911,
      "szövet": 4912,
      "por": 4913,
      "##áború": 4914,
      "gazdag": 4915,
      "pénzt": 4916,
      "termékek": 4917,
      "kattint": 4918,
      "jelentő": 4919,
      "múl": 4920,
      "lab": 4921,
      "##ans": 4922,
      "##obil": 4923,
      "családi": 4924,
      "##ina": 4925,
      "kiállítás": 4926,
      "Kép": 4927,
      "melynek": 4928,
      "évvel": 4929,
      "tav": 4930,
      "##szich": 4931,
      "társadalmi": 4932,
      "ideje": 4933,
      "##áért": 4934,
      "elleni": 4935,
      "összefügg": 4936,
      "##ail": 4937,
      "kedven": 4938,
      "##ménye": 4939,
      "koll": 4940,
      "eljárás": 4941,
      "érdekes": 4942,
      "##inkább": 4943,
      "utal": 4944,
      "##nnyit": 4945,
      "##ON": 4946,
      "írás": 4947,
      "sokszor": 4948,
      "##ww": 4949,
      "küld": 4950,
      "##ou": 4951,
      "##ocsát": 4952,
      "198": 4953,
      "modell": 4954,
      "##dex": 4955,
      "szeretet": 4956,
      "József": 4957,
      "aszt": 4958,
      "##vg": 4959,
      "tűz": 4960,
      "##hetik": 4961,
      "elhely": 4962,
      "31": 4963,
      "szex": 4964,
      "gyűjt": 4965,
      "lehetőséget": 4966,
      "##abil": 4967,
      "##szem": 4968,
      "##ésének": 4969,
      "##edagóg": 4970,
      "minős": 4971,
      "Kor": 4972,
      "##országi": 4973,
      "Saj": 4974,
      "##okból": 4975,
      "zaj": 4976,
      "##pp": 4977,
      "hav": 4978,
      "##ÁN": 4979,
      "var": 4980,
      "kénye": 4981,
      "##ónak": 4982,
      "egyet": 4983,
      "mes": 4984,
      "kín": 4985,
      "##ású": 4986,
      "##felé": 4987,
      "Igaz": 4988,
      "##tték": 4989,
      "##janak": 4990,
      "##indul": 4991,
      "figyelembe": 4992,
      "kérd": 4993,
      "www": 4994,
      "belő": 4995,
      "##ésben": 4996,
      "##ork": 4997,
      "##zati": 4998,
      "faj": 4999,
      "vegy": 5000,
      "működik": 5001,
      "értes": 5002,
      "izg": 5003,
      "elvég": 5004,
      "##foglal": 5005,
      "##rány": 5006,
      "##zolg": 5007,
      "szakasz": 5008,
      "##két": 5009,
      "amíg": 5010,
      "##36": 5011,
      "sokan": 5012,
      "bármely": 5013,
      "Mint": 5014,
      "##értelmű": 5015,
      "##ódott": 5016,
      "Mit": 5017,
      "területén": 5018,
      "Kis": 5019,
      "##úze": 5020,
      "##lést": 5021,
      "##fa": 5022,
      "műve": 5023,
      "##ivatal": 5024,
      "harc": 5025,
      "vizsgálat": 5026,
      "melyet": 5027,
      "##dal": 5028,
      "kin": 5029,
      "bab": 5030,
      "##lyenkor": 5031,
      "Ebben": 5032,
      "##book": 5033,
      "szom": 5034,
      "módos": 5035,
      "felf": 5036,
      "róla": 5037,
      "##ekről": 5038,
      "ajándék": 5039,
      "##álta": 5040,
      "Más": 5041,
      "fest": 5042,
      "közlek": 5043,
      "##ológia": 5044,
      "##letes": 5045,
      "változt": 5046,
      "##élyes": 5047,
      "tökéletes": 5048,
      "felül": 5049,
      "templom": 5050,
      "végez": 5051,
      "MT": 5052,
      "##lius": 5053,
      "kont": 5054,
      "arany": 5055,
      "eny": 5056,
      "társaság": 5057,
      "##álkod": 5058,
      "##házi": 5059,
      "gyümölcs": 5060,
      "##játék": 5061,
      "##hen": 5062,
      "kib": 5063,
      "##tte": 5064,
      "##ugusztus": 5065,
      "uni": 5066,
      "hálóz": 5067,
      "##ávol": 5068,
      "##jének": 5069,
      "##eleti": 5070,
      "##átum": 5071,
      "##adni": 5072,
      "##éseket": 5073,
      "szerencs": 5074,
      "##csoport": 5075,
      "hegy": 5076,
      "##oft": 5077,
      "sajnos": 5078,
      "előadás": 5079,
      "tájékoztatás": 5080,
      "##ezi": 5081,
      "kommunik": 5082,
      "igyek": 5083,
      "##ivel": 5084,
      "##höz": 5085,
      "rag": 5086,
      "kelet": 5087,
      "##str": 5088,
      "egyáltalán": 5089,
      "Vég": 5090,
      "##bán": 5091,
      "üzem": 5092,
      "ra": 5093,
      "szerintem": 5094,
      "autom": 5095,
      "megg": 5096,
      "minim": 5097,
      "##ung": 5098,
      "##ítik": 5099,
      "Önkormány": 5100,
      "úton": 5101,
      "##fejleszt": 5102,
      "hangsúly": 5103,
      "##ank": 5104,
      "hit": 5105,
      "tehet": 5106,
      "Persze": 5107,
      "60": 5108,
      "virág": 5109,
      "féle": 5110,
      "kul": 5111,
      "éjszak": 5112,
      "##ÁL": 5113,
      "##oltam": 5114,
      "június": 5115,
      "##ula": 5116,
      "##zív": 5117,
      "született": 5118,
      "kert": 5119,
      "##lét": 5120,
      "##EM": 5121,
      "##zint": 5122,
      "maguk": 5123,
      "##ikat": 5124,
      "mező": 5125,
      "tenger": 5126,
      "##eként": 5127,
      "kuty": 5128,
      "ideig": 5129,
      "##tató": 5130,
      "elektronikus": 5131,
      "előző": 5132,
      "##nen": 5133,
      "panasz": 5134,
      "szór": 5135,
      "##ölg": 5136,
      "éven": 5137,
      "##ándék": 5138,
      "Szak": 5139,
      "partn": 5140,
      "##ájuk": 5141,
      "##chan": 5142,
      "visel": 5143,
      "##aim": 5144,
      "##ÁR": 5145,
      "##orv": 5146,
      "rendőr": 5147,
      "##seg": 5148,
      "konce": 5149,
      "blog": 5150,
      "Ch": 5151,
      "rendelkező": 5152,
      "2010": 5153,
      "társadalom": 5154,
      "minket": 5155,
      "bajnok": 5156,
      "népszerű": 5157,
      "##ogle": 5158,
      "##ust": 5159,
      "zsír": 5160,
      "2020": 5161,
      "senki": 5162,
      "##éig": 5163,
      "észre": 5164,
      "##ólag": 5165,
      "zen": 5166,
      "##onban": 5167,
      "##lós": 5168,
      "##tettem": 5169,
      "akinek": 5170,
      "##esztivál": 5171,
      "sors": 5172,
      "minő": 5173,
      "##tebb": 5174,
      "állami": 5175,
      "eszközök": 5176,
      "közösségi": 5177,
      "helyre": 5178,
      "megszer": 5179,
      "##izál": 5180,
      "##tét": 5181,
      "##jegyzés": 5182,
      "##ékes": 5183,
      "szerepel": 5184,
      "Jó": 5185,
      "káros": 5186,
      "alkalm": 5187,
      "gyermekek": 5188,
      "##ződés": 5189,
      "##fal": 5190,
      "##erend": 5191,
      "terme": 5192,
      "szállítás": 5193,
      "Szolgáltató": 5194,
      "Szám": 5195,
      "felnőtt": 5196,
      "##lok": 5197,
      "##amp": 5198,
      "##50": 5199,
      "ehhez": 5200,
      "alakul": 5201,
      "indult": 5202,
      "mindegy": 5203,
      "beszélget": 5204,
      "##fok": 5205,
      "lehetősége": 5206,
      "Milyen": 5207,
      "elején": 5208,
      "##vállal": 5209,
      "port": 5210,
      "paraziták": 5211,
      "fertőzés": 5212,
      "leveg": 5213,
      "szeretn": 5214,
      "##öd": 5215,
      "##jut": 5216,
      "egymást": 5217,
      "este": 5218,
      "##ológi": 5219,
      "években": 5220,
      "##rat": 5221,
      "belőle": 5222,
      "egyértelmű": 5223,
      "katon": 5224,
      "szige": 5225,
      "állandó": 5226,
      "Tal": 5227,
      "tes": 5228,
      "voltam": 5229,
      "##úzeum": 5230,
      "image": 5231,
      "kategóri": 5232,
      "számítógép": 5233,
      "##hatják": 5234,
      "##ekció": 5235,
      "egyéni": 5236,
      "súlyos": 5237,
      "tömeg": 5238,
      "őt": 5239,
      "##tetett": 5240,
      "méd": 5241,
      "maxim": 5242,
      "hagyományos": 5243,
      "##ítására": 5244,
      "##építés": 5245,
      "##dők": 5246,
      "rengeteg": 5247,
      "válik": 5248,
      "attól": 5249,
      "##ttől": 5250,
      "orosz": 5251,
      "Jéz": 5252,
      "méter": 5253,
      "állás": 5254,
      "továbbra": 5255,
      "igazgató": 5256,
      "magad": 5257,
      "tette": 5258,
      "##ácsony": 5259,
      "funkció": 5260,
      "leginkább": 5261,
      "##jával": 5262,
      "##osztály": 5263,
      "forrás": 5264,
      "##ték": 5265,
      "jót": 5266,
      "nemzeti": 5267,
      "##akra": 5268,
      "##észeti": 5269,
      "Kár": 5270,
      "rajta": 5271,
      "##aránt": 5272,
      "##ltek": 5273,
      "időt": 5274,
      "bőv": 5275,
      "##IN": 5276,
      "##zol": 5277,
      "miközben": 5278,
      "##onta": 5279,
      "##ala": 5280,
      "had": 5281,
      "##örgy": 5282,
      "ít": 5283,
      "pozitív": 5284,
      "##urg": 5285,
      "indok": 5286,
      "##szó": 5287,
      "szal": 5288,
      "kevesebb": 5289,
      "hajt": 5290,
      "évti": 5291,
      "Állam": 5292,
      "utas": 5293,
      "gazdaság": 5294,
      "válog": 5295,
      "gör": 5296,
      "végrehajt": 5297,
      "##deni": 5298,
      "##omra": 5299,
      "helyszí": 5300,
      "##ama": 5301,
      "neheze": 5302,
      "hé": 5303,
      "gyulladás": 5304,
      "##bban": 5305,
      "link": 5306,
      "list": 5307,
      "nekünk": 5308,
      "eze": 5309,
      "Európa": 5310,
      "##zár": 5311,
      "##ármester": 5312,
      "Se": 5313,
      "konc": 5314,
      "próbál": 5315,
      "Érd": 5316,
      "mintegy": 5317,
      "té": 5318,
      "szét": 5319,
      "olaj": 5320,
      "munkatárs": 5321,
      "##vétele": 5322,
      "befolyás": 5323,
      "kedves": 5324,
      "bármilyen": 5325,
      "##igye": 5326,
      "Gábor": 5327,
      "tudják": 5328,
      "hatóság": 5329,
      "##vezett": 5330,
      "##tuk": 5331,
      "egyaránt": 5332,
      "##anap": 5333,
      "épít": 5334,
      "Ezzel": 5335,
      "határi": 5336,
      "résztve": 5337,
      "egészségügyi": 5338,
      "dokumentum": 5339,
      "##ítást": 5340,
      "##ann": 5341,
      "##acebook": 5342,
      "könnyű": 5343,
      "##edi": 5344,
      "febr": 5345,
      "##tiv": 5346,
      "egészséges": 5347,
      "csinál": 5348,
      "aktív": 5349,
      "##nyújt": 5350,
      "##kedelmi": 5351,
      "##álisan": 5352,
      "létrehoz": 5353,
      "előny": 5354,
      "##ntr": 5355,
      "lelki": 5356,
      "főleg": 5357,
      "##letet": 5358,
      "##lmi": 5359,
      "maradt": 5360,
      "terhe": 5361,
      "győ": 5362,
      "##nan": 5363,
      "interne": 5364,
      "##azon": 5365,
      "##jenek": 5366,
      "kezdemény": 5367,
      "érdeklő": 5368,
      "##tették": 5369,
      "Miért": 5370,
      "div": 5371,
      "kony": 5372,
      "valamely": 5373,
      "feldolg": 5374,
      "##gép": 5375,
      "előbb": 5376,
      "##ítést": 5377,
      "július": 5378,
      "##ötte": 5379,
      "Város": 5380,
      "kever": 5381,
      "Im": 5382,
      "látvány": 5383,
      "##usok": 5384,
      "probléma": 5385,
      "jutott": 5386,
      "Két": 5387,
      "megjelent": 5388,
      "várható": 5389,
      "##ózis": 5390,
      "##unkban": 5391,
      "többször": 5392,
      "hord": 5393,
      "##iás": 5394,
      "erről": 5395,
      "29": 5396,
      "szakért": 5397,
      "##00000": 5398,
      "##öket": 5399,
      "augusztus": 5400,
      "Kriszt": 5401,
      "ellent": 5402,
      "hí": 5403,
      "##záz": 5404,
      "közön": 5405,
      "##előtt": 5406,
      "##ektől": 5407,
      "##esek": 5408,
      "##ezése": 5409,
      "##kos": 5410,
      "Tisz": 5411,
      "dem": 5412,
      "képzés": 5413,
      "krit": 5414,
      "Felhasznál": 5415,
      "##lov": 5416,
      "fogja": 5417,
      "hajl": 5418,
      "tűnik": 5419,
      "##önyör": 5420,
      "##lame": 5421,
      "##content": 5422,
      "hitel": 5423,
      "##zők": 5424,
      "energia": 5425,
      "##fogy": 5426,
      "##lebb": 5427,
      "##story": 5428,
      "##ációt": 5429,
      "Rend": 5430,
      "tartozik": 5431,
      "nevel": 5432,
      "változás": 5433,
      "isbrandcontent": 5434,
      "##eri": 5435,
      "##oznak": 5436,
      "##ondol": 5437,
      "modern": 5438,
      "Jézus": 5439,
      "##vét": 5440,
      "pir": 5441,
      "bél": 5442,
      "##okról": 5443,
      "##ották": 5444,
      "##szaki": 5445,
      "##zav": 5446,
      "mobil": 5447,
      "Tam": 5448,
      "üze": 5449,
      "táb": 5450,
      "legk": 5451,
      "fesz": 5452,
      "becs": 5453,
      "pénzügyi": 5454,
      "##jebb": 5455,
      "legg": 5456,
      "##ítását": 5457,
      "##lmiszer": 5458,
      "##besz": 5459,
      "titk": 5460,
      "reggel": 5461,
      "##amos": 5462,
      "nekik": 5463,
      "fekete": 5464,
      "külföldi": 5465,
      "##ége": 5466,
      "##ukt": 5467,
      "oka": 5468,
      "kapcs": 5469,
      "##ajon": 5470,
      "mélt": 5471,
      "érzés": 5472,
      "leve": 5473,
      "felkész": 5474,
      "sim": 5475,
      "részét": 5476,
      "Google": 5477,
      "##örténe": 5478,
      "##ájának": 5479,
      "##óknak": 5480,
      "férfiak": 5481,
      "üzleti": 5482,
      "##hal": 5483,
      "##akad": 5484,
      "##oskod": 5485,
      "##áris": 5486,
      "##idesz": 5487,
      "visszatér": 5488,
      "lakosság": 5489,
      "##aival": 5490,
      "digit": 5491,
      "Oly": 5492,
      "##atég": 5493,
      "foglalkozt": 5494,
      "valóság": 5495,
      "követő": 5496,
      "##jaink": 5497,
      "##ölte": 5498,
      "dal": 5499,
      "fed": 5500,
      "ebből": 5501,
      "##ülete": 5502,
      "##vészeti": 5503,
      "##jében": 5504,
      "##nge": 5505,
      "##assa": 5506,
      "számított": 5507,
      "készített": 5508,
      "hány": 5509,
      "tab": 5510,
      "com": 5511,
      "kedvenc": 5512,
      "##tekint": 5513,
      "##ivil": 5514,
      "üzemel": 5515,
      "##orn": 5516,
      "pszich": 5517,
      "közösség": 5518,
      "ugyanakkor": 5519,
      "kevésbé": 5520,
      "bejelent": 5521,
      "felhasználó": 5522,
      "fizikai": 5523,
      "befek": 5524,
      "Ami": 5525,
      "szék": 5526,
      "Par": 5527,
      "kapcsolódó": 5528,
      "nyolc": 5529,
      "inf": 5530,
      "dohányzás": 5531,
      "##uny": 5532,
      "##ásos": 5533,
      "##ila": 5534,
      "döntés": 5535,
      "söt": 5536,
      "ügyfél": 5537,
      "ül": 5538,
      "##lesz": 5539,
      "##ire": 5540,
      "készülék": 5541,
      "szinten": 5542,
      "##bar": 5543,
      "##rtok": 5544,
      "igazság": 5545,
      "Német": 5546,
      "György": 5547,
      "elnöke": 5548,
      "Természe": 5549,
      "hagyomány": 5550,
      "##állt": 5551,
      "amennyiben": 5552,
      "Ked": 5553,
      "##sa": 5554,
      "fil": 5555,
      "##idő": 5556,
      "##sem": 5557,
      "rece": 5558,
      "szent": 5559,
      "valamit": 5560,
      "tartozó": 5561,
      "##évén": 5562,
      "magasabb": 5563,
      "Zolt": 5564,
      "mások": 5565,
      "szomb": 5566,
      "mértékben": 5567,
      "fenti": 5568,
      "mondja": 5569,
      "február": 5570,
      "vélet": 5571,
      "ajánlat": 5572,
      "##ákban": 5573,
      "##unkra": 5574,
      "##énk": 5575,
      "##észség": 5576,
      "lesznek": 5577,
      "##nevez": 5578,
      "##jak": 5579,
      "##atták": 5580,
      "##kerül": 5581,
      "ká": 5582,
      "Egyetem": 5583,
      "szándék": 5584,
      "##való": 5585,
      "álm": 5586,
      "figyelmet": 5587,
      "##udomány": 5588,
      "##kedik": 5589,
      "látni": 5590,
      "számú": 5591,
      "energi": 5592,
      "Minde": 5593,
      "Sándor": 5594,
      "tere": 5595,
      "részes": 5596,
      "##kezés": 5597,
      "kemény": 5598,
      "##zö": 5599,
      "Általános": 5600,
      "néha": 5601,
      "##áron": 5602,
      "Je": 5603,
      "##test": 5604,
      "##száz": 5605,
      "med": 5606,
      "Aki": 5607,
      "##ulni": 5608,
      "##telj": 5609,
      "kölcs": 5610,
      "gener": 5611,
      "takar": 5612,
      "mögött": 5613,
      "##jog": 5614,
      "nappal": 5615,
      "##külön": 5616,
      "mellék": 5617,
      "utána": 5618,
      "##őd": 5619,
      "mennyire": 5620,
      "##áltam": 5621,
      "##víz": 5622,
      "Akkor": 5623,
      "mester": 5624,
      "amik": 5625,
      "tilt": 5626,
      "remek": 5627,
      "##ezték": 5628,
      "rak": 5629,
      "##SA": 5630,
      "##oni": 5631,
      "##ásában": 5632,
      "##úttal": 5633,
      "##iben": 5634,
      "tudunk": 5635,
      "ekkor": 5636,
      "##lin": 5637,
      "leír": 5638,
      "des": 5639,
      "##adást": 5640,
      "viz": 5641,
      "##jeszt": 5642,
      "##odik": 5643,
      "##zolgált": 5644,
      "leggy": 5645,
      "##szerűe": 5646,
      "##szerűen": 5647,
      "##atart": 5648,
      "Ut": 5649,
      "##nyel": 5650,
      "##zünk": 5651,
      "iskola": 5652,
      "##OK": 5653,
      "felhív": 5654,
      "##mérs": 5655,
      "típusú": 5656,
      "kim": 5657,
      "pént": 5658,
      "##áshoz": 5659,
      "sh": 5660,
      "fels": 5661,
      "tulajdonos": 5662,
      "##van": 5663,
      "##telet": 5664,
      "##atjuk": 5665,
      "##ezetten": 5666,
      "Központ": 5667,
      "##32": 5668,
      "embert": 5669,
      "vasár": 5670,
      "mon": 5671,
      "állt": 5672,
      "##adása": 5673,
      "formában": 5674,
      "valamilyen": 5675,
      "száml": 5676,
      "##onyol": 5677,
      "együttműködés": 5678,
      "##nunk": 5679,
      "##növ": 5680,
      "##ítésére": 5681,
      "tanár": 5682,
      "##oba": 5683,
      "tapasztalat": 5684,
      "Zoltán": 5685,
      "197": 5686,
      "felület": 5687,
      "##ítését": 5688,
      "nélküli": 5689,
      "##cz": 5690,
      "Ir": 5691,
      "cm": 5692,
      "költségvet": 5693,
      "megadott": 5694,
      "ráadásul": 5695,
      "80": 5696,
      "hvg": 5697,
      "##országban": 5698,
      "vala": 5699,
      "helyes": 5700,
      "##hats": 5701,
      "vitamin": 5702,
      "##ason": 5703,
      "meggy": 5704,
      "##polg": 5705,
      "Har": 5706,
      "km": 5707,
      "##esten": 5708,
      "194": 5709,
      "többek": 5710,
      "##vesz": 5711,
      "ezelőtt": 5712,
      "##tetni": 5713,
      "##asztó": 5714,
      "utca": 5715,
      "##űrű": 5716,
      "Ed": 5717,
      "##pet": 5718,
      "dís": 5719,
      "önálló": 5720,
      "##éves": 5721,
      "##55": 5722,
      "##haj": 5723,
      "puszt": 5724,
      "működő": 5725,
      "település": 5726,
      "##éséhez": 5727,
      "##ünkben": 5728,
      "##keting": 5729,
      "##jű": 5730,
      "##10": 5731,
      "of": 5732,
      "ablak": 5733,
      "##üst": 5734,
      "Tör": 5735,
      "részben": 5736,
      "gyönyör": 5737,
      "##ilván": 5738,
      "mat": 5739,
      "##óm": 5740,
      "36": 5741,
      "beszer": 5742,
      "visszav": 5743,
      "##eret": 5744,
      "pályázat": 5745,
      "##kap": 5746,
      "##ermek": 5747,
      "##omp": 5748,
      "tőle": 5749,
      "tájékoztató": 5750,
      "női": 5751,
      "2009": 5752,
      "használata": 5753,
      "##ottam": 5754,
      "jöve": 5755,
      "##jelen": 5756,
      "tartó": 5757,
      "##forg": 5758,
      "Ter": 5759,
      "nyilvántart": 5760,
      "##hatsz": 5761,
      "szed": 5762,
      "bemutat": 5763,
      "hozzáfér": 5764,
      "Lehet": 5765,
      "reklám": 5766,
      "##városi": 5767,
      "elismer": 5768,
      "all": 5769,
      "játékos": 5770,
      "##olvas": 5771,
      "jelenlegi": 5772,
      "##zete": 5773,
      "##őként": 5774,
      "##vitel": 5775,
      "##vedés": 5776,
      "##ódi": 5777,
      "##rom": 5778,
      "berend": 5779,
      "Orbán": 5780,
      "Külön": 5781,
      "hosszabb": 5782,
      "közvetlen": 5783,
      "önk": 5784,
      "melyik": 5785,
      "Föld": 5786,
      "Zrt": 5787,
      "##jött": 5788,
      "együt": 5789,
      "bék": 5790,
      "##szav": 5791,
      "egyben": 5792,
      "##si": 5793,
      "munkát": 5794,
      "mire": 5795,
      "##co": 5796,
      "nincse": 5797,
      "ágy": 5798,
      "lehetne": 5799,
      "biztosan": 5800,
      "jármű": 5801,
      "haza": 5802,
      "tárgyal": 5803,
      "##nekar": 5804,
      "proszt": 5805,
      "ür": 5806,
      "##íthető": 5807,
      "belép": 5808,
      "##lhető": 5809,
      "francia": 5810,
      "li": 5811,
      "tudományos": 5812,
      "tra": 5813,
      "fegy": 5814,
      "országos": 5815,
      "##ője": 5816,
      "##iában": 5817,
      "kulturális": 5818,
      "öszt": 5819,
      "##uper": 5820,
      "##lők": 5821,
      "kényelm": 5822,
      "felismer": 5823,
      "beszám": 5824,
      "##emelt": 5825,
      "pót": 5826,
      "használni": 5827,
      "folyamatos": 5828,
      "45": 5829,
      "kivi": 5830,
      "tünetek": 5831,
      "szerepet": 5832,
      "sikeres": 5833,
      "ára": 5834,
      "##ore": 5835,
      "##helye": 5836,
      "##ítve": 5837,
      "módosítás": 5838,
      "neked": 5839,
      "##ultak": 5840,
      "tánc": 5841,
      "tudnak": 5842,
      "csillag": 5843,
      "ülés": 5844,
      "##inket": 5845,
      "gl": 5846,
      "Aztán": 5847,
      "szű": 5848,
      "log": 5849,
      "tartós": 5850,
      "Szem": 5851,
      "fa": 5852,
      "##ugár": 5853,
      "##ásnak": 5854,
      "##olják": 5855,
      "hivatalos": 5856,
      "##ibb": 5857,
      "felúj": 5858,
      "kollég": 5859,
      "##ler": 5860,
      "fejlő": 5861,
      "szépe": 5862,
      "##szolg": 5863,
      "semmit": 5864,
      "megőr": 5865,
      "szülő": 5866,
      "vörös": 5867,
      "##vári": 5868,
      "dísz": 5869,
      "##köze": 5870,
      "rád": 5871,
      "##almazott": 5872,
      "megerős": 5873,
      "ideg": 5874,
      "##zni": 5875,
      "##erel": 5876,
      "adni": 5877,
      "egyszerre": 5878,
      "toj": 5879,
      "##hatod": 5880,
      "állít": 5881,
      "##AK": 5882,
      "##var": 5883,
      "##pad": 5884,
      "##lo": 5885,
      "nyugdíj": 5886,
      "kijel": 5887,
      "##lemény": 5888,
      "ko": 5889,
      "##csap": 5890,
      "óri": 5891,
      "mondani": 5892,
      "azóta": 5893,
      "##che": 5894,
      "egyetem": 5895,
      "élelmiszer": 5896,
      "tulajdonság": 5897,
      "jellegű": 5898,
      "##ültek": 5899,
      "Fran": 5900,
      "említett": 5901,
      "idei": 5902,
      "leb": 5903,
      "idegen": 5904,
      "##ozási": 5905,
      "évtized": 5906,
      "vezér": 5907,
      "##isztikai": 5908,
      "##krét": 5909,
      "terjed": 5910,
      "akit": 5911,
      "üveg": 5912,
      "ajt": 5913,
      "##őben": 5914,
      "Hát": 5915,
      "Sp": 5916,
      "mozgás": 5917,
      "időtart": 5918,
      "aminek": 5919,
      "halad": 5920,
      "előfordul": 5921,
      "##irat": 5922,
      "lehetnek": 5923,
      "ös": 5924,
      "##ezik": 5925,
      "szociális": 5926,
      "olcs": 5927,
      "továbbiakban": 5928,
      "akadály": 5929,
      "járó": 5930,
      "szolgáltatások": 5931,
      "Köszön": 5932,
      "##metlen": 5933,
      "https": 5934,
      "kre": 5935,
      "lassan": 5936,
      "kére": 5937,
      "90": 5938,
      "eltávol": 5939,
      "Olyan": 5940,
      "kil": 5941,
      "áram": 5942,
      "kölcsön": 5943,
      "sincs": 5944,
      "##zák": 5945,
      "adja": 5946,
      "##ekhez": 5947,
      "felvétel": 5948,
      "szórak": 5949,
      "##pel": 5950,
      "klassz": 5951,
      "hideg": 5952,
      "annál": 5953,
      "##odott": 5954,
      "lek": 5955,
      "Na": 5956,
      "Hat": 5957,
      "2008": 5958,
      "szabadság": 5959,
      "##ezár": 5960,
      "##omos": 5961,
      "##ocsi": 5962,
      "Att": 5963,
      "Első": 5964,
      "Igen": 5965,
      "##AP": 5966,
      "##gazdasági": 5967,
      "##rák": 5968,
      "civil": 5969,
      "kötött": 5970,
      "kérdése": 5971,
      "fürdő": 5972,
      "sét": 5973,
      "Üg": 5974,
      "##ate": 5975,
      "Tamás": 5976,
      "szenved": 5977,
      "Jelen": 5978,
      "##inál": 5979,
      "##tion": 5980,
      "tudtam": 5981,
      "Facebook": 5982,
      "átalak": 5983,
      "##ation": 5984,
      "##ers": 5985,
      "mellé": 5986,
      "közvetlenül": 5987,
      "teszt": 5988,
      "##alan": 5989,
      "eur": 5990,
      "The": 5991,
      "kifejezetten": 5992,
      "mere": 5993,
      "sötét": 5994,
      "amivel": 5995,
      "papír": 5996,
      "##fáj": 5997,
      "70": 5998,
      "fell": 5999,
      "tudok": 6000,
      "alapvető": 6001,
      "Országos": 6002,
      "András": 6003,
      "Hozz": 6004,
      "Du": 6005,
      "környék": 6006,
      "assz": 6007,
      "adatkezelő": 6008,
      "##ítenek": 6009,
      "##órum": 6010,
      "##cen": 6011,
      "asztal": 6012,
      "elé": 6013,
      "pillanat": 6014,
      "##ccs": 6015,
      "húz": 6016,
      "##oltak": 6017,
      "legy": 6018,
      "speciális": 6019,
      "kerék": 6020,
      "rendelkezésre": 6021,
      "használható": 6022,
      "Fi": 6023,
      "műsor": 6024,
      "száj": 6025,
      "##jte": 6026,
      "##kan": 6027,
      "Nemzet": 6028,
      "pal": 6029,
      "magán": 6030,
      "##ljük": 6031,
      "##éteg": 6032,
      "törek": 6033,
      "házas": 6034,
      "##értéke": 6035,
      "##vásár": 6036,
      "##zetet": 6037,
      "tük": 6038,
      "egyház": 6039,
      "közz": 6040,
      "##mill": 6041,
      "szépen": 6042,
      "mé": 6043,
      "pro": 6044,
      "mutatja": 6045,
      "##ukció": 6046,
      "Természetesen": 6047,
      "remény": 6048,
      "hatása": 6049,
      "##bor": 6050,
      "Fontos": 6051,
      "stratég": 6052,
      "##ölgy": 6053,
      "tartja": 6054,
      "vállalkozás": 6055,
      "##oktatás": 6056,
      "##EG": 6057,
      "csúcs": 6058,
      "##ésen": 6059,
      "amelyben": 6060,
      "házi": 6061,
      "megtart": 6062,
      "fiú": 6063,
      "újság": 6064,
      "várt": 6065,
      "##író": 6066,
      "segítséget": 6067,
      "35": 6068,
      "index": 6069,
      "##öttem": 6070,
      "##szolgált": 6071,
      "prod": 6072,
      "##orvát": 6073,
      "töm": 6074,
      "érzel": 6075,
      "##ségének": 6076,
      "kulcs": 6077,
      "koron": 6078,
      "##bi": 6079,
      "bíróság": 6080,
      "imád": 6081,
      "legfel": 6082,
      "##ságú": 6083,
      "szig": 6084,
      "##ségben": 6085,
      "birtok": 6086,
      "meghal": 6087,
      "##atása": 6088,
      "amelyeket": 6089,
      "##ütört": 6090,
      "Nincs": 6091,
      "tip": 6092,
      "##ológus": 6093,
      "uj": 6094,
      "lakó": 6095,
      "##élek": 6096,
      "beruház": 6097,
      "pedagóg": 6098,
      "##ova": 6099,
      "Ahogy": 6100,
      "##llyel": 6101,
      "budap": 6102,
      "ot": 6103,
      "##ansz": 6104,
      "apró": 6105,
      "biztonsági": 6106,
      "védelm": 6107,
      "megfog": 6108,
      "hétvég": 6109,
      "##oztak": 6110,
      "öreg": 6111,
      "##ík": 6112,
      "felfed": 6113,
      "Ge": 6114,
      "##cc": 6115,
      "idején": 6116,
      "##fut": 6117,
      "##énnyel": 6118,
      "##ereg": 6119,
      "Iskol": 6120,
      "2021": 6121,
      "##agn": 6122,
      "##ekből": 6123,
      "Di": 6124,
      "szeretnék": 6125,
      "ruh": 6126,
      "##okr": 6127,
      "##usztr": 6128,
      "feladatok": 6129,
      "kop": 6130,
      "##airól": 6131,
      "képesség": 6132,
      "##jait": 6133,
      "##akkal": 6134,
      "megkez": 6135,
      "digitális": 6136,
      "##izált": 6137,
      "rajt": 6138,
      "sejt": 6139,
      "500": 6140,
      "##zeg": 6141,
      "##IS": 6142,
      "196": 6143,
      "zsid": 6144,
      "héten": 6145,
      "##össze": 6146,
      "##ászól": 6147,
      "##aut": 6148,
      "##73": 6149,
      "Amer": 6150,
      "szelle": 6151,
      "tets": 6152,
      "Bizottság": 6153,
      "művész": 6154,
      "##olása": 6155,
      "##aik": 6156,
      "szeretne": 6157,
      "karácsony": 6158,
      "magyarországi": 6159,
      "gondolat": 6160,
      "##ateg": 6161,
      "képvise": 6162,
      "akció": 6163,
      "körülmények": 6164,
      "##uzs": 6165,
      "##ülnek": 6166,
      "munkavállal": 6167,
      "pat": 6168,
      "üt": 6169,
      "tej": 6170,
      "betegségek": 6171,
      "megl": 6172,
      "##iszony": 6173,
      "##irány": 6174,
      "rák": 6175,
      "stat": 6176,
      "észak": 6177,
      "szeretnénk": 6178,
      "kapcsán": 6179,
      "##éren": 6180,
      "##fjú": 6181,
      "##heted": 6182,
      "##gyűlés": 6183,
      "##telem": 6184,
      "hasonl": 6185,
      "lov": 6186,
      "##irod": 6187,
      "ízületi": 6188,
      "cukor": 6189,
      "sajt": 6190,
      "önkormányzat": 6191,
      "##okhoz": 6192,
      "##éért": 6193,
      "##olható": 6194,
      "##leng": 6195,
      "kihív": 6196,
      "##cső": 6197,
      "##sp": 6198,
      "##kér": 6199,
      "##ux": 6200,
      "semmilyen": 6201,
      "##yal": 6202,
      "érkezett": 6203,
      "##ektor": 6204,
      "mérk": 6205,
      "kiter": 6206,
      "felszere": 6207,
      "tran": 6208,
      "##ózkod": 6209,
      "Budapesten": 6210,
      "kellem": 6211,
      "itthon": 6212,
      "agg": 6213,
      "##ények": 6214,
      "##ura": 6215,
      "##lőre": 6216,
      "mindenkinek": 6217,
      "nevű": 6218,
      "hü": 6219,
      "tartalmazza": 6220,
      "választás": 6221,
      "##teles": 6222,
      "##olikus": 6223,
      "Tehát": 6224,
      "összesen": 6225,
      "határidő": 6226,
      "##jünk": 6227,
      "árt": 6228,
      "For": 6229,
      "települ": 6230,
      "Ilyen": 6231,
      "Ügy": 6232,
      "cselek": 6233,
      "##ületek": 6234,
      "miután": 6235,
      "Ör": 6236,
      "területen": 6237,
      "révén": 6238,
      "Ott": 6239,
      "##ódás": 6240,
      "neg": 6241,
      "##urkol": 6242,
      "vírus": 6243,
      "##vészet": 6244,
      "##isták": 6245,
      "tiszta": 6246,
      "tábor": 6247,
      "aktiv": 6248,
      "problémák": 6249,
      "mindkét": 6250,
      "írja": 6251,
      "##aid": 6252,
      "ötlet": 6253,
      "tartani": 6254,
      "##lmint": 6255,
      "Hi": 6256,
      "technikai": 6257,
      "##ásokkal": 6258,
      "##nom": 6259,
      "szívesen": 6260,
      "látogató": 6261,
      "##urcs": 6262,
      "vezetője": 6263,
      "eredménye": 6264,
      "Szín": 6265,
      "##utas": 6266,
      "budapesti": 6267,
      "Adatkezelő": 6268,
      "##tenci": 6269,
      "gáz": 6270,
      "megoszt": 6271,
      "Egyesült": 6272,
      "##ésében": 6273,
      "EL": 6274,
      "##munk": 6275,
      "táj": 6276,
      "felmér": 6277,
      "játszott": 6278,
      "amire": 6279,
      "##étlenül": 6280,
      "##úd": 6281,
      "##ajnok": 6282,
      "##azt": 6283,
      "szeml": 6284,
      "##szint": 6285,
      "fár": 6286,
      "Szövet": 6287,
      "gondoskod": 6288,
      "olasz": 6289,
      "vasárnap": 6290,
      "##űnt": 6291,
      "benyújt": 6292,
      "##ris": 6293,
      "##átok": 6294,
      "##lte": 6295,
      "negyed": 6296,
      "szolgáltató": 6297,
      "megkap": 6298,
      "##áci": 6299,
      "##polit": 6300,
      "##app": 6301,
      "##ajos": 6302,
      "##hatóság": 6303,
      "Pál": 6304,
      "klasszikus": 6305,
      "##nünk": 6306,
      "##akter": 6307,
      "Egyesület": 6308,
      "olt": 6309,
      "##ítették": 6310,
      "nyugod": 6311,
      "valószínűleg": 6312,
      "##állam": 6313,
      "##one": 6314,
      "doll": 6315,
      "##aszkod": 6316,
      "##már": 6317,
      "adag": 6318,
      "nyílt": 6319,
      "195": 6320,
      "szez": 6321,
      "fokoz": 6322,
      "##biz": 6323,
      "mondjuk": 6324,
      "##EZ": 6325,
      "Sajnos": 6326,
      "származó": 6327,
      "nyel": 6328,
      "drág": 6329,
      "poszt": 6330,
      "##játok": 6331,
      "rendszeresen": 6332,
      "gyeng": 6333,
      "Balaton": 6334,
      "sos": 6335,
      "egyete": 6336,
      "##ülni": 6337,
      "utáni": 6338,
      "vállalat": 6339,
      "koncert": 6340,
      "##forduló": 6341,
      "szempontból": 6342,
      "##edési": 6343,
      "mennyi": 6344,
      "kedvezmény": 6345,
      "órakor": 6346,
      "pénisz": 6347,
      "megint": 6348,
      "konkrét": 6349,
      "anti": 6350,
      "mindaz": 6351,
      "##képpen": 6352,
      "##rak": 6353,
      "##db": 6354,
      "##hív": 6355,
      "aktuális": 6356,
      "tartalom": 6357,
      "po": 6358,
      "korr": 6359,
      "##ikát": 6360,
      "elvár": 6361,
      "##und": 6362,
      "csend": 6363,
      "féreg": 6364,
      "##ésű": 6365,
      "Sch": 6366,
      "sü": 6367,
      "ingyenes": 6368,
      "alkalmazott": 6369,
      "képesek": 6370,
      "minőségi": 6371,
      "intézked": 6372,
      "##ack": 6373,
      "tagjai": 6374,
      "gyógyszerek": 6375,
      "esély": 6376,
      "hangulat": 6377,
      "##erc": 6378,
      "##ítsa": 6379,
      "enyh": 6380,
      "folyó": 6381,
      "Vik": 6382,
      "forgalom": 6383,
      "színész": 6384,
      "Bizt": 6385,
      "##újabb": 6386,
      "központi": 6387,
      "##mene": 6388,
      "háttér": 6389,
      "##olaj": 6390,
      "vak": 6391,
      "kerülnek": 6392,
      "##ain": 6393,
      "##lését": 6394,
      "cig": 6395,
      "##lég": 6396,
      "##magas": 6397,
      "befej": 6398,
      "délután": 6399,
      "##zin": 6400,
      "##úti": 6401,
      "regény": 6402,
      "leszok": 6403,
      "##rip": 6404,
      "Hivatal": 6405,
      "szim": 6406,
      "építés": 6407,
      "veszi": 6408,
      "ritk": 6409,
      "bárm": 6410,
      "nyert": 6411,
      "hozott": 6412,
      "##techn": 6413,
      "##bes": 6414,
      "##imn": 6415,
      "##ései": 6416,
      "negatív": 6417,
      "##őző": 6418,
      "##űz": 6419,
      "##hor": 6420,
      "javaslat": 6421,
      "##ví": 6422,
      "ás": 6423,
      "##atait": 6424,
      "##ikum": 6425,
      "világh": 6426,
      "hum": 6427,
      "Web": 6428,
      "alt": 6429,
      "##jére": 6430,
      "azoknak": 6431,
      "##olták": 6432,
      "orvosi": 6433,
      "minőségű": 6434,
      "információkat": 6435,
      "##ókkal": 6436,
      "ennél": 6437,
      "##ázni": 6438,
      "jóval": 6439,
      "ilyenkor": 6440,
      "száraz": 6441,
      "##kü": 6442,
      "##ferenci": 6443,
      "##tünk": 6444,
      "alatti": 6445,
      "##épp": 6446,
      "kultúr": 6447,
      "vád": 6448,
      "felhasználói": 6449,
      "testület": 6450,
      "menek": 6451,
      "hétfő": 6452,
      "marketing": 6453,
      "##adja": 6454,
      "##ity": 6455,
      "megyei": 6456,
      "alsó": 6457,
      "##ásához": 6458,
      "##ámp": 6459,
      "##raf": 6460,
      "sütiket": 6461,
      "valamennyi": 6462,
      "##lási": 6463,
      "rendszeres": 6464,
      "tartózkod": 6465,
      "Fidesz": 6466,
      "tervezett": 6467,
      "Rá": 6468,
      "##kedett": 6469,
      "kezdet": 6470,
      "##ektív": 6471,
      "További": 6472,
      "elkerül": 6473,
      "##rég": 6474,
      "##III": 6475,
      "##állított": 6476,
      "##köd": 6477,
      "tudás": 6478,
      "érte": 6479,
      "győz": 6480,
      "##nevezett": 6481,
      "##nánk": 6482,
      "kockáz": 6483,
      "gyönyörű": 6484,
      "##man": 6485,
      "levél": 6486,
      "ölt": 6487,
      "##fajta": 6488,
      "nyári": 6489,
      "##erelnök": 6490,
      "védő": 6491,
      "tudod": 6492,
      "szerkezet": 6493,
      "hőmérs": 6494,
      "napig": 6495,
      "Attila": 6496,
      "kamp": 6497,
      "csütört": 6498,
      "##átus": 6499,
      "##rem": 6500,
      "Egyéb": 6501,
      "##tim": 6502,
      "valódi": 6503,
      "db": 6504,
      "eltérő": 6505,
      "megprób": 6506,
      "##30": 6507,
      "##forr": 6508,
      "független": 6509,
      "Talán": 6510,
      "összet": 6511,
      "múlva": 6512,
      "elmondta": 6513,
      "Reg": 6514,
      "megúj": 6515,
      "ajánlott": 6516,
      "tablett": 6517,
      "beszélt": 6518,
      "2007": 6519,
      "Munk": 6520,
      "megért": 6521,
      "jutt": 6522,
      "valójában": 6523,
      "##irály": 6524,
      "gyan": 6525,
      "##ozást": 6526,
      "vagyon": 6527,
      "láts": 6528,
      "magukat": 6529,
      "##anci": 6530,
      "##jet": 6531,
      "##ekor": 6532,
      "##tevő": 6533,
      "##uli": 6534,
      "önt": 6535,
      "##éki": 6536,
      "uniós": 6537,
      "##ünkre": 6538,
      "##yógy": 6539,
      "szén": 6540,
      "kelle": 6541,
      "teszik": 6542,
      "##pi": 6543,
      "hasonlóan": 6544,
      "bolt": 6545,
      "szempontjából": 6546,
      "erdő": 6547,
      "##aján": 6548,
      "udv": 6549,
      "mére": 6550,
      "nevet": 6551,
      "post": 6552,
      "állnak": 6553,
      "##iplom": 6554,
      "##hetők": 6555,
      "##sh": 6556,
      "nálunk": 6557,
      "##zéd": 6558,
      "##sd": 6559,
      "kérjük": 6560,
      "személyiség": 6561,
      "##ké": 6562,
      "képet": 6563,
      "##rit": 6564,
      "##ump": 6565,
      "##oljuk": 6566,
      "Ár": 6567,
      "##ded": 6568,
      "kód": 6569,
      "##NY": 6570,
      "III": 6571,
      "feny": 6572,
      "összek": 6573,
      "szoft": 6574,
      "számomra": 6575,
      "évig": 6576,
      "##ságban": 6577,
      "##csökke": 6578,
      "Visz": 6579,
      "bármikor": 6580,
      "látszik": 6581,
      "rit": 6582,
      "##élni": 6583,
      "legújabb": 6584,
      "##ogatás": 6585,
      "ÉS": 6586,
      "##széd": 6587,
      "elvesz": 6588,
      "elége": 6589,
      "Erre": 6590,
      "oldalán": 6591,
      "dolgozó": 6592,
      "##oli": 6593,
      "közönség": 6594,
      "vonal": 6595,
      "fül": 6596,
      "tekintetében": 6597,
      "vastag": 6598,
      "##esszi": 6599,
      "##tell": 6600,
      "részvétel": 6601,
      "velük": 6602,
      "parlame": 6603,
      "KÖ": 6604,
      "##omat": 6605,
      "##árty": 6606,
      "Bél": 6607,
      "##anszír": 6608,
      "##cik": 6609,
      "tisztelet": 6610,
      "hatással": 6611,
      "időszakban": 6612,
      "Tr": 6613,
      "keresztény": 6614,
      "##lték": 6615,
      "Ép": 6616,
      "elkezd": 6617,
      "kényszer": 6618,
      "tudomány": 6619,
      "diagn": 6620,
      "ipar": 6621,
      "tizen": 6622,
      "létes": 6623,
      "##ori": 6624,
      "annyit": 6625,
      "ví": 6626,
      "fénykép": 6627,
      "megnéz": 6628,
      "kur": 6629,
      "##OM": 6630,
      "rug": 6631,
      "nevét": 6632,
      "##omás": 6633,
      "láttam": 6634,
      "csont": 6635,
      "iránt": 6636,
      "munkahely": 6637,
      "##ájékoztató": 6638,
      "##venni": 6639,
      "magunk": 6640,
      "megfelel": 6641,
      "##énél": 6642,
      "##szerűbb": 6643,
      "szellemi": 6644,
      "edzés": 6645,
      "elb": 6646,
      "polgármester": 6647,
      "megelőző": 6648,
      "##központ": 6649,
      "oper": 6650,
      "kol": 6651,
      "életmód": 6652,
      "##ítottak": 6653,
      "okos": 6654,
      "zenekar": 6655,
      "legfeljebb": 6656,
      "buk": 6657,
      "érzéke": 6658,
      "rej": 6659,
      "##ségei": 6660,
      "##aba": 6661,
      "Pár": 6662,
      "zárt": 6663,
      "##ódnak": 6664,
      "##asis": 6665,
      "automatikus": 6666,
      "későbbi": 6667,
      "##eség": 6668,
      "kutató": 6669,
      "##áruház": 6670,
      "mad": 6671,
      "##ÁG": 6672,
      "300": 6673,
      "körében": 6674,
      "Megyei": 6675,
      "szüksége": 6676,
      "##féreg": 6677,
      "01": 6678,
      "előtti": 6679,
      "országban": 6680,
      "##erny": 6681,
      "műszaki": 6682,
      "hivatkoz": 6683,
      "##eznek": 6684,
      "kereskedelmi": 6685,
      "közölte": 6686,
      "##étek": 6687,
      "meglep": 6688,
      "fellép": 6689,
      "##olnak": 6690,
      "Kl": 6691,
      "kezelésére": 6692,
      "megszok": 6693,
      "hirtelen": 6694,
      "##áss": 6695,
      "tavasz": 6696,
      "történelmi": 6697,
      "##ozg": 6698,
      "##otó": 6699,
      "koncentr": 6700,
      "##egyen": 6701,
      "következtében": 6702,
      "adatai": 6703,
      "írta": 6704,
      "tudta": 6705,
      "szembe": 6706,
      "tól": 6707,
      "##ulnak": 6708,
      "előkész": 6709,
      "nyar": 6710,
      "At": 6711,
      "##ora": 6712,
      "megrend": 6713,
      "koz": 6714,
      "mege": 6715,
      "##otel": 6716,
      "anyagi": 6717,
      "létezik": 6718,
      "Mát": 6719,
      "pre": 6720,
      "##isztérium": 6721,
      "##verseny": 6722,
      "stabil": 6723,
      "##ozzák": 6724,
      "szil": 6725,
      "Es": 6726,
      "##lon": 6727,
      "ural": 6728,
      "tol": 6729,
      "hallgató": 6730,
      "##ngyel": 6731,
      "kort": 6732,
      "##ovács": 6733,
      "fant": 6734,
      "##akció": 6735,
      "tudott": 6736,
      "##ry": 6737,
      "Ol": 6738,
      "hiba": 6739,
      "##kező": 6740,
      "##teljes": 6741,
      "kiny": 6742,
      "##almak": 6743,
      "színvonal": 6744,
      "érdeklődés": 6745,
      "előír": 6746,
      "miniszter": 6747,
      "Társaság": 6748,
      "Vas": 6749,
      "gondolom": 6750,
      "##álták": 6751,
      "szenny": 6752,
      "szü": 6753,
      "##ória": 6754,
      "levegő": 6755,
      "szerzett": 6756,
      "jelölt": 6757,
      "##ületet": 6758,
      "háború": 6759,
      "jö": 6760,
      "függetlenül": 6761,
      "##áit": 6762,
      "2006": 6763,
      "jelentősen": 6764,
      "##igh": 6765,
      "Önkormányzat": 6766,
      "gyom": 6767,
      "úr": 6768,
      "##tér": 6769,
      "##pály": 6770,
      "##intéz": 6771,
      "##anyol": 6772,
      "##esszük": 6773,
      "##viz": 6774,
      "vásárlás": 6775,
      "látás": 6776,
      "sárg": 6777,
      "eddigi": 6778,
      "##okba": 6779,
      "megrendelés": 6780,
      "Ve": 6781,
      "hulladék": 6782,
      "##eztem": 6783,
      "##lenc": 6784,
      "##xt": 6785,
      "keret": 6786,
      "##akör": 6787,
      "##éken": 6788,
      "##eknél": 6789,
      "Felhasználó": 6790,
      "##ányi": 6791,
      "tú": 6792,
      "némi": 6793,
      "vevő": 6794,
      "kettő": 6795,
      "bíz": 6796,
      "MTI": 6797,
      "Lajos": 6798,
      "anyagok": 6799,
      "##vág": 6800,
      "##ová": 6801,
      "##jék": 6802,
      "irán": 6803,
      "eleng": 6804,
      "##pari": 6805,
      "##ukra": 6806,
      "ham": 6807,
      "megközel": 6808,
      "Ver": 6809,
      "##járt": 6810,
      "Ren": 6811,
      "2000": 6812,
      "Bud": 6813,
      "VI": 6814,
      "kampány": 6815,
      "Hol": 6816,
      "használja": 6817,
      "zse": 6818,
      "##áztart": 6819,
      "ellenőrzés": 6820,
      "##hy": 6821,
      "##iter": 6822,
      "gu": 6823,
      "od": 6824,
      "kilom": 6825,
      "kórház": 6826,
      "szülők": 6827,
      "##ezer": 6828,
      "Világ": 6829,
      "est": 6830,
      "##védelem": 6831,
      "politikus": 6832,
      "abból": 6833,
      "32": 6834,
      "##tegr": 6835,
      "előzetes": 6836,
      "lemez": 6837,
      "megtan": 6838,
      "Ti": 6839,
      "teme": 6840,
      "##telep": 6841,
      "szomszéd": 6842,
      "Ház": 6843,
      "elektromos": 6844,
      "##ÉG": 6845,
      "Könyv": 6846,
      "hős": 6847,
      "##ozók": 6848,
      "##zövet": 6849,
      "terméket": 6850,
      "kivétel": 6851,
      "Szeret": 6852,
      "##AI": 6853,
      "elképzel": 6854,
      "##nov": 6855,
      "Szeg": 6856,
      "##film": 6857,
      "##igyel": 6858,
      "Deb": 6859,
      "##nám": 6860,
      "##nes": 6861,
      "##issé": 6862,
      "izgalmas": 6863,
      "legye": 6864,
      "velünk": 6865,
      "megváltozt": 6866,
      "piros": 6867,
      "komb": 6868,
      "##netet": 6869,
      "író": 6870,
      "bevezet": 6871,
      "##ga": 6872,
      "##adások": 6873,
      "ábr": 6874,
      "##ezete": 6875,
      "ére": 6876,
      "önkén": 6877,
      "##levél": 6878,
      "##fin": 6879,
      "pad": 6880,
      "##apán": 6881,
      "helyettes": 6882,
      "elmélet": 6883,
      "Th": 6884,
      "varázs": 6885,
      "##sággal": 6886,
      "##tettek": 6887,
      "szolgáló": 6888,
      "Bank": 6889,
      "##TE": 6890,
      "Id": 6891,
      "nak": 6892,
      "fórum": 6893,
      "teráp": 6894,
      "áp": 6895,
      "##gyógy": 6896,
      "töltött": 6897,
      "vette": 6898,
      "egység": 6899,
      "##11": 6900,
      "általa": 6901,
      "szűr": 6902,
      "asp": 6903,
      "##annyi": 6904,
      "alakult": 6905,
      "kerek": 6906,
      "##élem": 6907,
      "##aradt": 6908,
      "étt": 6909,
      "fognak": 6910,
      "##ach": 6911,
      "esetleges": 6912,
      "##miatt": 6913,
      "alkoh": 6914,
      "akiknek": 6915,
      "##lovák": 6916,
      "kínai": 6917,
      "önkormányzati": 6918,
      "hátrány": 6919,
      "##ome": 6920,
      "Nekem": 6921,
      "##ct": 6922,
      "kiegészítő": 6923,
      "roh": 6924,
      "kezdve": 6925,
      "ősz": 6926,
      "##ítjuk": 6927,
      "kutat": 6928,
      "Ker": 6929,
      "##titk": 6930,
      "kapcsolatot": 6931,
      "##tendő": 6932,
      "tábl": 6933,
      "rám": 6934,
      "##öp": 6935,
      "Kör": 6936,
      "Viszont": 6937,
      "kötet": 6938,
      "biztonságos": 6939,
      "##áltak": 6940,
      "hiszem": 6941,
      "##egyű": 6942,
      "évre": 6943,
      "##zob": 6944,
      "falu": 6945,
      "Tanács": 6946,
      "##vis": 6947,
      "közep": 6948,
      "##igazgató": 6949,
      "élete": 6950,
      "szeme": 6951,
      "ev": 6952,
      "##értve": 6953,
      "##járól": 6954,
      "New": 6955,
      "##essze": 6956,
      "##hatott": 6957,
      "##atát": 6958,
      "érzékeny": 6959,
      "szót": 6960,
      "##ókusz": 6961,
      "kivitele": 6962,
      "felelősség": 6963,
      "díjat": 6964,
      "##véve": 6965,
      "Nép": 6966,
      "elhuny": 6967,
      "eld": 6968,
      "határozat": 6969,
      "##ismert": 6970,
      "Ant": 6971,
      "Miklós": 6972,
      "##ana": 6973,
      "##ásait": 6974,
      "##aszer": 6975,
      "##õl": 6976,
      "##leti": 6977,
      "bemutató": 6978,
      "##óc": 6979,
      "egykori": 6980,
      "##hess": 6981,
      "##áng": 6982,
      "Ek": 6983,
      "##d9": 6984,
      "lépés": 6985,
      "kockázat": 6986,
      "dolgok": 6987,
      "labd": 6988,
      "Szabó": 6989,
      "izom": 6990,
      "##are": 6991,
      "együttes": 6992,
      "##cser": 6993,
      "hozzászól": 6994,
      "Ok": 6995,
      "Nyug": 6996,
      "tel": 6997,
      "##atlanul": 6998,
      "Kedves": 6999,
      "kétszer": 7000,
      "##part": 7001,
      "##irdet": 7002,
      "##ami": 7003,
      "##önd": 7004,
      "##lop": 7005,
      "##olyg": 7006,
      "##ita": 7007,
      "igényel": 7008,
      "##tese": 7009,
      "mindössze": 7010,
      "Kon": 7011,
      "különféle": 7012,
      "##ezetett": 7013,
      "##olva": 7014,
      "ugye": 7015,
      "##cet": 7016,
      "megoldást": 7017,
      "Önnek": 7018,
      "##vid": 7019,
      "feltétlenül": 7020,
      "színes": 7021,
      "##ÉK": 7022,
      "tünetei": 7023,
      "változat": 7024,
      "##ászati": 7025,
      "ezáltal": 7026,
      "bölcs": 7027,
      "meglát": 7028,
      "##écsi": 7029,
      "idős": 7030,
      "adta": 7031,
      "jelez": 7032,
      "vers": 7033,
      "kellemes": 7034,
      "gyermeke": 7035,
      "rejt": 7036,
      "akk": 7037,
      "növeked": 7038,
      "fajt": 7039,
      "mindennap": 7040,
      "Ze": 7041,
      "art": 7042,
      "##5e": 7043,
      "##geli": 7044,
      "nehezen": 7045,
      "menü": 7046,
      "elege": 7047,
      "##kezet": 7048,
      "folytatás": 7049,
      "##ellen": 7050,
      "esetekben": 7051,
      "életét": 7052,
      "##szol": 7053,
      "Ehhez": 7054,
      "Ber": 7055,
      "##ezhető": 7056,
      "fesztivál": 7057,
      "használják": 7058,
      "Azért": 7059,
      "disz": 7060,
      "zenei": 7061,
      "AZ": 7062,
      "Rem": 7063,
      "Hon": 7064,
      "##akrabban": 7065,
      "##sav": 7066,
      "térd": 7067,
      "eredet": 7068,
      "##able": 7069,
      "felb": 7070,
      "##ástól": 7071,
      "lehetőségek": 7072,
      "##hets": 7073,
      "idéz": 7074,
      "Cse": 7075,
      "menni": 7076,
      "##AM": 7077,
      "Lát": 7078,
      "##our": 7079,
      "##szolgáltatás": 7080,
      "##ésőbb": 7081,
      "pihen": 7082,
      "##ords": 7083,
      "jelentette": 7084,
      "engem": 7085,
      "gyer": 7086,
      "##cél": 7087,
      "##mis": 7088,
      "##3a": 7089,
      "beav": 7090,
      "Ben": 7091,
      "mindenképpen": 7092,
      "##IK": 7093,
      "##oszk": 7094,
      "##tesz": 7095,
      "tegy": 7096,
      "bes": 7097,
      "##atják": 7098,
      "##au": 7099,
      "vizet": 7100,
      "technológi": 7101,
      "##hetsz": 7102,
      "majdnem": 7103,
      "hatására": 7104,
      "tartalmazó": 7105,
      "inten": 7106,
      "##io": 7107,
      "mm": 7108,
      "megtud": 7109,
      "##lása": 7110,
      "##ébb": 7111,
      "Péld": 7112,
      "döntött": 7113,
      "konyh": 7114,
      "48": 7115,
      "szar": 7116,
      "szervezetek": 7117,
      "Szerintem": 7118,
      "meden": 7119,
      "##kot": 7120,
      "úgynevezett": 7121,
      "feladata": 7122,
      "elenged": 7123,
      "##szerep": 7124,
      "Ang": 7125,
      "##ákon": 7126,
      "##ezések": 7127,
      "##ává": 7128,
      "szegény": 7129,
      "terméke": 7130,
      "csodál": 7131,
      "##udományi": 7132,
      "##tok": 7133,
      "Gr": 7134,
      "Szóval": 7135,
      "##képes": 7136,
      "részletes": 7137,
      "elind": 7138,
      "űr": 7139,
      "óriási": 7140,
      "ger": 7141,
      "##adók": 7142,
      "06": 7143,
      "ur": 7144,
      "felmer": 7145,
      "##pia": 7146,
      "brit": 7147,
      "néven": 7148,
      "elhagy": 7149,
      "hétköz": 7150,
      "ennyi": 7151,
      "##árok": 7152,
      "élni": 7153,
      "##tál": 7154,
      "Debre": 7155,
      "diplom": 7156,
      "Intézet": 7157,
      "százalékkal": 7158,
      "Var": 7159,
      "##éta": 7160,
      "##alog": 7161,
      "and": 7162,
      "járvány": 7163,
      "##íték": 7164,
      "beszéd": 7165,
      "kiprób": 7166,
      "Hung": 7167,
      "##oln": 7168,
      "##atikai": 7169,
      "##atokkal": 7170,
      "menet": 7171,
      "esett": 7172,
      "örül": 7173,
      "##pót": 7174,
      "##ozták": 7175,
      "piaci": 7176,
      "eső": 7177,
      "Bor": 7178,
      "##lány": 7179,
      "##nit": 7180,
      "kék": 7181,
      "##tein": 7182,
      "kötelezettség": 7183,
      "nyak": 7184,
      "Bel": 7185,
      "Károly": 7186,
      "sosem": 7187,
      "hiába": 7188,
      "Alapítvány": 7189,
      "biztosítja": 7190,
      "##tön": 7191,
      "##ásról": 7192,
      "váll": 7193,
      "dolgot": 7194,
      "napján": 7195,
      "##ual": 7196,
      "##b3": 7197,
      "##abad": 7198,
      "nyitott": 7199,
      "táplálkoz": 7200,
      "##lók": 7201,
      "##közben": 7202,
      "##októl": 7203,
      "olvasó": 7204,
      "néző": 7205,
      "Pedig": 7206,
      "személyek": 7207,
      "##TT": 7208,
      "dolgozni": 7209,
      "sír": 7210,
      "##ográ": 7211,
      "##ew": 7212,
      "alb": 7213,
      "Mond": 7214,
      "különbség": 7215,
      "un": 7216,
      "Rész": 7217,
      "sikerül": 7218,
      "##VI": 7219,
      "gyász": 7220,
      "kissé": 7221,
      "befektet": 7222,
      "kívánt": 7223,
      "kiemelt": 7224,
      "terh": 7225,
      "garant": 7226,
      "##jével": 7227,
      "bot": 7228,
      "Hal": 7229,
      "miniszterelnök": 7230,
      "folt": 7231,
      "feltételek": 7232,
      "massz": 7233,
      "beép": 7234,
      "Keres": 7235,
      "internet": 7236,
      "részlet": 7237,
      "erekció": 7238,
      "kezdett": 7239,
      "##uha": 7240,
      "##ítők": 7241,
      "prosztat": 7242,
      "ant": 7243,
      "##itt": 7244,
      "##uss": 7245,
      "használatát": 7246,
      "fiatalok": 7247,
      "közzé": 7248,
      "##üntetés": 7249,
      "főváros": 7250,
      "gyök": 7251,
      "##rendel": 7252,
      "##hessen": 7253,
      "kaland": 7254,
      "##ájú": 7255,
      "szuper": 7256,
      "réteg": 7257,
      "klub": 7258,
      "elhunyt": 7259,
      "életet": 7260,
      "könyvtár": 7261,
      "bíró": 7262,
      "plusz": 7263,
      "Sem": 7264,
      "##osszabb": 7265,
      "résztvevő": 7266,
      "segíteni": 7267,
      "##ille": 7268,
      "##éshez": 7269,
      "megvan": 7270,
      "elter": 7271,
      "hú": 7272,
      "##álása": 7273,
      "kérelm": 7274,
      "asszony": 7275,
      "bemutatás": 7276,
      "##aiban": 7277,
      "No": 7278,
      "kő": 7279,
      "előseg": 7280,
      "Jog": 7281,
      "##ros": 7282,
      "##ításra": 7283,
      "##cionális": 7284,
      "##ázó": 7285,
      "egymással": 7286,
      "##ezést": 7287,
      "hazánk": 7288,
      "hangul": 7289,
      "Úr": 7290,
      "napja": 7291,
      "##teti": 7292,
      "reform": 7293,
      "iskolai": 7294,
      "##AS": 7295,
      "évente": 7296,
      "forintot": 7297,
      "##ttünk": 7298,
      "kie": 7299,
      "Ind": 7300,
      "Fr": 7301,
      "Krisztus": 7302,
      "Kom": 7303,
      "Duna": 7304,
      "##velő": 7305,
      "kezelni": 7306,
      "##hály": 7307,
      "határoz": 7308,
      "céljából": 7309,
      "Néhány": 7310,
      "helyszín": 7311,
      "gyakorlati": 7312,
      "##irk": 7313,
      "szólt": 7314,
      "##ulása": 7315,
      "##zata": 7316,
      "elsz": 7317,
      "meghív": 7318,
      "félre": 7319,
      "ifjú": 7320,
      "csok": 7321,
      "vajon": 7322,
      "lep": 7323,
      "adatait": 7324,
      "ettől": 7325,
      "bizottság": 7326,
      "##vételt": 7327,
      "értelem": 7328,
      "##fogyaszt": 7329,
      "##űnő": 7330,
      "tudatos": 7331,
      "többen": 7332,
      "mérkőzés": 7333,
      "műtét": 7334,
      "parkol": 7335,
      "##écs": 7336,
      "rov": 7337,
      "the": 7338,
      "tün": 7339,
      "allerg": 7340,
      "Horvát": 7341,
      "##aira": 7342,
      "##hid": 7343,
      "##iság": 7344,
      "Unió": 7345,
      "##ném": 7346,
      "viszonylag": 7347,
      "konf": 7348,
      "Fej": 7349,
      "méretű": 7350,
      "##arc": 7351,
      "naponta": 7352,
      "##jal": 7353,
      "##ered": 7354,
      "védel": 7355,
      "átlagos": 7356,
      "##ítanak": 7357,
      "##OP": 7358,
      "túr": 7359,
      "##ezetet": 7360,
      "##szabad": 7361,
      "videó": 7362,
      "##sért": 7363,
      "##asztikus": 7364,
      "##zus": 7365,
      "##azin": 7366,
      "##ászt": 7367,
      "rajz": 7368,
      "körben": 7369,
      "##ákra": 7370,
      "##ens": 7371,
      "##inni": 7372,
      "kiderült": 7373,
      "##ezésre": 7374,
      "##alista": 7375,
      "dolgozik": 7376,
      "dolgokat": 7377,
      "reag": 7378,
      "eleg": 7379,
      "##CS": 7380,
      "##atokat": 7381,
      "sérül": 7382,
      "far": 7383,
      "havi": 7384,
      "##akadály": 7385,
      "Sh": 7386,
      "felel": 7387,
      "szellem": 7388,
      "elk": 7389,
      "tészt": 7390,
      "sajtó": 7391,
      "Telj": 7392,
      "töl": 7393,
      "Gazd": 7394,
      "##zönt": 7395,
      "##ázott": 7396,
      "ideális": 7397,
      "kamer": 7398,
      "##pció": 7399,
      "##nyű": 7400,
      "##talanul": 7401,
      "szexuális": 7402,
      "##ázás": 7403,
      "item": 7404,
      "hab": 7405,
      "élett": 7406,
      "##zésére": 7407,
      "kárty": 7408,
      "Azonban": 7409,
      "fegyver": 7410,
      "##sszel": 7411,
      "hamarosan": 7412,
      "kedv": 7413,
      "Viktor": 7414,
      "vétel": 7415,
      "programok": 7416,
      "##program": 7417,
      "gal": 7418,
      "alv": 7419,
      "egyelőre": 7420,
      "elkül": 7421,
      "nagyjából": 7422,
      "várja": 7423,
      "gyakorlatilag": 7424,
      "Zsolt": 7425,
      "##óst": 7426,
      "szolgáltatást": 7427,
      "információt": 7428,
      "bennünket": 7429,
      "##feld": 7430,
      "idők": 7431,
      "finanszír": 7432,
      "szigorú": 7433,
      "##amb": 7434,
      "gyakori": 7435,
      "kors": 7436,
      "talaj": 7437,
      "forrad": 7438,
      "Ekkor": 7439,
      "true": 7440,
      "részlete": 7441,
      "megtört": 7442,
      "##fokú": 7443,
      "elegendő": 7444,
      "ep": 7445,
      "helyzetben": 7446,
      "ahogyan": 7447,
      "krém": 7448,
      "Múzeum": 7449,
      "tükr": 7450,
      "százalékos": 7451,
      "Majd": 7452,
      "##mar": 7453,
      "egyetemi": 7454,
      "köztük": 7455,
      "világban": 7456,
      "kivált": 7457,
      "állampolg": 7458,
      "##igazgatás": 7459,
      "Tele": 7460,
      "fagy": 7461,
      "##yw": 7462,
      "szabályok": 7463,
      "szintű": 7464,
      "##anyagok": 7465,
      "Mikor": 7466,
      "##úton": 7467,
      "tünet": 7468,
      "##ezd": 7469,
      "##uth": 7470,
      "látja": 7471,
      "##OZ": 7472,
      "lenn": 7473,
      "##izáció": 7474,
      "innov": 7475,
      "##bbet": 7476,
      "horg": 7477,
      "44": 7478,
      "##orok": 7479,
      "betart": 7480,
      "##szervezet": 7481,
      "közösen": 7482,
      "pik": 7483,
      "meghatározó": 7484,
      "Program": 7485,
      "integr": 7486,
      "bevon": 7487,
      "33": 7488,
      "tete": 7489,
      "##asi": 7490,
      "##obot": 7491,
      "##akon": 7492,
      "oktatási": 7493,
      "nyugati": 7494,
      "##ítéséhez": 7495,
      "megvásár": 7496,
      "##szék": 7497,
      "Kérjük": 7498,
      "##emlék": 7499,
      "befog": 7500,
      "kerület": 7501,
      "Tart": 7502,
      "##ÉR": 7503,
      "megtekint": 7504,
      "##atnak": 7505,
      "##bajnok": 7506,
      "Kovács": 7507,
      "##lles": 7508,
      "bonyol": 7509,
      "eredmények": 7510,
      "##ara": 7511,
      "amúgy": 7512,
      "sokáig": 7513,
      "img": 7514,
      "szeretné": 7515,
      "Vár": 7516,
      "##obi": 7517,
      "kellemetlen": 7518,
      "mikr": 7519,
      "##SZT": 7520,
      "##vett": 7521,
      "ellenzék": 7522,
      "track": 7523,
      "Ger": 7524,
      "##választ": 7525,
      "##zál": 7526,
      "Sport": 7527,
      "veszélyes": 7528,
      "##igr": 7529,
      "hullám": 7530,
      "gazdálkod": 7531,
      "##ezve": 7532,
      "mentes": 7533,
      "IS": 7534,
      "szóval": 7535,
      "##kon": 7536,
      "##adta": 7537,
      "tanfolyam": 7538,
      "##edő": 7539,
      "##ián": 7540,
      "##olási": 7541,
      "##lást": 7542,
      "##Le": 7543,
      "állatok": 7544,
      "##betegség": 7545,
      "##észek": 7546,
      "##nyire": 7547,
      "09": 7548,
      "##ölni": 7549,
      "partnert": 7550,
      "##éj": 7551,
      "kezde": 7552,
      "##aját": 7553,
      "##huz": 7554,
      "rajong": 7555,
      "Hely": 7556,
      "##aték": 7557,
      "könnyed": 7558,
      "##zon": 7559,
      "önkéntes": 7560,
      "érdekel": 7561,
      "pub": 7562,
      "##vert": 7563,
      "Pl": 7564,
      "##oe": 7565,
      "megakadály": 7566,
      "megjel": 7567,
      "##uj": 7568,
      "Eme": 7569,
      "téli": 7570,
      "Med": 7571,
      "megr": 7572,
      "iránti": 7573,
      "büs": 7574,
      "rögtön": 7575,
      "##22": 7576,
      "oldalak": 7577,
      "egyértelműe": 7578,
      "busz": 7579,
      "ket": 7580,
      "egyértelműen": 7581,
      "kan": 7582,
      "##imnáz": 7583,
      "##crip": 7584,
      "pontja": 7585,
      "##unkon": 7586,
      "##esztés": 7587,
      "##zatok": 7588,
      "##pap": 7589,
      "színpad": 7590,
      "százaléka": 7591,
      "nincsenek": 7592,
      "Dél": 7593,
      "nyilvánosság": 7594,
      "##attak": 7595,
      "ital": 7596,
      "MA": 7597,
      "##képzés": 7598,
      "felhasználók": 7599,
      "##ezők": 7600,
      "magának": 7601,
      "gyártó": 7602,
      "##áson": 7603,
      "##ÍT": 7604,
      "dohányzásról": 7605,
      "valamelyik": 7606,
      "legyenek": 7607,
      "Össz": 7608,
      "##ae": 7609,
      "##óni": 7610,
      "kicsi": 7611,
      "mened": 7612,
      "tév": 7613,
      "gát": 7614,
      "nyújtott": 7615,
      "kutya": 7616,
      "##tör": 7617,
      "title": 7618,
      "segíti": 7619,
      "Ugyanakkor": 7620,
      "Képviselő": 7621,
      "információs": 7622,
      "kiadás": 7623,
      "##ary": 7624,
      "##opp": 7625,
      "##tetése": 7626,
      "komplex": 7627,
      "##szerek": 7628,
      "védek": 7629,
      "##esszor": 7630,
      "rendező": 7631,
      "parazita": 7632,
      "megtalálható": 7633,
      "##olyan": 7634,
      "függően": 7635,
      "messze": 7636,
      "magunkat": 7637,
      "karakter": 7638,
      "választott": 7639,
      "##alkot": 7640,
      "Hír": 7641,
      "sebesség": 7642,
      "összeh": 7643,
      "bejegyzés": 7644,
      "cip": 7645,
      "tudós": 7646,
      "Ag": 7647,
      "##if": 7648,
      "kora": 7649,
      "kontr": 7650,
      "kilenc": 7651,
      "hatalom": 7652,
      "##tilt": 7653,
      "##közt": 7654,
      "Iz": 7655,
      "mindez": 7656,
      "különös": 7657,
      "ellenőriz": 7658,
      "vékony": 7659,
      "##ítjük": 7660,
      "##vei": 7661,
      "##ítók": 7662,
      "tetszik": 7663,
      "##ómai": 7664,
      "megkérd": 7665,
      "tim": 7666,
      "Idő": 7667,
      "no": 7668,
      "tég": 7669,
      "Seg": 7670,
      "##viszony": 7671,
      "amiben": 7672,
      "beavatkoz": 7673,
      "eskü": 7674,
      "short": 7675,
      "böngésző": 7676,
      "ff": 7677,
      "##ításához": 7678,
      "view": 7679,
      "##name": 7680,
      "jövőben": 7681,
      "sar": 7682,
      "keny": 7683,
      "Európában": 7684,
      "##IT": 7685,
      "válogatott": 7686,
      "##belül": 7687,
      "din": 7688,
      "temető": 7689,
      "történelem": 7690,
      "##lia": 7691,
      "akkori": 7692,
      "alkat": 7693,
      "lemond": 7694,
      "##th": 7695,
      "fogyasztó": 7696,
      "##senek": 7697,
      "##ukor": 7698,
      "##almazt": 7699,
      "##umot": 7700,
      "sugár": 7701,
      "formájában": 7702,
      "##itány": 7703,
      "##émia": 7704,
      "##helyzet": 7705,
      "Kész": 7706,
      "térkép": 7707,
      "34": 7708,
      "##áni": 7709,
      "hálózat": 7710,
      "##ölés": 7711,
      "##kó": 7712,
      "##ax": 7713,
      "véletlen": 7714,
      "e6": 7715,
      "ezúttal": 7716,
      "##aknak": 7717,
      "ler": 7718,
      "ser": 7719,
      "##ozások": 7720,
      "híres": 7721,
      "##ania": 7722,
      "munkált": 7723,
      "##ózs": 7724,
      "##ash": 7725,
      "mielőtt": 7726,
      "hiteles": 7727,
      "számunkra": 7728,
      "Car": 7729,
      "feles": 7730,
      "hozzájárulás": 7731,
      "Rom": 7732,
      "kérelem": 7733,
      "##biztonság": 7734,
      "vallás": 7735,
      "napos": 7736,
      "rez": 7737,
      "##kely": 7738,
      "##dor": 7739,
      "##apor": 7740,
      "##gé": 7741,
      "rége": 7742,
      "visszak": 7743,
      "##ts": 7744,
      "műanyag": 7745,
      "##kora": 7746,
      "nézve": 7747,
      "##pon": 7748,
      "##ernatív": 7749,
      "##áknak": 7750,
      "betegek": 7751,
      "ugyanaz": 7752,
      "mégsem": 7753,
      "erőszak": 7754,
      "##isebb": 7755,
      "Először": 7756,
      "##ékek": 7757,
      "legjobban": 7758,
      "##ászat": 7759,
      "állap": 7760,
      "bát": 7761,
      "egységes": 7762,
      "##dnek": 7763,
      "##különb": 7764,
      "Vál": 7765,
      "címmel": 7766,
      "gondoltam": 7767,
      "döntő": 7768,
      "szenve": 7769,
      "felsor": 7770,
      "Ráadásul": 7771,
      "##álják": 7772,
      "level": 7773,
      "##álnak": 7774,
      "fém": 7775,
      "kos": 7776,
      "##asszony": 7777,
      "##telenül": 7778,
      "okozott": 7779,
      "##énye": 7780,
      "irodalom": 7781,
      "edző": 7782,
      "tökéletesen": 7783,
      "##cription": 7784,
      "problémát": 7785,
      "##ategory": 7786,
      "les": 7787,
      "##ikában": 7788,
      "##367": 7789,
      "##biztosítás": 7790,
      "embereket": 7791,
      "Tib": 7792,
      "ob": 7793,
      "##19": 7794,
      "Iskola": 7795,
      "immun": 7796,
      "kilométer": 7797,
      "orr": 7798,
      "akarja": 7799,
      "##12": 7800,
      "##társ": 7801,
      "látom": 7802,
      "Jav": 7803,
      "##áján": 7804,
      "Kap": 7805,
      "kialakulás": 7806,
      "##ailable": 7807,
      "##fű": 7808,
      "IV": 7809,
      "Pén": 7810,
      "isz": 7811,
      "##18": 7812,
      "##XX": 7813,
      "kidolg": 7814,
      "napot": 7815,
      "##védő": 7816,
      "időjár": 7817,
      "fizetési": 7818,
      "ipari": 7819,
      "érzem": 7820,
      "étrend": 7821,
      "##ömb": 7822,
      "regisztráció": 7823,
      "##ándul": 7824,
      "available": 7825,
      "Orosz": 7826,
      "pozíció": 7827,
      "okozta": 7828,
      "Érdek": 7829,
      "növekedés": 7830,
      "##ich": 7831,
      "##abc": 7832,
      "fotó": 7833,
      "alkohol": 7834,
      "cégek": 7835,
      "##nged": 7836,
      "Mindez": 7837,
      "kifizet": 7838,
      "##ádi": 7839,
      "##channel": 7840,
      "uralkod": 7841,
      "description": 7842,
      "REL": 7843,
      "doboz": 7844,
      "Király": 7845,
      "##iskola": 7846,
      "##omban": 7847,
      "recept": 7848,
      "##yú": 7849,
      "author": 7850,
      "közepén": 7851,
      "visszavon": 7852,
      "##élés": 7853,
      "korszak": 7854,
      "##bran": 7855,
      "##onnan": 7856,
      "##ásáról": 7857,
      "##álunk": 7858,
      "óvod": 7859,
      "kiderül": 7860,
      "00000000": 7861,
      "##73b": 7862,
      "aspx": 7863,
      "bemut": 7864,
      "glob": 7865,
      "internetes": 7866,
      "##olcs": 7867,
      "csíp": 7868,
      "megcs": 7869,
      "Olv": 7870,
      "sziget": 7871,
      "##Code": 7872,
      "erősen": 7873,
      "category": 7874,
      "##vit": 7875,
      "tracking": 7876,
      "alól": 7877,
      "tartják": 7878,
      "korában": 7879,
      "bejár": 7880,
      "személyi": 7881,
      "##onal": 7882,
      "##nép": 7883,
      "42": 7884,
      "kezelő": 7885,
      "szalag": 7886,
      "cent": 7887,
      "feszült": 7888,
      "régió": 7889,
      "##ror": 7890,
      "szánt": 7891,
      "Végül": 7892,
      "szállás": 7893,
      "agr": 7894,
      "alkalmazni": 7895,
      "keyw": 7896,
      "útján": 7897,
      "guid": 7898,
      "külföld": 7899,
      "ún": 7900,
      "##óth": 7901,
      "Fér": 7902,
      "##CI": 7903,
      "szakemberek": 7904,
      "##ATED": 7905,
      "életben": 7906,
      "bán": 7907,
      "##avírus": 7908,
      "##logo": 7909,
      "3d9": 7910,
      "##atóri": 7911,
      "keywords": 7912,
      "támogatást": 7913,
      "##estamp": 7914,
      "##ezési": 7915,
      "timestamp": 7916,
      "mult": 7917,
      "szerd": 7918,
      "kup": 7919,
      "##bb55": 7920,
      "##5e3a": 7921,
      "ba": 7922,
      "nél": 7923,
      "##ödik": 7924,
      "4abc": 7925,
      "##Lead": 7926,
      "onn": 7927,
      "b367": 7928,
      "RELATED": 7929,
      "ffdb": 7930,
      "##nának": 7931,
      "e632": 7932,
      "partnertag": 7933,
      "trackingCode": 7934,
      "isbrandchannel": 7935,
      "partnername": 7936,
      "partnerlogo": 7937,
      "##b3bb55": 7938,
      "shortLead": 7939,
      "3d9b3bb55": 7940,
      "ffdb5e3a": 7941,
      "3d9b3bb5573b": 7942,
      "##iget": 7943,
      "##branded": 7944,
      "esik": 7945,
      "isbranded": 7946,
      "bárki": 7947,
      "kapu": 7948,
      "##ügymin": 7949,
      "eleme": 7950,
      "negyedik": 7951,
      "##bázis": 7952,
      "velem": 7953,
      "##orbrand": 7954,
      "isbrandstory": 7955,
      "isbrandcontentorbrand": 7956,
      "isbrandcontentorbrandstory": 7957,
      "bont": 7958,
      "láz": 7959,
      "alkalmazása": 7960,
      "embernek": 7961,
      "ösztön": 7962,
      "##ításának": 7963,
      "0000000": 7964,
      "hőmérséklet": 7965,
      "TV": 7966,
      "##lmet": 7967,
      "mostani": 7968,
      "nagym": 7969,
      "okozhat": 7970,
      "##ogó": 7971,
      "##ogató": 7972,
      "##ökön": 7973,
      "##rae": 7974,
      "kg": 7975,
      "##003": 7976,
      "amiket": 7977,
      "képek": 7978,
      "na": 7979,
      "normális": 7980,
      "Mihály": 7981,
      "módja": 7982,
      "Jobb": 7983,
      "szolgálat": 7984,
      "000000000000": 7985,
      "téma": 7986,
      "Nemzetközi": 7987,
      "feltölt": 7988,
      "lépett": 7989,
      "felügy": 7990,
      "csatorn": 7991,
      "##qu": 7992,
      "foglaltak": 7993,
      "felép": 7994,
      "##éve": 7995,
      "sk": 7996,
      "csinálni": 7997,
      "lezár": 7998,
      "##oros": 7999,
      "##haszn": 8000,
      "rendszert": 8001,
      "jóvá": 8002,
      "vásárló": 8003,
      "##áld": 8004,
      "der": 8005,
      "##remű": 8006,
      "kaptam": 8007,
      "##ítások": 8008,
      "áron": 8009,
      "magyaráz": 8010,
      "szállítási": 8011,
      "helyiség": 8012,
      "Ám": 8013,
      "jegyző": 8014,
      "tájékoztatást": 8015,
      "megjegy": 8016,
      "kivéve": 8017,
      "##uma": 8018,
      "elérni": 8019,
      "##ságra": 8020,
      "##tus": 8021,
      "##szerte": 8022,
      "##oztam": 8023,
      "visszaj": 8024,
      "stressz": 8025,
      "##ileg": 8026,
      "várak": 8027,
      "ismerős": 8028,
      "Kín": 8029,
      "08": 8030,
      "világon": 8031,
      "##kett": 8032,
      "##egnap": 8033,
      "példány": 8034,
      "órán": 8035,
      "##ömör": 8036,
      "##omi": 8037,
      "##nod": 8038,
      "technik": 8039,
      "##jam": 8040,
      "érkezik": 8041,
      "legut": 8042,
      "Mária": 8043,
      "2004": 8044,
      "46": 8045,
      "##őzött": 8046,
      "Balázs": 8047,
      "egyensúly": 8048,
      "##lme": 8049,
      "##gondol": 8050,
      "##ásoknak": 8051,
      "2005": 8052,
      "##gond": 8053,
      "elnevez": 8054,
      "##eztek": 8055,
      "élt": 8056,
      "##pát": 8057,
      "kezdődik": 8058,
      "##éti": 8059,
      "Mon": 8060,
      "##zését": 8061,
      "kilát": 8062,
      "színház": 8063,
      "##almát": 8064,
      "folyadék": 8065,
      "rang": 8066,
      "##attam": 8067,
      "rugalmas": 8068,
      "állapotban": 8069,
      "üzenet": 8070,
      "##jármű": 8071,
      "letölt": 8072,
      "Inter": 8073,
      "krón": 8074,
      "illető": 8075,
      "##fehér": 8076,
      "városi": 8077,
      "##emben": 8078,
      "vettem": 8079,
      "38": 8080,
      "##ódni": 8081,
      "tagállam": 8082,
      "##feldolg": 8083,
      "Színház": 8084,
      "##perc": 8085,
      "többség": 8086,
      "utat": 8087,
      "kreatív": 8088,
      "kért": 8089,
      "szezon": 8090,
      "helmint": 8091,
      "érett": 8092,
      "##tárg": 8093,
      "##tra": 8094,
      "Fog": 8095,
      "bút": 8096,
      "ves": 8097,
      "Vannak": 8098,
      "##ken": 8099,
      "##róf": 8100,
      "kikapcsol": 8101,
      "adatvédelmi": 8102,
      "párhuz": 8103,
      "magyarok": 8104,
      "nőtt": 8105,
      "olimp": 8106,
      "intézmények": 8107,
      "Ex": 8108,
      "könnyebb": 8109,
      "##esett": 8110,
      "##jav": 8111,
      "##usi": 8112,
      "média": 8113,
      "példa": 8114,
      "rendelés": 8115,
      "lámp": 8116,
      "Emellett": 8117,
      "##agan": 8118,
      "reggeli": 8119,
      "tiltak": 8120,
      "##iratkoz": 8121,
      "Imre": 8122,
      "##avart": 8123,
      "szek": 8124,
      "##imnázium": 8125,
      "bekezdése": 8126,
      "##asonl": 8127,
      "végső": 8128,
      "##atú": 8129,
      "eljut": 8130,
      "búcs": 8131,
      "kéne": 8132,
      "kizár": 8133,
      "##90": 8134,
      "változatos": 8135,
      "szoftver": 8136,
      "megalap": 8137,
      "mennyiségű": 8138,
      "##odat": 8139,
      "tájék": 8140,
      "megnyit": 8141,
      "##ilk": 8142,
      "##gazdaság": 8143,
      "napra": 8144,
      "##dély": 8145,
      "tuds": 8146,
      "jelenik": 8147,
      "adós": 8148,
      "##omba": 8149,
      "elfele": 8150,
      "##ezze": 8151,
      "élményt": 8152,
      "árny": 8153,
      "megbízható": 8154,
      "##állító": 8155,
      "laz": 8156,
      "határozott": 8157,
      "##cel": 8158,
      "tudsz": 8159,
      "története": 8160,
      "vezetett": 8161,
      "kommunikáció": 8162,
      "kapta": 8163,
      "biztosított": 8164,
      "létszám": 8165,
      "mindennapi": 8166,
      "##szövet": 8167,
      "##zelem": 8168,
      "##oid": 8169,
      "elkövet": 8170,
      "szál": 8171,
      "Ezután": 8172,
      "testvér": 8173,
      "Eur": 8174,
      "##játs": 8175,
      "##telefon": 8176,
      "pályázati": 8177,
      "népi": 8178,
      "##llát": 8179,
      "##legesen": 8180,
      "értelmében": 8181,
      "La": 8182,
      "##éseit": 8183,
      "##hettek": 8184,
      "##ogat": 8185,
      "Vissz": 8186,
      "korai": 8187,
      "##rajz": 8188,
      "forintos": 8189,
      "##ségeket": 8190,
      "látott": 8191,
      "átvétel": 8192,
      "kiemelkedő": 8193,
      "kötő": 8194,
      "heti": 8195,
      "graf": 8196,
      "##ater": 8197,
      "biztosító": 8198,
      "##embe": 8199,
      "biztosítani": 8200,
      "alternatív": 8201,
      "##álva": 8202,
      "ten": 8203,
      "román": 8204,
      "udvar": 8205,
      "tétel": 8206,
      "meccs": 8207,
      "mindegyik": 8208,
      "húsz": 8209,
      "##mát": 8210,
      "ned": 8211,
      "Egészség": 8212,
      "Aut": 8213,
      "Joh": 8214,
      "Társ": 8215,
      "##ancia": 8216,
      "időtartam": 8217,
      "u003": 8218,
      "##forrás": 8219,
      "bevétel": 8220,
      "##fejlesztési": 8221,
      "legalábbis": 8222,
      "webáruház": 8223,
      "megszabad": 8224,
      "címe": 8225,
      "til": 8226,
      "##mos": 8227,
      "legend": 8228,
      "tekintettel": 8229,
      "görög": 8230,
      "parancs": 8231,
      "szür": 8232,
      "látogatás": 8233,
      "szokásos": 8234,
      "##70": 8235,
      "##rog": 8236,
      "egyez": 8237,
      "kérdést": 8238,
      "kes": 8239,
      "##ini": 8240,
      "400": 8241,
      "##uni": 8242,
      "melléklet": 8243,
      "##ájára": 8244,
      "##barát": 8245,
      "bocsát": 8246,
      "értem": 8247,
      "tényező": 8248,
      "##puszt": 8249,
      "repülő": 8250,
      "##ségeit": 8251,
      "##kezik": 8252,
      "##tenni": 8253,
      "szabályozás": 8254,
      "Gyógy": 8255,
      "##zuk": 8256,
      "időre": 8257,
      "megszokott": 8258,
      "##jtemény": 8259,
      "alapú": 8260,
      "##lve": 8261,
      "kelt": 8262,
      "életében": 8263,
      "##ikó": 8264,
      "##rab": 8265,
      "##AD": 8266,
      "meglévő": 8267,
      "érintő": 8268,
      "vigy": 8269,
      "ch": 8270,
      "mozdul": 8271,
      "megd": 8272,
      "előfizet": 8273,
      "Tóth": 8274,
      "Cl": 8275,
      "márk": 8276,
      "##ozva": 8277,
      "##reg": 8278,
      "##ükben": 8279,
      "szerelem": 8280,
      "##aktérium": 8281,
      "##ows": 8282,
      "##üsp": 8283,
      "Ág": 8284,
      "##mad": 8285,
      "kerültek": 8286,
      "##nák": 8287,
      "levele": 8288,
      "kiegyen": 8289,
      "szerelm": 8290,
      "szeretném": 8291,
      "válassz": 8292,
      "email": 8293,
      "##csökkent": 8294,
      "kétség": 8295,
      "hip": 8296,
      "kapnak": 8297,
      "érkező": 8298,
      "##jától": 8299,
      "működését": 8300,
      "##ásai": 8301,
      "ismeretlen": 8302,
      "szik": 8303,
      "##öngy": 8304,
      "##zek": 8305,
      "lehetetlen": 8306,
      "##ásokra": 8307,
      "államtitk": 8308,
      "##dei": 8309,
      "Li": 8310,
      "Miután": 8311,
      "pol": 8312,
      "##velt": 8313,
      "##elv": 8314,
      "##OG": 8315,
      "csodálatos": 8316,
      "készítmény": 8317,
      "##olást": 8318,
      "##ccse": 8319,
      "Gyermek": 8320,
      "##zól": 8321,
      "gyalog": 8322,
      "díja": 8323,
      "Volt": 8324,
      "Fogy": 8325,
      "olvasható": 8326,
      "##kapcsol": 8327,
      "rendben": 8328,
      "##kar": 8329,
      "Béla": 8330,
      "szabadon": 8331,
      "##ábban": 8332,
      "mást": 8333,
      "osz": 8334,
      "##ásd": 8335,
      "Gyula": 8336,
      "##ulátor": 8337,
      "##omó": 8338,
      "##jesz": 8339,
      "végére": 8340,
      "írni": 8341,
      "##allg": 8342,
      "tál": 8343,
      "150": 8344,
      "vize": 8345,
      "##ításával": 8346,
      "Foly": 8347,
      "##donság": 8348,
      "világot": 8349,
      "rendszerek": 8350,
      "fent": 8351,
      "##ítettek": 8352,
      "Köszönöm": 8353,
      "elől": 8354,
      "##SÉG": 8355,
      "éreztem": 8356,
      "teny": 8357,
      "katonai": 8358,
      "fogják": 8359,
      "##ületen": 8360,
      "abba": 8361,
      "válság": 8362,
      "emiatt": 8363,
      "drám": 8364,
      "org": 8365,
      "szervezett": 8366,
      "megbeteg": 8367,
      "valahogy": 8368,
      "##zetett": 8369,
      "##zések": 8370,
      "##ree": 8371,
      "Sőt": 8372,
      "##helyet": 8373,
      "##állási": 8374,
      "fejlesztés": 8375,
      "kocs": 8376,
      "dön": 8377,
      "teher": 8378,
      "ugyanúgy": 8379,
      "fölött": 8380,
      "##ferencia": 8381,
      "vis": 8382,
      "##ulását": 8383,
      "tanult": 8384,
      "bejelen": 8385,
      "Például": 8386,
      "##essé": 8387,
      "tó": 8388,
      "##ziós": 8389,
      "kimond": 8390,
      "személyesen": 8391,
      "##ációja": 8392,
      "elégedett": 8393,
      "érzi": 8394,
      "##bet": 8395,
      "kel": 8396,
      "##akoribb": 8397,
      "közelebb": 8398,
      "piacon": 8399,
      "háztart": 8400,
      "Néz": 8401,
      "##40": 8402,
      "##dvöz": 8403,
      "Át": 8404,
      "közremű": 8405,
      "automatikusan": 8406,
      "##élte": 8407,
      "2003": 8408,
      "##követ": 8409,
      "fajta": 8410,
      "alapvetően": 8411,
      "##ozs": 8412,
      "##mir": 8413,
      "02": 8414,
      "##ítésre": 8415,
      "betölt": 8416,
      "##ulajdon": 8417,
      "legs": 8418,
      "##mán": 8419,
      "útm": 8420,
      "emészt": 8421,
      "##jába": 8422,
      "keleti": 8423,
      "Bi": 8424,
      "tanuló": 8425,
      "motiv": 8426,
      "ásvány": 8427,
      "##ipari": 8428,
      "élnek": 8429,
      "intell": 8430,
      "pénteken": 8431,
      "Any": 8432,
      "##lyes": 8433,
      "számtalan": 8434,
      "színek": 8435,
      "##ártya": 8436,
      "Man": 8437,
      "megjelenő": 8438,
      "foglalt": 8439,
      "##worm": 8440,
      "49": 8441,
      "megegy": 8442,
      "magatart": 8443,
      "Polg": 8444,
      "senk": 8445,
      "Ph": 8446,
      "##oknál": 8447,
      "karban": 8448,
      "előtte": 8449,
      "kedvező": 8450,
      "##oxid": 8451,
      "##set": 8452,
      "színű": 8453,
      "követelmény": 8454,
      "##itek": 8455,
      "ék": 8456,
      "##anyar": 8457,
      "betű": 8458,
      "állomány": 8459,
      "##helyen": 8460,
      "##inkat": 8461,
      "védelem": 8462,
      "közeli": 8463,
      "park": 8464,
      "##ségnek": 8465,
      "áldoz": 8466,
      "kezelt": 8467,
      "##eszte": 8468,
      "##lenek": 8469,
      "nyáron": 8470,
      "##csill": 8471,
      "##éria": 8472,
      "megfi": 8473,
      "részéről": 8474,
      "feletti": 8475,
      "magában": 8476,
      "dollár": 8477,
      "fogva": 8478,
      "rosszul": 8479,
      "##úny": 8480,
      "##ormon": 8481,
      "##ret": 8482,
      "fejezet": 8483,
      "szűk": 8484,
      "##képp": 8485,
      "##fény": 8486,
      "méh": 8487,
      "Tibor": 8488,
      "##itis": 8489,
      "##oy": 8490,
      "pin": 8491,
      "soroz": 8492,
      "furcs": 8493,
      "véget": 8494,
      "bánt": 8495,
      "##anapság": 8496,
      "múzeum": 8497,
      "##fer": 8498,
      "terén": 8499,
      "verzió": 8500,
      "##ájával": 8501,
      "rakt": 8502,
      "Jelenleg": 8503,
      "alapanyag": 8504,
      "##ísér": 8505,
      "látogatók": 8506,
      "innen": 8507,
      "írtam": 8508,
      "MSZ": 8509,
      "repül": 8510,
      "trans": 8511,
      "Ap": 8512,
      "##fesz": 8513,
      "emellett": 8514,
      "funkciók": 8515,
      "Kat": 8516,
      "értek": 8517,
      "##pedig": 8518,
      "jelenlét": 8519,
      "##sorozat": 8520,
      "törzs": 8521,
      "Ilyenkor": 8522,
      "##bél": 8523,
      "##ségre": 8524,
      "cit": 8525,
      "tudat": 8526,
      "##ica": 8527,
      "##emi": 8528,
      "##vező": 8529,
      "##ítse": 8530,
      "##alizmus": 8531,
      "kávé": 8532,
      "Sokan": 8533,
      "tűnt": 8534,
      "korszerű": 8535,
      "többnyire": 8536,
      "##ign": 8537,
      "következik": 8538,
      "dolgozott": 8539,
      "forgalmaz": 8540,
      "spanyol": 8541,
      "végző": 8542,
      "bekövet": 8543,
      "káv": 8544,
      "Budapesti": 8545,
      "mellet": 8546,
      "rab": 8547,
      "##éllyel": 8548,
      "37": 8549,
      "támogató": 8550,
      "##hivatal": 8551,
      "adomány": 8552,
      "##hiány": 8553,
      "harminc": 8554,
      "##zték": 8555,
      "hig": 8556,
      "szerkeszt": 8557,
      "programot": 8558,
      "##rát": 8559,
      "baleset": 8560,
      "kezdődött": 8561,
      "##netek": 8562,
      "##ásba": 8563,
      "##zög": 8564,
      "##letesen": 8565,
      "munkáltató": 8566,
      "55": 8567,
      "##ítettem": 8568,
      "konz": 8569,
      "elutas": 8570,
      "##DP": 8571,
      "Aján": 8572,
      "##ozását": 8573,
      "kombin": 8574,
      "körülbelül": 8575,
      "##őn": 8576,
      "Szép": 8577,
      "legmagas": 8578,
      "ábráz": 8579,
      "viselked": 8580,
      "maximum": 8581,
      "részén": 8582,
      "##ciós": 8583,
      "##köny": 8584,
      "Közép": 8585,
      "tudatjuk": 8586,
      "##ülek": 8587,
      "konferenci": 8588,
      "amin": 8589,
      "##ikusan": 8590,
      "##16": 8591,
      "alaposan": 8592,
      "többsége": 8593,
      "##évé": 8594,
      "fejlesztése": 8595,
      "##óba": 8596,
      "mondom": 8597,
      "kultúra": 8598,
      "sziv": 8599,
      "világbajnok": 8600,
      "körű": 8601,
      "##kő": 8602,
      "másfél": 8603,
      "mak": 8604,
      "##édia": 8605,
      "##tárgy": 8606,
      "folyamán": 8607,
      "Ezeket": 8608,
      "Erzs": 8609,
      "kényelmes": 8610,
      "katolikus": 8611,
      "##szk": 8612,
      "édesany": 8613,
      "##ényi": 8614,
      "jég": 8615,
      "komolyan": 8616,
      "##ipar": 8617,
      "##eszköz": 8618,
      "jelentőség": 8619,
      "lélek": 8620,
      "kezel": 8621,
      "dom": 8622,
      "szel": 8623,
      "korosztály": 8624,
      "merevedés": 8625,
      "főként": 8626,
      "látsz": 8627,
      "valah": 8628,
      "Gal": 8629,
      "amint": 8630,
      "##emen": 8631,
      "leggyakoribb": 8632,
      "##ood": 8633,
      "védett": 8634,
      "gr": 8635,
      "épült": 8636,
      "Három": 8637,
      "##burg": 8638,
      "eb": 8639,
      "hatású": 8640,
      "péntek": 8641,
      "figyelmét": 8642,
      "kamat": 8643,
      "Mindig": 8644,
      "tekintve": 8645,
      "átt": 8646,
      "profi": 8647,
      "##álóz": 8648,
      "rendkívüli": 8649,
      "szől": 8650,
      "##üd": 8651,
      "intézkedés": 8652,
      "ritkán": 8653,
      "miként": 8654,
      "03": 8655,
      "szeretnél": 8656,
      "##felvétel": 8657,
      "alkalmazás": 8658,
      "kifog": 8659,
      "05": 8660,
      "mechan": 8661,
      "Rák": 8662,
      "hozta": 8663,
      "##utal": 8664,
      "##osszú": 8665,
      "##atika": 8666,
      "török": 8667,
      "##élő": 8668,
      "##uzz": 8669,
      "fejlesz": 8670,
      "eszköze": 8671,
      "Akad": 8672,
      "étkez": 8673,
      "##őtlen": 8674,
      "leírt": 8675,
      "világos": 8676,
      "##astr": 8677,
      "mutató": 8678,
      "hete": 8679,
      "folyamatok": 8680,
      "alapító": 8681,
      "összefüggő": 8682,
      "vonatkozik": 8683,
      "##hatékony": 8684,
      "voltunk": 8685,
      "##cím": 8686,
      "##apasztal": 8687,
      "megállapod": 8688,
      "páros": 8689,
      "egyenlő": 8690,
      "##ight": 8691,
      "személyre": 8692,
      "weboldalon": 8693,
      "játszik": 8694,
      "tavalyi": 8695,
      "##ségű": 8696,
      "##ona": 8697,
      "megter": 8698,
      "legmagasabb": 8699,
      "Bizony": 8700,
      "születés": 8701,
      "művészet": 8702,
      "##kelys": 8703,
      "baktérium": 8704,
      "##ezzük": 8705,
      "évad": 8706,
      "intézkedések": 8707,
      "munkáját": 8708,
      "címet": 8709,
      "eszt": 8710,
      "felnőttek": 8711,
      "ször": 8712,
      "helyszínen": 8713,
      "munkanap": 8714,
      "47": 8715,
      "használatával": 8716,
      "ugy": 8717,
      "##pénz": 8718,
      "körbe": 8719,
      "##óként": 8720,
      "fizetni": 8721,
      "##szeres": 8722,
      "zsidó": 8723,
      "megterem": 8724,
      "##80": 8725,
      "melyeket": 8726,
      "erkö": 8727,
      "mostan": 8728,
      "fak": 8729,
      "Mad": 8730,
      "hozzánk": 8731,
      "pálya": 8732,
      "##millió": 8733,
      "##ságos": 8734,
      "süti": 8735,
      "kapcsolatok": 8736,
      "##17": 8737,
      "##telezett": 8738,
      "hamis": 8739,
      "husz": 8740,
      "technológia": 8741,
      "nyár": 8742,
      "hozza": 8743,
      "Közös": 8744,
      "##igazgatási": 8745,
      "írásban": 8746,
      "##helyi": 8747,
      "##zött": 8748,
      "munkaerő": 8749,
      "##izálás": 8750,
      "kiválasztott": 8751,
      "mellékhat": 8752,
      "75": 8753,
      "##attart": 8754,
      "nemrég": 8755,
      "Szabad": 8756,
      "életem": 8757,
      "##bra": 8758,
      "mág": 8759,
      "összefoglal": 8760,
      "képző": 8761,
      "koronavírus": 8762,
      "elszám": 8763,
      "téren": 8764,
      "diákok": 8765,
      "találni": 8766,
      "Eszt": 8767,
      "43": 8768,
      "tanús": 8769,
      "##ÉP": 8770,
      "rájuk": 8771,
      "utazás": 8772,
      "##köt": 8773,
      "##íthatja": 8774,
      "jók": 8775,
      "ellentét": 8776,
      "##level": 8777,
      "adnak": 8778,
      "##14": 8779,
      "##ésnek": 8780,
      "kivon": 8781,
      "##land": 8782,
      "##ászár": 8783,
      "római": 8784,
      "##ászok": 8785,
      "visszér": 8786,
      "##örög": 8787,
      "##nter": 8788,
      "mem": 8789,
      "##vebben": 8790,
      "##ned": 8791,
      "##agyulladás": 8792,
      "kibocsát": 8793,
      "##AB": 8794,
      "összegyű": 8795,
      "amellyel": 8796,
      "szokás": 8797,
      "hor": 8798,
      "dics": 8799,
      "mozog": 8800,
      "Bék": 8801,
      "küldött": 8802,
      "megkeres": 8803,
      "vacs": 8804,
      "##kl": 8805,
      "önmagában": 8806,
      "Emlék": 8807,
      "##ane": 8808,
      "kitart": 8809,
      "többé": 8810,
      "másrészt": 8811,
      "kattintva": 8812,
      "Élet": 8813,
      "##vetett": 8814,
      "07": 8815,
      "##ságok": 8816,
      "##itor": 8817,
      "##ekkora": 8818,
      "##század": 8819,
      "áttek": 8820,
      "elsőd": 8821,
      "##meneti": 8822,
      "potenci": 8823,
      "közelében": 8824,
      "onnan": 8825,
      "fokozott": 8826,
      "##hull": 8827,
      "férf": 8828,
      "##berg": 8829,
      "veszte": 8830,
      "kielég": 8831,
      "Tisztelt": 8832,
      "Ste": 8833,
      "karbantart": 8834,
      "termékeket": 8835,
      "##zást": 8836,
      "##oldali": 8837,
      "javasolt": 8838,
      "Szerencs": 8839,
      "tüdő": 8840,
      "évet": 8841,
      "##24": 8842,
      "##ónia": 8843,
      "méltó": 8844,
      "oldalt": 8845,
      "igazgatója": 8846,
      "##gő": 8847,
      "##atkozt": 8848,
      "Adatvédelmi": 8849,
      "CS": 8850,
      "kiadvány": 8851,
      "ismeret": 8852,
      "tetszett": 8853,
      "számukra": 8854,
      "##orna": 8855,
      "fejlesztési": 8856,
      "táplál": 8857,
      "támogatja": 8858,
      "körüli": 8859,
      "##művész": 8860,
      "##lege": 8861,
      "##15": 8862,
      "immár": 8863,
      "ügyfel": 8864,
      "fü": 8865,
      "NA": 8866,
      "193": 8867,
      "##szin": 8868,
      "##car": 8869,
      "Vásár": 8870,
      "##ózás": 8871,
      "újdonság": 8872,
      "##tess": 8873,
      "résztvevők": 8874,
      "ló": 8875,
      "##szert": 8876,
      "##éje": 8877,
      "sérülés": 8878,
      "véletlenül": 8879,
      "Koss": 8880,
      "Ebből": 8881,
      "villamos": 8882,
      "hajó": 8883,
      "só": 8884,
      "krónikus": 8885,
      "##shop": 8886,
      "##ködő": 8887,
      "szeretem": 8888,
      "eltelt": 8889,
      "gyár": 8890,
      "Szövetség": 8891,
      "szombaton": 8892,
      "##ítsd": 8893,
      "##inél": 8894,
      "##sejt": 8895,
      "Csaba": 8896,
      "ennyire": 8897,
      "környezetben": 8898,
      "##bl": 8899,
      "##ola": 8900,
      "##nevel": 8901,
      "##lések": 8902,
      "összehasonl": 8903,
      "konflik": 8904,
      "megmutat": 8905,
      "##endő": 8906,
      "##ota": 8907,
      "szag": 8908,
      "szórakozt": 8909,
      "sav": 8910,
      "Arany": 8911,
      "Kormány": 8912,
      "##osító": 8913,
      "közlemény": 8914,
      "##özés": 8915,
      "##öbben": 8916,
      "elengedhetetlen": 8917,
      "alacsonyabb": 8918,
      "lelkes": 8919,
      "man": 8920,
      "kezdte": 8921,
      "kerékpár": 8922,
      "teljesítés": 8923,
      "nyilatkozat": 8924,
      "csökkenti": 8925,
      "alapuló": 8926,
      "órát": 8927,
      "2001": 8928,
      "##obban": 8929,
      "egyesület": 8930,
      "##ekedett": 8931,
      "anélkül": 8932,
      "39": 8933,
      "városban": 8934,
      "##arch": 8935,
      "tág": 8936,
      "##áram": 8937,
      "migr": 8938,
      "szállod": 8939,
      "##olv": 8940,
      "statiszt": 8941,
      "órás": 8942,
      "telefonszám": 8943,
      "kaptak": 8944,
      "Minisztérium": 8945,
      "egyedülálló": 8946,
      "##out": 8947,
      "##esi": 8948,
      "kitölt": 8949,
      "maradék": 8950,
      "profil": 8951,
      "##ukban": 8952,
      "##adat": 8953,
      "idősebb": 8954,
      "Ád": 8955,
      "Ember": 8956,
      "Kossuth": 8957,
      "férg": 8958,
      "lehetőségeket": 8959,
      "előnye": 8960,
      "##becs": 8961,
      "felaján": 8962,
      "##ságának": 8963,
      "##fogó": 8964,
      "##ébet": 8965,
      "Fotó": 8966,
      "##60": 8967,
      "##edd": 8968,
      "##NK": 8969,
      "ezután": 8970,
      "##olland": 8971,
      "forduló": 8972,
      "nyaral": 8973,
      "Csal": 8974,
      "##fia": 8975,
      "##rág": 8976,
      "passz": 8977,
      "kereső": 8978,
      "fiók": 8979,
      "##ose": 8980,
      "Gu": 8981,
      "keresni": 8982,
      "##bér": 8983,
      "munkás": 8984,
      "##odra": 8985,
      "##ÜL": 8986,
      "ox": 8987,
      "mor": 8988,
      "##korú": 8989,
      "Jele": 8990,
      "##érdek": 8991,
      "melyben": 8992,
      "főszerep": 8993,
      "##ovjet": 8994,
      "##őknek": 8995,
      "KÖZ": 8996,
      "kirándul": 8997,
      "foglalkozik": 8998,
      "országok": 8999,
      "##ításában": 9000,
      "obj": 9001,
      "##étes": 9002,
      "adatot": 9003,
      "##atható": 9004,
      "gyenge": 9005,
      "##özött": 9006,
      "##US": 9007,
      "áldozat": 9008,
      "feje": 9009,
      "mindenkit": 9010,
      "##cselek": 9011,
      "életének": 9012,
      "Horváth": 9013,
      "tartalma": 9014,
      "egyike": 9015,
      "##irodalom": 9016,
      "gól": 9017,
      "##latok": 9018,
      "##eit": 9019,
      "##kert": 9020,
      "##lyenek": 9021,
      "életre": 9022,
      "dur": 9023,
      "rokon": 9024,
      "részvény": 9025,
      "##rik": 9026,
      "szabott": 9027,
      "##íróság": 9028,
      "kapható": 9029,
      "USA": 9030,
      "megye": 9031,
      "##term": 9032,
      "##gyűjt": 9033,
      "Inform": 9034,
      "##osta": 9035,
      "##vándor": 9036,
      "##okrá": 9037,
      "elfogadja": 9038,
      "##ügye": 9039,
      "véve": 9040,
      "##25": 9041,
      "sorban": 9042,
      "Lak": 9043,
      "##atási": 9044,
      "AL": 9045,
      "beszélni": 9046,
      "rendelkeznek": 9047,
      "minimum": 9048,
      "##gely": 9049,
      "változások": 9050,
      "Sim": 9051,
      "##szeg": 9052,
      "éjszaka": 9053,
      "##arkas": 9054,
      "vizsgálatok": 9055,
      "##ekbe": 9056,
      "elõ": 9057,
      "##vely": 9058,
      "##nének": 9059,
      "Egyébként": 9060,
      "##ményt": 9061,
      "kíváncsi": 9062,
      "vezetői": 9063,
      "számot": 9064,
      "nar": 9065,
      "kiszolg": 9066,
      "megszüntet": 9067,
      "árak": 9068,
      "fl": 9069,
      "##jei": 9070,
      "##üspök": 9071,
      "##olók": 9072,
      "lat": 9073,
      "##mint": 9074,
      "##örtön": 9075,
      "fizetés": 9076,
      "abszol": 9077,
      "Felt": 9078,
      "segítő": 9079,
      "kézzel": 9080,
      "futó": 9081,
      "régen": 9082,
      "azonosító": 9083,
      "##tud": 9084,
      "##oktatási": 9085,
      "szop": 9086,
      "blok": 9087,
      "Pro": 9088,
      "##úzt": 9089,
      "mindenféle": 9090,
      "sör": 9091,
      "##atva": 9092,
      "##idebb": 9093,
      "##oma": 9094,
      "évfolyam": 9095,
      "elj": 9096,
      "ri": 9097,
      "##ellenes": 9098,
      "fontosabb": 9099,
      "Szil": 9100,
      "We": 9101,
      "kapac": 9102,
      "teremt": 9103,
      "négyzet": 9104,
      "##cskem": 9105,
      "bizonytalan": 9106,
      "útvonal": 9107,
      "plat": 9108,
      "megbesz": 9109,
      "kérdések": 9110,
      "legsze": 9111,
      "##idejű": 9112,
      "##tori": 9113,
      "szombat": 9114,
      "##ménnyel": 9115,
      "##ale": 9116,
      "Ért": 9117,
      "##émiai": 9118,
      "Használ": 9119,
      "trend": 9120,
      "transz": 9121,
      "##ncse": 9122,
      "XI": 9123,
      "nyers": 9124,
      "napokban": 9125,
      "évforduló": 9126,
      "dátum": 9127,
      "##szob": 9128,
      "parad": 9129,
      "szálloda": 9130,
      "jövedelem": 9131,
      "foglalkozó": 9132,
      "ráj": 9133,
      "##asd": 9134,
      "előírt": 9135,
      "04": 9136,
      "##beszer": 9137,
      "akike": 9138,
      "értelemben": 9139,
      "Érdemes": 9140,
      "IP": 9141,
      "japán": 9142,
      "alkalmával": 9143,
      "rendelkezésére": 9144,
      "Test": 9145,
      "##ossá": 9146,
      "testi": 9147,
      "Francia": 9148,
      "átlát": 9149,
      "éles": 9150,
      "Gondol": 9151,
      "Cél": 9152,
      "kialakult": 9153,
      "megfigye": 9154,
      "fia": 9155,
      "##ps": 9156,
      "partnere": 9157,
      "##led": 9158,
      "szoba": 9159,
      "könyvet": 9160,
      "percig": 9161,
      "het": 9162,
      "szakértő": 9163,
      "##MI": 9164,
      "beleértve": 9165,
      "vásárol": 9166,
      "vonatkozóan": 9167,
      "lakos": 9168,
      "költségvetési": 9169,
      "köszönt": 9170,
      "felek": 9171,
      "terhesség": 9172,
      "hozzát": 9173,
      "nyelvű": 9174,
      "büntet": 9175,
      "adatbázis": 9176,
      "nagyszerű": 9177,
      "##erület": 9178,
      "nemi": 9179,
      "##tartó": 9180,
      "vállalkozások": 9181,
      "alapja": 9182,
      "XX": 9183,
      "beér": 9184,
      "mentén": 9185,
      "tanulók": 9186,
      "irányuló": 9187,
      "végleges": 9188,
      "##rot": 9189,
      "lő": 9190,
      "férj": 9191,
      "hátsó": 9192,
      "hormon": 9193,
      "optim": 9194,
      "##csal": 9195,
      "kiterjed": 9196,
      "rádió": 9197,
      "interjú": 9198,
      "anya": 9199,
      "interneten": 9200,
      "Haj": 9201,
      "##astély": 9202,
      "##háza": 9203,
      "Con": 9204,
      "alkotó": 9205,
      "Szé": 9206,
      "##rajzi": 9207,
      "GY": 9208,
      "##vezetés": 9209,
      "Erzsébet": 9210,
      "polgári": 9211,
      "utcai": 9212,
      "Pi": 9213,
      "klin": 9214,
      "helyét": 9215,
      "IN": 9216,
      "beáll": 9217,
      "színe": 9218,
      "bonyolult": 9219,
      "##odó": 9220,
      "##udit": 9221,
      "osztrák": 9222,
      "érdeklődő": 9223,
      "##ulhat": 9224,
      "eléggé": 9225,
      "ízület": 9226,
      "ezüst": 9227,
      "tartomány": 9228,
      "elterjed": 9229,
      "egyrészt": 9230,
      "Akár": 9231,
      "Str": 9232,
      "tize": 9233,
      "hatást": 9234,
      "##üveg": 9235,
      "hiányában": 9236,
      "##csat": 9237,
      "versenyző": 9238,
      "imp": 9239,
      "gyull": 9240,
      "Önt": 9241,
      "garanci": 9242,
      "Azon": 9243,
      "isten": 9244,
      "##kelysömör": 9245,
      "top": 9246,
      "mára": 9247,
      "éneke": 9248,
      "fős": 9249,
      "strand": 9250,
      "köszönöm": 9251,
      "##13": 9252,
      "##eráp": 9253,
      "##iszter": 9254,
      "akiket": 9255,
      "Ját": 9256,
      "rosszabb": 9257,
      "igazol": 9258,
      "##közelebb": 9259,
      "##teget": 9260,
      "##erceg": 9261,
      "események": 9262,
      "ránk": 9263,
      "##ceni": 9264,
      "##lenes": 9265,
      "##ikon": 9266,
      "feleség": 9267,
      "##ys": 9268,
      "pihe": 9269,
      "kaps": 9270,
      "190": 9271,
      "##növény": 9272,
      "mosoly": 9273,
      "legkisebb": 9274,
      "##ítsuk": 9275,
      "##eztük": 9276,
      "megköt": 9277,
      "##szög": 9278,
      "##esebben": 9279,
      "hibát": 9280,
      "##arak": 9281,
      "kapsz": 9282,
      "egyén": 9283,
      "rendőrség": 9284,
      "különböz": 9285,
      "globális": 9286,
      "##okk": 9287,
      "drága": 9288,
      "megfizet": 9289,
      "alkotmány": 9290,
      "##asszal": 9291,
      "világháború": 9292,
      "bátor": 9293,
      "kislány": 9294,
      "normál": 9295,
      "tem": 9296,
      "páp": 9297,
      "Kult": 9298,
      "őszi": 9299,
      "természeti": 9300,
      "belv": 9301,
      "ellátott": 9302,
      "célra": 9303,
      "felszín": 9304,
      "koncepció": 9305,
      "##igen": 9306,
      "kezdeményezés": 9307,
      "emelked": 9308,
      "szimp": 9309,
      "híd": 9310,
      "Haz": 9311,
      "végéig": 9312,
      "sűrű": 9313,
      "vicc": 9314,
      "##ili": 9315,
      "úgyhogy": 9316,
      "##iszta": 9317,
      "sajtót": 9318,
      "Nos": 9319,
      "felejt": 9320,
      "vall": 9321,
      "Ah": 9322,
      "##lla": 9323,
      "magával": 9324,
      "nyelven": 9325,
      "gon": 9326,
      "##hetősen": 9327,
      "##edni": 9328,
      "mérete": 9329,
      "érzelmi": 9330,
      "##mes": 9331,
      "képerny": 9332,
      "tájékoz": 9333,
      "feled": 9334,
      "találkozt": 9335,
      "áttekint": 9336,
      "##váltás": 9337,
      "források": 9338,
      "megkönny": 9339,
      "nyilvános": 9340,
      "##szolgál": 9341,
      "összetevő": 9342,
      "##vál": 9343,
      "##ÉT": 9344,
      "ritka": 9345,
      "elemzés": 9346,
      "segítenek": 9347,
      "##ÁNY": 9348,
      "hatósági": 9349,
      "##arúg": 9350,
      "illetékes": 9351,
      "párhuzam": 9352,
      "álláspont": 9353,
      "megszól": 9354,
      "##ednek": 9355,
      "lettek": 9356,
      "televí": 9357,
      "diagnoszt": 9358,
      "56": 9359,
      "ügye": 9360,
      "leány": 9361,
      "GDP": 9362,
      "futam": 9363,
      "építő": 9364,
      "minősül": 9365,
      "Fele": 9366,
      "##lang": 9367,
      "legfőbb": 9368,
      "2002": 9369,
      "árnyék": 9370,
      "##állítása": 9371,
      "amelyik": 9372,
      "##alommal": 9373,
      "jönnek": 9374,
      "Vesz": 9375,
      "gumi": 9376,
      "társas": 9377,
      "dagan": 9378,
      "ellátás": 9379,
      "fogalmaz": 9380,
      "bennem": 9381,
      "Annak": 9382,
      "tanév": 9383,
      "iv": 9384,
      "helyén": 9385,
      "biztosítása": 9386,
      "##atra": 9387,
      "##hegy": 9388,
      "hétfőn": 9389,
      "hozni": 9390,
      "album": 9391,
      "következmény": 9392,
      "utóbb": 9393,
      "##alit": 9394,
      "##úsz": 9395,
      "feladatokat": 9396,
      "beszámoló": 9397,
      "nézni": 9398,
      "kincs": 9399,
      "bolyg": 9400,
      "hajlandó": 9401,
      "olcsó": 9402,
      "65": 9403,
      "minimális": 9404,
      "projek": 9405,
      "Wind": 9406,
      "találtam": 9407,
      "##000": 9408,
      "esküvő": 9409,
      "kihasznál": 9410,
      "üres": 9411,
      "prakt": 9412,
      "##yárt": 9413,
      "Forrás": 9414,
      "déli": 9415,
      "##takar": 9416,
      "pop": 9417,
      "alkalmazható": 9418,
      "Idén": 9419,
      "asz": 9420,
      "gyomor": 9421,
      "##kát": 9422,
      "könnyedén": 9423,
      "lennie": 9424,
      "másodperc": 9425,
      "erősebb": 9426,
      "1000": 9427,
      "##asztott": 9428,
      "parlamenti": 9429,
      "Arra": 9430,
      "##bolt": 9431,
      "##rol": 9432,
      "##álok": 9433,
      "látta": 9434,
      "York": 9435,
      "felelősséget": 9436,
      "elny": 9437,
      "##rier": 9438,
      "Egyház": 9439,
      "##örténeti": 9440,
      "##uty": 9441,
      "köszö": 9442,
      "elme": 9443,
      "napjaink": 9444,
      "használunk": 9445,
      "Weboldal": 9446,
      "hallgatók": 9447,
      "trag": 9448,
      "##lé": 9449,
      "##llal": 9450,
      "odaf": 9451,
      "ügyfele": 9452,
      "művészeti": 9453,
      "keresked": 9454,
      "##viteli": 9455,
      "##lue": 9456,
      "legszebb": 9457,
      "eredetű": 9458,
      "##oldalú": 9459,
      "izm": 9460,
      "pontot": 9461,
      "aláír": 9462,
      "##itu": 9463,
      "##adását": 9464,
      "##vizsgálat": 9465,
      "##vének": 9466,
      "##mik": 9467,
      "zuh": 9468,
      "Győr": 9469,
      "időtartama": 9470,
      "énekes": 9471,
      "fennáll": 9472,
      "##tettel": 9473,
      "##ztek": 9474,
      "divat": 9475,
      "##költ": 9476,
      "Anna": 9477,
      "tojás": 9478,
      "temetőben": 9479,
      "##nyug": 9480,
      "nyomás": 9481,
      "extra": 9482,
      "kettős": 9483,
      "méreg": 9484,
      "##ükre": 9485,
[...]
