[PAD]
[UNK]
[CLS]
[SEP]
[MASK]
[unused1]
[unused2]
[unused3]
[unused4]
[unused5]
[unused6]
[unused7]
[unused8]
[unused9]
[unused10]
[unused11]
[unused12]
[unused13]
[unused14]
[unused15]
[unused16]
[unused17]
[unused18]
[unused19]
[unused20]
<s>
</s>
<pad>
<unk>
<cls>
<sep>
<mask>
!
"
#
$
%
&
'
(
)
*
+
,
-
.
/
0
1
2
3
4
5
6
7
8
9
:
;
<
=
>
?
@
A
B
C
D
E
F
G
H
I
J
K
L
M
N
O
P
Q
R
S
T
U
V
W
X
Y
Z
[
\
]
^
_
`
a
b
c
d
e
f
g
h
i
j
k
l
m
n
o
p
q
r
s
t
u
v
w
x
y
z
{
|
}
~
¡
¢
£
¤
¥
¦
§
¨
ª
«
¬
®
¯
°
±
²
³
´
µ
¶
·
¸
¹
º
»
¼
½
¾
¿
À
Á
Â
Ã
Ä
Å
Æ
Ç
È
É
Ê
Ë
Ì
Í
Î
Ï
Ð
Ñ
Ò
Ó
Ô
Õ
Ö
×
Ø
Ù
Ú
Û
Ü
Ý
Þ
ß
à
á
â
ã
ä
å
æ
ç
è
é
ê
ë
ì
í
î
ï
ð
ñ
ò
ó
ô
õ
ö
÷
ø
ù
ú
û
ü
ý
þ
ÿ
Ā
ā
Ă
ă
Ą
ą
Ć
ć
ĉ
Č
č
Ď
ď
Đ
đ
Ē
ē
Ĕ
ĕ
Ė
ė
Ę
ę
Ě
ě
ĝ
ğ
Ġ
ġ
Ħ
ħ
Ī
ī
Ĭ
ĭ
İ
ı
ĳ
ķ
Ĺ
ĺ
Ľ
ľ
Ł
ł
Ń
ń
ņ
ň
ŋ
Ō
ō
Ŏ
ŏ
Ő
ő
Œ
œ
ŕ
Ř
ř
Ś
ś
ŝ
Ş
ş
Š
š
Ţ
ţ
Ť
ť
ũ
Ū
ū
Ŭ
ŭ
ů
Ű
ű
ų
Ÿ
Ź
ź
Ż
ż
Ž
ž
ſ
ƒ
ơ
ư
ǀ
ǎ
ǐ
ǔ
ǝ
ǧ
Ș
ș
Ț
ț
ȧ
ɐ
ɑ
ɒ
ɔ
ə
ɛ
ɜ
ɟ
ɣ
ɩ
ɪ
ɫ
ɲ
ɹ
ɾ
ʃ
ʊ
ʌ
ʎ
ʒ
ʝ
ʧ
ʰ
ʲ
ʷ
ʺ
ʻ
ʼ
ʾ
ʿ
˃
ˆ
ˇ
ˈ
ˉ
ˊ
ˌ
ː
ˑ
˗
˘
˙
˚
˛
˜
˝
ˮ
̀
́
̂
̃
̄
̈
̊
̋
̌
̡
̣
̥
̩
̮
̯
̲
̵
̶
̿
͜
͡
;
Α
Β
Γ
Δ
Ε
Ζ
Η
Θ
Ι
Κ
Λ
Μ
Ν
Ξ
Ο
Π
Ρ
Σ
Τ
Υ
Φ
Χ
Ψ
Ω
ά
έ
ή
ί
α
β
γ
δ
ε
ζ
η
θ
ι
κ
λ
μ
ν
ξ
ο
π
ρ
ς
σ
τ
υ
φ
χ
ψ
ω
ό
ύ
ώ
ϑ
ϕ
ϟ
ϱ
І
Ј
Ў
А
Б
В
Г
Д
Е
Ж
З
И
К
Л
М
Н
О
П
Р
С
Т
У
Ф
Х
Ц
Ч
Ш
Щ
Э
Ю
Я
а
б
в
г
д
е
ж
з
и
й
к
л
м
н
о
п
р
с
т
у
ф
х
ц
ч
ш
щ
ъ
ы
ь
э
ю
я
ё
є
і
ї
ј
љ
њ
ћ
қ
ӓ
ӧ
ө
ա
ְ
ֲ
ִ
ֵ
ֶ
ַ
ָ
ֹ
ּ
ׁ
א
ב
ג
ד
ה
ו
ז
ח
ט
י
ך
כ
ל
ם
מ
ן
נ
ס
ע
פ
צ
ק
ר
ש
ת
،
ا
ب
ة
ت
ج
ح
د
ر
س
ع
ق
ك
ل
م
ن
ه
و
ي
َ
क
त
म
र
ा
ि
्
า
ღ
᠍
ᴪ
ḍ
ḥ
ṁ
ṃ
ṅ
ṇ
Ṛ
ṛ
ṣ
Ṭ
ṭ
ạ
ả
ἀ
ἄ
ἐ
ἔ
ἰ
ὁ
ὄ
ὐ
ὰ
ά
έ
ὴ
ή
ὶ
ί
ὸ
ό
ύ
ῆ
ῖ
ῦ
ῶ
‐
‑
‒
–
—
―
‖
‘
’
‚
‛
“
”
„
‟
†
‡
•
‣
…
‧
‰
′
″
‹
›
‼
⁃
⁄
⁉
⁰
⁴
⁵
₁
₂
€
⃣
⃰
℃
ℓ
№
ℝ
™
Ω
ℹ
⅓
⅔
←
↑
→
↓
↔
↩
↺
⇒
⇓
⇔
⇨
⇩
⇾
∀
∂
∃
∅
∆
∈
∑
−
∗
∘
∙
√
∞
∣
∧
∨
∩
∪
∫
∼
≈
≠
≡
≤
≥
≫
⊆
⊗
⊙
⋅
〈
〉
⏩
⏰
Ⓡ
─
│
═
╱
▀
▂
▄
█
■
□
▪
▫
▬
▲
▶
▷
▸
►
▼
▾
◄
◆
◊
○
●
◦
◼
◾
☀
★
☆
☎
☐
☑
☕
☛
☝
☞
☹
☺
☻
☼
♀
♂
♔
♕
♠
♡
♣
♥
♦
♨
♪
♫
⚕
⚠
⚡
⚽
⛔
✅
✈
✌
✍
✓
✔
✖
✘
✝
✡
✦
✨
✶
✿
❀
❄
❌
❓
❖
❗
❣
❤
❧
❶
❷
➖
➙
➜
➠
➡
➢
➤
➽
⠀
⦁
⬇
⭐
ⲁ
、
《
》
「
」
【
】
い
き
し
の
り
ん
イ
ス
ツ
ト
ル
ン
・
ー
一
三
不
世
中
之
二
五
人
佛
八
公
六
功
北
十
善
四
国
地
大
天
太
如
子
少
山
心
拳
日
書
有
本
正
武
氣
法
無
生
神
經
艖
茶
菩
行
道
金
ﬀ
ﬁ
ﬂ
ﬅ
︎
️
（
）
，
｜
￼
🇪
🇭
🇺
🌞
🌡
🌱
🌳
🌷
🌸
🌺
🌿
🍀
🍆
🍌
🍷
🍽
🎁
🎄
🎉
🎧
🎬
🎸
🏃
🏆
🏥
🏻
🏼
🐱
🐶
🐾
👀
👇
👈
👉
👋
👌
👍
👏
👨
👩
👶
💀
💉
💊
💋
💔
💕
💖
💗
💙
💚
💜
💝
💞
💡
💥
💪
💰
📌
📖
📢
🔊
🔞
🔥
🔴
🔸
🔹
😀
😁
😂
😃
😄
😅
😆
😇
😈
😉
😊
😋
😌
😍
😎
😏
😐
😒
😔
😕
😘
😛
😜
😝
😞
😠
😡
😢
😥
😦
😨
😬
😭
😮
😯
😱
😲
😳
😷
🙁
🙂
🙃
🙄
🙈
🙌
🙏
🚴
🟠
🟢
🤓
🤔
🤗
🤘
🤞
🤣
🤩
🤪
🤫
🤭
🤷
🥇
🥬
🥰
🥳
🦄
🧚
##o
##u
##l
##c
##k
##a
##r
##á
##í
##s
##d
##e
##y
##v
##b
##t
##i
##g
##n
##z
##é
##p
##ő
##ó
##m
##O
##ü
##j
##ö
##h
##ú
##f
##0
##4
##2
##1
##9
##G
##x
##ű
##Y
##Í
##R
##A
##C
##S
##Á
##D
##T
##8
##B
##U
##5
##6
##X
##w
##F
##3
##L
##M
##õ
##Q
##ô
##Z
##Ő
##N
##E
##I
##H
##K
##Ü
##P
##7
##Å
##J
##V
##W
##û
##š
##∈
##q
##̋
##́
##🙈
##É
##è
##ı
##Ö
##à
##ï
##Ă
##ľ
##Ú
##Ó
##λ
##ο
##ι
##φ
##ή
##ä
##¬
##ž
##ʌ
##ʃ
##ə
##¸
##ñ
##р
##о
##м
##а
##д
##я
##н
##и
##т
##ь
##ē
##ń
##®
##у
##в
##Ĺ
##☺
##️
##â
##ş
##€
##ý
##Õ
##Ą
##ł
##˝
##Ÿ
##̈
##×
##😁
##Œ
##±
##Ä
##ī
##Ű
##е
##ш
##Š
##ų
##л
##ê
##æ
##÷
##Ã
##►
##ſ
##ć
##ì
##ë
##η
##γ
##▪
##ś
##ы
##к
##ť
##ε
##σ
##μ
##˛
##î
##¹
##å
##´
##−
##б
##ā
##→
##ц
##拳
##十
##六
##功
##ò
##з
##ъ
##Û
##ț
##À
##ō
##م
##ą
##œ
##Ô
##ș
##˙
##ß
##č
##İ
##ù
##ď
##ż
##£
##س
##ي
##ل
##ṣ
##™
##°
##∙
##ŭ
##ј
##α
##κ
##ρ
##υ
##ū
##ç
##👍
##ę
##ж
##ź
##ğ
##ḥ
##ю
##ǝ
##🙏
##ὐ
##ό
##ς
##ч
##с
##Â
##ø
##Ť
##ṛ
##ṭ
##ě
##Ω
##😉
##🦄
##≈
##ė
##ř
##ּ
##ְ
##פ
##ִ
##י
##ו
##Ě
##ћ
##ĳ
##ф
##Ś
##ň
##є
##ţ
##😂
##π
##ί
##Ø
##国
##大
##¤
##β
##ν
##💔
##ﬁ
##⃣
##ɪ
##─
##ˇ
##і
##ă
##ː
##ﬅ
##ã
##イ
##⋅
##ˑ
##Æ
##ĕ
##й
##²
##µ
##щ
##п
##ơ
##đ
##ů
##³
##❤
##Ā
##ˆ
##ņ
##し
##ﬀ
##Ľ
##º
##🤣
##😄
##ί
##τ
##ω
##њ
##נ
##א
##ŝ
##🙂
##∩
##ŕ
##ɛ
##δ
##˗
##г
##Р
##Е
##З
##Н
##Т
##А
##Ц
##И
##Ј
##У
##ÿ
##Ŭ
##х
##ˈ
##🏻
##℃
##ά
##̩
##Ψ
##∑
##♂
##🚴
##♀
##¼
##😲
##⁄
##ʲ
##人
##ɔ
##ð
##˘
##ˌ
##า
##Д
##К
##ῶ
##љ
##̃
##ǔ
##ӧ
##Ł
##✌
##😘
##ʰ
##Ž
##Ź
##≤
##έ
##ĝ
##¥
##😃
##þ
##С
##🙃
##ん
##の
##Ē
##В
##Ш
##ἰ
##ŋ
##ָ
##ר
##ם
##ό
##χ
##ζ
##ħ
##😋
##Ř
##💕
##♥
##■
##Î
##╱
##ל
##ή
##θ
##È
##ב
##ֵ
##︎
##Ý
##↩
##ǎ
##😕
##қ
##Ρ
##Ç
##山
##地
##生
##Δ
##い
##ー
##✔
##Ì
##र
##ि
##्
##̣
##Ê
##מ
##¢
##🇺
##ώ
##¨
##≡
##ξ
##ύ
##¦
##Ħ
##ʊ
##̥
##❗
##ª
##￼
##ɾ
##ṅ
##ן
##≥
##●
##Č
##無
##ũ
##🎉
##✈
##ṇ
##日
##☆
##😊
##≠
##Ж
##П
##Ω
##⇒
##Ę
##Ю
##🤔
##̶
##ק
##ַ
##ח
##✓
##Х
##М
##⚡
##😅
##ʧ
##ש
##و
##少
##˜
##🤗
##💞
##✅
##̯
##👌
##💚
##😯
##神
##͡
##̲
##👏
##🏼
##Ć
##🔸
##√
##ˮ
##🐾
##Ĕ
##Я
##😇
##り
##佛
##¾
##ϑ
##道
##Θ
##ɒ
##Π
##Α
##Ο
##Σ
##ה
##ז
##כ
##😀
##茶
##ト
##ン
##😝
##Ù
##Ī
##ġ
##ḍ
##ر
##ك
##ﬂ
##ʺ
##ṁ
##中
##本
##心
##ṃ
##Ō
##💪
##子
##🌿
##🌱
##♡
##क
##👀
##⊙
##⭐
##ा
##🌞
##✡
##👶
##⊆
##💙
##😢
##ʾ
##̀
##ֹ
##ת
##ד
##ך
##ℓ
##˚
##э
##О
##ة
##😎
##ϟ
##│
##Г
##ά
##❓
##ǐ
##🐶
##😷
##☀
##ֲ
##⁰
##ё
##ї
##Đ
##😍
##ĭ
##不
##ׁ
##ע
##↑
##ʼ
##ֶ
##½
##ǧ
##□
##五
##🤷
##Б
##Ţ
##💖
##ŏ
##ن
##ȧ
##★
##◄
##🏆
##ƒ
##ʎ
##₂
##म
##🎄
##∫
##💗
##ψ
##צ
##🤭
##太
##💋
##👩
##त
##艖
##Ў
##ʿ
##◆
##ա
##∘
##ῦ
##ĺ
##💜
##ө
##ق
##菩
##♫
##♪
##♦
##一
##之
##有
##▼
##Ι
##🧚
##Ф
##⦁
##Ò
##∅
##Л
##∼
##Φ
##ג
##👨
##✖
##ӓ
##∣
##ĉ
##▀
##ب
##ا
##👉
##😆
##🏃
##😭
##ῖ
##ὶ
##🥰
##Ë
##ɹ
##∗
##💥
##氣
##̌
##Ï
##↔
##̂
##Υ
##Κ
##Ε
##Τ
##🙌
##🤞
##❄
##😜
##➖
##💉
##◾
##έ
##ʷ
##⬇
##█
##ʻ
##Ñ
##∂
##ح
##↓
##Ń
##Ŏ
##Γ
##♠
##♣
##∀
##⁵
##І
##ķ
##▶
##⚠
##😱
##🌷
##Ż
##َ
##き
##😌
##∞
##二
##ῆ
##😔
##ϕ
##🙁
##ɜ
##🇭
##Ð
##←
##Þ
##✨
##ه
##∪
##🍆
##ὸ
##如
##ϱ
##Ν
##Ζ
##法
##🙄
##😥
##̊
##🍀
##ύ
##😡
##ɐ
##經
##Ț
##¯
##ル
##Ş
##❣
##ɑ
##武
##🍷
##▲
##▸
##Ď
##😠
##🎁
##⁴
##Ĭ
##😬
##💝
##ư
##∆
##ℝ
##ツ
##◊
##ạ
##⛔
##ʒ
##ت
##▄
##正
##😞
##ὁ
##😈
##🍽
##🤩
##🌳
##ɩ
##☕
##ả
##🥇
##▬
##Ū
##😏
##ט
##◦
##Χ
##Μ
##Β
##⚽
##🐱
##ס
##̡
##∃
##ɲ
##善
##̮
##行
##🤓
##̄
##ˊ
##د
##天
##ˉ
##🌸
##Э
##⠀
##❀
##｜
##➡
##ɣ
##⇔
##≫
##🎸
##ج
##Λ
##Η
##ع
##☝
##🔥
##Ș
##🥳
##☛
##○
##🔞
##👋
##💰
##☹
##👇
##三
##🍌
##ス
##😳
##😮
##☎
##₁
##ὴ
##世
##😛
##書
##🤫
##Ч
##☻
##🥬
##▾
##№
##ɫ
##公
##Ṭ
##🤪
##ⲁ
##😨
##🌺
##北
##四
##ὄ
##∧
##ἐ
##Щ
##ɟ
##ʝ
##⚕
##八
##🔊
##💡
##⅓
##ℹ
##⃰
##📢
##═
##⊗
##🤘
##⏰
##Ė
##🇪
##💊
##金
##❌
##🎬
##☼
##⇨
##▫
##✍
##✿
##♨
##̵
##❧
##ღ
##👈
##😐
##🎧
##➢
##ὰ
##∨
##♕
##♔
##ἄ
##Ⓡ
##⅔
##📌
##🌡
##➤
##Ξ
##↺
##➜
##💀
##✝
##😦
##😒
##🔹
##🏥
##➠
##◼
##✘
##☑
##˃
##📖
##͜
##ἔ
##☞
##➙
##🔴
##✶
##❶
##⏩
##ἀ
##🟢
##⇓
##🟠
##❖
##▂
##⇩
##▷
##ǀ
##☐
##Ġ
##Ṛ
##✦
##➽
##᠍
##̿
##❷
##at
##er
##an
##ek
##al
##le
##ás
##te
##és
sz
##eg
az
##on
##ak
##tt
##es
##ál
##ár
##in
##ol
##or
##em
##ny
##og
##ok
##ag
és
##ég
##ez
##os
##ik
##ar
el
##ér
##is
meg
##zt
##ly
##as
##bb
eg
##án
##ít
##át
##oz
egy
##be
##ogy
##ap
##ze
##ve
is
##agy
##nk
##ül
kö
hogy
##ni
##om
##ék
fe
##re
##ség
##ág
##ban
##ben
##de
##it
##ad
##he
##nt
##ll
nem
##am
##cs
##lt
##ét
##nek
##ott
##ól
##ény
cs
##ele
##ja
ki
min
le
##ed
##ra
##él
be
##ig
##ép
##het
##me
##ul
##ák
##us
##nak
##az
##aj
fel
al
##let
##ai
szer
##zer
##se
##unk
##ány
##eze
##ám
##ész
##hat
##én
##ot
ak
ér
##nd
tö
##ci
gy
##ől
##ut
##int
##art
Az
##ság
##áz
##olt
##lő
##il
##od
##szer
##uk
te
##esz
##ud
köz
##ont
##ált
##ke
vagy
re
##mi
##tet
me
ke
##len
##ük
##asz
ad
##kö
leg
##ért
##ne
##eke
ez
ter
##ab
##áll
ny
val
##lye
##iz
##ók
de
##ön
mi
##dő
##00
##val
##atás
##ond
##vel
##ert
##ünk
##ív
##rt
##zet
##tel
nagy
##alm
elő
##áj
##ése
he
##olg
##nál
van
##ítás
##vet
tud
##att
##ább
##kor
volt
ut
lehet
##ában
ker
áll
már
##ző
##ód
szám
##mény
##ezet
##eket
##av
##ge
##ss
##okat
##ye
##ber
##orm
##ára
##tett
csak
##ében
##ba
##kez
##ött
minde
év
##aszt
##ov
##ály
##ére
##ta
am
pr
mag
##ció
##koz
##oly
##hoz
##je
##tem
még
ha
kap
##leg
jele
##ély
##ír
szem
##ony
tart
kell
em
##tes
Sz
##lés
##ese
20
##um
más
##ld
es
##éz
##nny
##dés
##ur
ame
##ök
##isz
##est
ne
##ént
mint
fog
##ból
több
##agyar
##egy
##ső
##ható
szere
ig
kép
##vé
##ir
##zés
##lyen
##ör
kül
azt
vég
##obb
##asznál
##ása
##lle
##ató
hely
##ng
öss
##ia
##kal
##óg
##sége
sem
rend
##ának
nap
##ós
##id
##ti
##ület
át
##ást
##ors
##ten
##pe
ese
amely
##hez
minden
##ális
##zág
##del
alap
##ult
Ez
új
##ült
##ról
##juk
ar
##ajd
##va
mű
##hető
er
##iss
##iszt
##ozz
##zel
##fe
##abb
##ával
##éke
idő
eset
oly
##öv
Eg
##ere
##ján
##ort
##ob
##ják
201
##zi
akkor
bi
##lj
for
mind
##atok
tal
##ének
munk
##ani
tan
valam
##áció
ami
##zen
##ch
##ozt
##ikus
##ítés
##im
##ád
hat
##op
lát
sok
olyan
han
kör
##árt
kor
##ost
vál
##ltal
##ős
##ót
##ket
##szt
##ín
##eszt
hi
##tele
##ők
ember
##jt
ve
term
íg
alk
##old
in
##edig
rész
szerint
##ilág
##éle
után
##ém
##csol
##lv
##esen
##üg
or
##ások
##ről
jog
##teg
##ított
##na
##ös
##árs
így
##and
kér
kész
##ovább
##ass
azon
érd
##almaz
##ug
tört
által
##oss
követ
szak
Egy
##li
bizt
##ri
##issz
pedig
ren
két
mert
##sen
telj
foly
sor
külön
jó
ah
##kel
##vez
lesz
ép
kis
##ási
##ink
jelent
##ontos
##ce
##áros
19
##ikor
##ből
##atos
##íz
né
első
Ha
##ével
##tek
##mer
##vény
ben
hozz
használ
szab
##öz
magyar
adat
##erm
ellen
##ikai
kez
##llet
vissz
##őr
Nem
##nnyi
mond
seg
##ász
hal
##any
úg
úgy
majd
ok
megf
##mű
fej
##ló
tovább
gond
##ház
##öl
##llett
sze
##pont
kapcsol
##tr
igaz
##alom
##szerű
világ
##nap
történ
##ossz
illet
##áb
##ési
személy
##yan
##séges
vált
##adás
##lan
ir
között
##vezet
ug
je
nagyon
keze
élet
tör
##ked
##öld
fi
mely
mód
##ati
##kol
##met
##fi
ere
saj
##zak
##óz
ért
bel
##ata
##incs
nek
fő
egész
Mi
##lm
össze
való
szolg
##ram
##aság
##kül
##ést
ezt
talál
##iv
##ként
##jük
biztos
##azd
##év
##eme
##zett
##pr
##áv
##ezett
##ess
aki
##ország
teljes
##atkoz
##sal
##állal
##eb
##ját
##form
lehető
jelen
én
##teni
##akor
fele
##úl
##kép
##lal
szük
##lem
##ill
##inek
ját
össz
egye
##fog
megt
##észe
en
segít
Magyar
cél
##kod
##bbe
##lát
an
##izs
int
rendszer
##ha
ugyan
##éd
old
kom
ide
dolg
##atal
##őt
##ozott
egyik
most
##jele
##ített
##ven
illetve
alatt
##köz
##ító
##ise
##szág
##ván
##erek
##séget
vezet
##ormány
Min
tám
##ing
##ord
##ógy
##hely
##ozás
##omány
cí
##áról
fér
rendel
ott
von
érdek
##arad
st
biz
bár
##yen
akik
##st
##ull
##ck
jár
##üt
##óp
per
itt
##ög
##alak
##üle
##ór
megfele
ár
##észt
##ran
hang
besz
200
ír
##vány
##nne
##zik
##éld
##nél
felh
##ács
any
##atlan
valamint
##ések
kon
##lat
id
##ogram
##ából
csal
##oszt
ind
lak
visz
10
szeret
##élkül
ked
számára
arra
amit
##izsg
##rend
##szak
ver
De
##nő
üg
vár
##ába
##önt
##det
##bben
miatt
fig
elm
##ozó
hanem
él
##nni
sik
##ip
nincs
##jár
száz
Gy
jel
##hány
felt
tele
műkö
##ege
oldal
Cs
##állítás
amikor
##pen
##ver
következ
##öt
##ekt
##get
út
##ekkel
##ügy
saját
péld
##den
par
társ
ország
ism
Meg
##emény
mellett
választ
vesz
##lap
ügy
##atot
se
##nyv
##esség
rendelkez
##lyet
##almas
nélkül
##ását
##utat
##ekben
##ajt
##ób
##ári
megs
vé
gyógy
kív
##ező
megfelelő
azonban
szín
pén
##ant
elv
##br
##zs
gondol
##dig
előtt
vállal
szolgált
##fel
ör
##elem
hatás
##mel
##ölt
beteg
##ológ
ahol
##up
kiv
##árom
har
##fej
folyam
aut
##olna
##ütt
jobb
##osan
foglal
##öm
igény
gyerm
család
##tette
##éb
esz
ilyen
##ter
##ánt
test
##zeti
ban
tár
##ió
támog
gazd
##osz
##keze
fal
##uróp
##sel
vi
##dmény
alkalmaz
akár
##úly
gyakor
rá
szól
##íj
szó
##újt
kerül
##tam
keres
##ához
során
Fe
##áp
##ezés
kar
program
siker
##ítő
##leszt
##vés
##tak
##usz
vissza
##ája
##ékeny
##ásár
##telen
volna
##né
##omb
bizony
túl
##un
pont
aján
fontos
ma
annak
##áló
tag
##ítani
jav
jól
hagy
##zám
Nagy
alapján
##adó
inform
együtt
##ki
hozzá
##onság
##of
##vétel
##lás
pár
olv
eredmény
hu
##okkal
##ember
##dul
##gel
##net
mindig
##ciók
##iség
##őe
magas
##anak
##sze
fél
im
szabad
termék
##seny
##lek
##men
##ően
ház
esetén
##ang
csap
##dett
mindenk
##íg
játék
azok
nyil
##sor
tesz
eml
##udap
tü
sp
azért
marad
15
ön
haz
##kész
##iszen
ed
##gen
##ségek
##aszn
##ökke
##ségi
##SZ
form
üz
di
has
lett
##ául
##ker
##erg
hossz
tanul
anyag
közös
lép
gyermek
nyom
szerző
##dik
felhasznál
vizsg
##ással
akar
Is
költ
##assz
El
##ánk
ezért
irány
mér
dönt
hét
##ie
##uszt
##tesen
##ic
##tart
pl
##lik
Szer
kérdés
pály
##ozat
##ist
18
alak
tér
megv
##iai
elér
##szám
megsz
különb
##inak
##vos
körny
tek
kezelés
##mal
ele
moz
##obl
##ájék
törvény
szabály
fogy
##nök
##ános
olvas
állam
kit
elég
három
kut
##tal
##tól
##oldal
##éhez
##vő
##leges
##határ
Be
##llem
könny
##út
##eken
##chn
##oblém
web
##hon
##ús
hiszen
##ilm
reg
kötele
érték
Magyarország
##últ
##oport
kereszt
##só
felad
##yel
##éről
ór
ismer
kat
szükséges
Le
kezd
mill
éle
##lom
##anyag
bar
vannak
nép
##olit
##ves
szin
milyen
város
##ocs
haj
megjele
##ásra
Te
elt
##oll
hó
Köz
víz
hát
ezek
##ika
12
000
##atott
öt
##úr
valami
##tatás
másik
bele
##zön
vér
##ment
szolgáltatás
egyéb
##ügg
##ékony
##alék
##űn
##end
rég
##ábor
##ését
##vise
##ka
lét
problém
terület
##nn
eng
táv
##zín
##élt
##delmi
amelyek
##asztal
megold
##atban
##ítása
gyerek
##őbb
##osság
nő
part
éves
##hát
##árm
körül
kí
##da
történe
##ulajd
##okban
intéz
##zör
##ner
##éter
ze
##ren
szervezet
például
##zal
egyes
##ákat
szint
kormány
##íteni
##tetlen
##ítja
Budap
##öző
##oh
##ismer
##étel
zs
##ször
szív
belül
határ
##ájékozt
adott
tap
tény
bek
##ebb
verseny
##nok
##ációs
##ium
kös
abb
##foly
##jobb
És
##lag
##ine
tiszt
vonatkoz
fáj
##átt
tet
esetben
Or
cég
nyug
Ad
gyors
##elő
beszél
kés
szép
##jon
megh
neh
viszont
Ön
nagyobb
kics
##acs
##von
személyes
növ
másod
##ört
haszn
##íp
egyszerű
##ügyi
##vékeny
##tlen
##mány
adatok
##után
##zor
##eknek
##ub
cím
##lak
hall
nye
##ói
közel
csökke
korább
30
##ezni
legjobb
lenne
##égy
##nal
##nti
mell
Európ
##álni
##eren
##ook
##zó
##ülés
jut
##esebb
ol
ink
##övet
kialak
##ait
erős
##ulás
iskol
men
egym
##szik
mai
könyv
hason
##akt
legyen
11
hogyan
##cia
részt
mit
pénz
##oj
néhány
vezető
tulajd
oszt
##ür
hír
képes
ing
természe
nyújt
okoz
##atív
hónap
elh
##olás
##jegy
##mények
##gató
néz
meghatár
##hetetlen
tevékeny
enged
##öbb
##íts
Am
Er
##ike
százalék
vásár
##all
munka
##za
##óbb
as
##ülő
##ün
##olni
##nyom
##éte
##mai
##almi
##ésre
inkább
##uló
süt
##lős
techn
##jel
##asági
segítség
##heti
semmi
##rás
vagyok
támogatás
gt
helyzet
iz
##zat
##új
##ítése
##apot
kr
##tat
##őség
##ébe
Ne
##zab
erő
harm
cik
további
lel
##ációk
gyógyszer
##ánd
##emel
##AT
nemzet
forint
ezzel
őket
lehetőség
film
szerepe
##zük
fok
##fér
tr
Hogy
##lenül
tartalmaz
ahogy
nyilván
##övő
##álat
##nagy
fejleszt
##érték
rossz
fény
szükség
nev
fr
##mus
##ong
##ame
##viselő
vele
hiv
##ágy
##árd
telep
##ac
##oló
##nyi
Fel
legal
Budapest
##nkormány
érdekében
##tő
##úg
##II
vit
##ock
közül
14
igen
##ted
##jai
elfog
##EL
tapasztal
##lése
íz
##csak
##ford
férfi
vas
##hér
##hogy
##álló
##zése
##zem
polit
eszköz
##zott
##íti
16
##ige
##föld
##oknak
##ari
következő
##ei
került
##emes
##mag
létre
Pr
##fon
teljesen
szóló
##évő
##ark
egyszer
##jén
perc
##nnyiben
bír
##atosan
hon
egyed
##ral
##dése
##talan
##ekre
##hatja
fiatal
arról
gép
##jét
##féle
föld
tájékozt
ennek
##ták
bem
különböző
##mér
##zás
##ttek
##ozni
##la
újra
##ón
##sebb
ag
##dött
szok
mivel
dr
##telt
mutat
szerződés
inter
##szab
##űr
szerep
kívül
köszön
Ak
##jabb
csat
##jában
##elet
egyre
található
##andó
13
biztonság
##rel
##tetés
pontos
díj
ment
##közi
eljár
En
prób
##per
##ista
##súly
kl
megáll
##itk
##ozik
##akat
megb
##vi
emlék
##ípus
száll
false
bőr
rende
##kezelés
tudom
Azt
négy
kere
elle
fogyaszt
##szere
##ester
egészség
##fél
ti
keresztül
##delem
Ny
emberek
##től
nyelv
Ki
tárg
##for
szav
neki
##nagyobb
csoport
17
##áját
tárgy
kam
fut
mik
alkot
vonatkozó
##adik
##nem
orvos
##intett
##tár
##ezte
bal
készül
##lődés
kifej
második
##álaszt
kir
legalább
##meg
forg
##ösen
ellát
##álás
módon
annyi
mozg
történő
része
##ítmény
látog
óta
számít
fájd
##uár
utol
erre
##edés
tehát
voltak
társad
ezen
tém
környezet
##gal
Már
str
hiány
##veg
eddig
Re
valak
##osítás
bor
kéz
##okon
valós
##olgált
hosszú
hir
azzal
##sági
használat
barát
##ásban
Al
##őz
##ókat
##ca
##oci
##ezt
fizet
szerv
##brand
Me
benne
megjelen
kellett
os
kény
25
##város
##avar
##szor
##otta
##ságot
legnagyobb
bő
##itás
mondta
hasonló
##adott
állapot
tulajdon
##írt
##álja
##adt
##nye
röv
199
éppen
nyer
##ánc
##uális
baj
Sze
Ezt
cse
raj
##élet
játs
ugyanis
tölt
válasz
##ázat
##tében
Minden
később
##hatnak
hozzáj
magát
tű
ezer
ebben
##tor
##ektr
kih
##20
vállalkoz
írt
kik
pia
elem
##ET
##ma
##ölcs
jellem
csapat
##ern
##omag
##tó
ajánl
fordul
közép
##éket
kult
##átor
##arab
súly
##iket
csin
sport
##ésére
köze
alá
##uh
##zék
közvet
lap
otthon
energ
##észet
##izt
##olog
weboldal
##okra
érdemes
éve
legf
változ
köt
nehéz
felelős
##adék
szinte
##sér
##ER
egyen
sokkal
jövő
tudja
gyű
foglalkoz
##ományos
##védelmi
##yű
című
##ndő
Isten
##uház
fin
##mun
rendez
##rendszer
abban
##ukat
##ib
menny
##ow
##nék
kevés
##őzés
közt
##aton
##kozt
##llen
mindenki
##áig
##ard
##zed
szempont
értel
szen
##ssz
##ya
##éret
időszak
maga
##cse
Ezek
lény
##lni
kiz
kíván
ill
évi
##tető
##kezett
mégis
hív
##azit
##atni
##által
##ázs
##ode
kisz
talán
készült
kal
elektr
##ította
He
legt
összes
megm
lévő
##ft
##jából
##rende
élő
helye
követően
érintett
megk
véle
jú
miért
utolsó
##ind
##amar
100
millió
szemben
jegy
megállap
##szín
on
javas
vet
##ndég
Íg
##ah
kicsit
találkoz
érvény
##utató
jelenleg
##áns
függ
fert
gyárt
##sága
szakmai
##úz
##nia
##hetnek
ap
##egye
esetében
komoly
##emp
##attal
##jának
míg
Így
##olja
tervez
ős
betegség
figyel
Ar
módszer
felé
végre
##deti
##óta
##lete
##izmus
kisebb
br
##lus
##gazd
helyi
típus
aztán
##ett
##ázt
közben
##oda
jogos
Bal
##uz
működés
##0000
képviselő
megy
Ennek
Mind
##nö
fehér
adó
##yelem
##con
##beli
##étele
mar
##ozta
vendég
ellenőr
ható
ford
előre
terv
mot
##unkat
segítségével
oda
akt
##óval
##atta
elérhető
tekin
tök
##jed
föl
honlap
üzlet
##fizet
Egyes
##üz
kapcsolatos
##ológiai
dí
táp
##ünke
feladat
Én
kieg
##hetőe
##hetően
##ünket
hol
hozzájár
értéke
számos
fen
jelentkez
bet
cikk
költség
Ér
figye
esemény
isbrand
##csi
do
Dr
ünne
##ottak
érkez
##szabály
##öng
jobban
##ódó
Elő
szor
pap
##eleg
##nos
zár
dolog
##EN
Ame
##ásával
##atikus
SZ
##óri
hatékony
##iskol
persze
nyit
rövid
rög
##alma
ge
információk
##kezelő
emberi
##ívül
évek
parazit
##utt
##log
azonos
engedély
szervez
##lett
##tenek
pill
nemzetközi
megtal
nekem
##jen
valaki
Né
##jelent
célja
##üket
##vált
##gek
##isztr
forr
stb
##ítható
tevékenység
máj
##igaz
##ítvány
##ábbi
##apcsol
lég
intézmény
##ására
kid
##éssel
Kr
bekez
elmúlt
fot
##úra
##hetett
án
In
##akran
rem
hib
##zí
pan
kev
##kör
##port
##ntart
##vonal
tanács
##line
##ászló
többe
##ódik
##ue
funk
kapcsolatban
élmény
többi
láb
##ookie
hazai
2019
vise
nál
korábban
##vezető
Csak
lem
amer
mer
dok
veszély
##ától
tüne
harmadik
vel
jön
50
ismert
információ
##gyű
##har
mindent
##zió
##ottság
##öve
darab
24
##nnyire
évben
szüle
kezdő
helyet
biztosít
##hatatlan
ismere
##mód
##di
ról
európ
melyek
megelő
alkal
megkö
szöv
##eget
könnye
csomag
21
álló
##ilis
adatkezelés
régi
##zési
óra
Most
##adi
valame
Mar
##ásokat
##óság
Nagyon
távol
milli
mod
##akar
természetes
figyelem
##vas
Ist
azokat
egyetlen
##ttp
##ozza
##ox
els
általában
tett
poz
##des
kutatás
##ncs
Amennyiben
európai
sikerült
##oha
fű
Adat
amelyet
hoz
szerk
alábbi
telefon
##hajt
##pal
##jön
2018
önkormány
amerikai
##nként
##les
zöld
köve
Sok
gyakorlat
polg
mikor
##éből
látt
##hatunk
##fele
vagyunk
történt
##ttal
Tud
István
tekint
ész
mérték
##függ
##rá
##úgy
##pt
belső
lány
##hi
##óbbi
újabb
viszony
Bár
##oc
kedvez
vélemény
null
##valós
dohány
ab
##éli
##hhez
##ületi
##ns
##ulladás
szintén
megny
##min
miniszt
hivatal
ang
használt
Szab
##aval
kapott
Ft
utaz
ét
neve
##intem
Szere
Ug
lenni
##sorban
##ármaz
proj
##GY
hál
Szent
teszi
And
##érd
##üs
ág
azaz
növek
talált
##éri
ahhoz
megle
tő
##észen
kock
Áll
##kívül
éj
##ory
magam
cookie
##ay
osztály
##ködés
##tóber
##nki
emel
Magyarországon
##tember
tökéle
alkalom
amp
Még
Alap
dob
szí
tor
##kr
##atja
ex
korlát
mennyiség
kapcsolat
##fő
##eszer
értelm
László
gazdasági
Ig
Van
##árólag
##használ
##díj
##jára
kínál
Zs
átlag
vide
nevez
##keres
kór
Term
ismét
épület
megvalós
szár
##ái
##ent
rom
növény
##ff
##alt
legtöbb
örök
##ítette
először
érint
##tei
jelleg
##beteg
elkész
bizonyos
igazán
##ségét
gyakran
##hatjuk
minőség
napon
végén
##zínű
##ím
##inc
általános
hid
##tent
ek
##yek
Kö
jellemző
vérnyom
adatokat
érvényes
##ro
Egye
jött
##émi
történet
##uc
elnök
22
##osabb
jelentős
Int
##folyam
Val
halál
irod
napi
csod
rep
tudjuk
elfogad
származ
partner
##dv
##ument
##kedés
széle
fenntart
##tan
##junk
sér
megfelelőe
megfelelően
Hogyan
40
##nger
eredeti
##age
száma
##akban
kb
Leg
elmond
ám
arány
központ
##acsony
kísér
##oldog
##ontosabb
##ilag
meghatározott
helyen
tisz
től
rek
##úcs
##fek
##szi
##almat
0000
Itt
léte
##jú
Tan
fogad
##mely
##árg
azonnal
szob
esetleg
hisz
csökkent
Európai
##delm
pillan
Amikor
Tovább
kizárólag
##lel
Ke
szoci
tekintet
##irág
##tag
vett
##örg
nyí
##ved
negy
csup
indul
lt
sokat
történik
##bert
felnő
különösen
##néz
##éne
fájdalom
00
##kori
látható
http
király
##akkor
##földi
##ásának
##cius
kiegész
október
helyez
ezeket
##erő
továbbá
Per
##szí
lényeg
##yei
komp
##ism
##ptember
##dék
##avaly
##ézet
##érium
gar
##álkoz
lass
jan
óv
##onikus
sőt
pi
##hang
köszönhetően
tenni
##erem
##atók
##ügget
Kft
ünnep
##vég
##hes
##ainak
vizsgál
terüle
eltér
bármi
utc
##prób
pályáz
ellenére
##eres
##alap
folyamatosan
##mond
##mit
tanulmány
kezelése
oktatás
##ítési
összeg
##peci
Új
Ma
korábbi
##űnik
##olc
visszat
mély
##erenc
##éni
nemcsak
##séggel
##vár
Mag
addig
##részt
János
végig
friss
köny
múlt
op
német
arc
##alk
párt
Nemzeti
tartott
##üm
##öny
idén
##olta
annyira
autó
##ÁS
rendkívül
##eset
hull
##éklet
dolgoz
legfontosabb
##21
fiz
akad
hirdet
##par
##éppen
közötti
érez
tit
Ugyan
amelynek
##ulat
##orvos
##csk
szereplő
szeg
politikai
helyett
23
##llene
temp
szöveg
szerinti
2014
##fr
##ői
##ace
##ttól
érz
online
##vész
##utatás
Mivel
##org
játsz
rendezvény
igénybe
##ide
alkalmas
##ron
szakember
##vél
##hatók
##írás
név
##zetes
kötelezett
pe
##értel
figyelm
##essz
##ast
felső
##bből
##hetjük
bekezdés
mög
milliárd
##tés
##ion
érdeke
##adásul
jelenti
##örös
terem
május
megismer
##zést
tényleg
##ró
megbíz
jogszabály
let
##nénk
Ferenc
##iát
kateg
cser
munkav
##attint
Biz
##iszer
méret
kellene
mos
Több
##erül
Péter
férgek
valószínű
##hetünk
##kedő
2013
##nie
2016
igénye
##üntet
2015
##cember
mail
feld
jogosult
##ovember
hű
Br
hő
##AL
##világ
feltétel
igazi
##hol
Nap
##lési
dél
függet
kiváló
St
egészen
könnyen
időpont
külső
II
vagyis
csupán
##ógép
seb
január
##erős
kommun
megvált
##ájában
##rész
akart
kett
végzett
at
##ics
dokument
Pe
##faj
##prilis
elsősorban
teljesítmény
##zk
##ílus
egyedül
Fő
##nöke
hús
projekt
folyamat
vágy
##OS
Mik
gyorsan
működ
lé
Em
fenn
##özben
egymás
önmag
##övel
##mentes
csökken
szeptember
folyt
cuk
folytat
##gatás
max
gomb
##lőtt
##írus
##ítják
##odell
finom
##lék
megrende
##ársaság
vérnyomás
ingatlan
##letek
Kül
regisztr
hamar
végül
##pár
alapvet
Szolgált
##igy
##geteg
##ándor
véd
##cion
##könyv
##tunk
##esztő
##vér
hátt
fek
bűn
természetesen
mintha
gye
szél
bank
szolgál
lehetséges
apr
boldog
Ezért
##AR
##urális
ingyen
tíz
sorozat
utóbbi
különleges
alacsony
elkez
március
zavar
venni
##aként
##ökö
keretében
csatlak
bér
norm
##ésével
egyébként
vége
##tegy
részére
##öngész
##edik
Józ
vill
##son
##napi
rendelkezik
meleg
##lex
##ekete
##eztet
##ója
hozzájárul
növel
##ozása
##ell
feltétele
##lott
sütik
##aink
kár
##hagy
kárt
##emet
##ítási
An
hatalmas
##OR
##íció
vez
nők
Nek
##ssze
hom
et
együttmű
##ítva
##egen
őr
2017
csill
beállítás
természet
##bé
angol
##bel
ők
vág
##nius
EU
##iről
speci
diák
agy
étel
rendelet
##ították
zene
nyilatkoz
##odás
##ancs
##raj
##amin
követel
##abban
épp
gondolkod
##lyel
képest
Mű
##orú
##elen
tur
tavaly
prof
kiemel
##red
Bar
ég
##agóg
hatály
##OL
##AN
vid
##af
Kér
valóban
##ánál
##ED
fran
küz
fejlődés
többet
elkép
Által
benn
felett
Kar
megér
század
##lcs
##lám
december
ének
26
lehetővé
##vá
széles
##vizsg
köteles
tartalm
egyszerűe
tudni
rögz
befoly
egyszerűen
2011
áld
##ákkal
##állás
##bizt
##élye
##ázis
lelk
élv
állat
av
szület
képe
hasznos
egyedi
##étől
##feren
alkalommal
közé
##vek
járt
2012
eme
##igit
##itív
böngész
##ürdő
értékes
időben
oldalon
édes
tápl
november
##nkor
tagja
alig
munkat
Ezen
##umi
##esztiv
piac
##her
szül
##ÉS
kiválaszt
gyakorl
##imp
elkö
kötelező
##fordul
##vők
##inte
április
##általán
##nyal
megoldás
lakás
Kös
##EK
ber
##óra
jogi
##ságát
hallg
##véd
minél
Ország
Mert
stílus
##pén
kiad
soha
öröm
##erült
Úg
##sef
27
Úgy
##osok
##usztus
28
készít
##ná
vad
lehetett
##nel
pontosan
##esti
Uni
gyerekek
mut
motor
##ümölcs
##hass
Go
szavaz
megtalál
##óban
Vagy
##ES
szövet
por
##áború
gazdag
pénzt
termékek
kattint
jelentő
múl
lab
##ans
##obil
családi
##ina
kiállítás
Kép
melynek
évvel
tav
##szich
társadalmi
ideje
##áért
elleni
összefügg
##ail
kedven
##ménye
koll
eljárás
érdekes
##inkább
utal
##nnyit
##ON
írás
sokszor
##ww
küld
##ou
##ocsát
198
modell
##dex
szeretet
József
aszt
##vg
tűz
##hetik
elhely
31
szex
gyűjt
lehetőséget
##abil
##szem
##ésének
##edagóg
minős
Kor
##országi
Saj
##okból
zaj
##pp
hav
##ÁN
var
kénye
##ónak
egyet
mes
kín
##ású
##felé
Igaz
##tték
##janak
##indul
figyelembe
kérd
www
belő
##ésben
##ork
##zati
faj
vegy
működik
értes
izg
elvég
##foglal
##rány
##zolg
szakasz
##két
amíg
##36
sokan
bármely
Mint
##értelmű
##ódott
Mit
területén
Kis
##úze
##lést
##fa
műve
##ivatal
harc
vizsgálat
melyet
##dal
kin
bab
##lyenkor
Ebben
##book
szom
módos
felf
róla
##ekről
ajándék
##álta
Más
fest
közlek
##ológia
##letes
változt
##élyes
tökéletes
felül
templom
végez
MT
##lius
kont
arany
eny
társaság
##álkod
##házi
gyümölcs
##játék
##hen
kib
##tte
##ugusztus
uni
hálóz
##ávol
##jének
##eleti
##átum
##adni
##éseket
szerencs
##csoport
hegy
##oft
sajnos
előadás
tájékoztatás
##ezi
kommunik
igyek
##ivel
##höz
rag
kelet
##str
egyáltalán
Vég
##bán
üzem
ra
szerintem
autom
megg
minim
##ung
##ítik
Önkormány
úton
##fejleszt
hangsúly
##ank
hit
tehet
Persze
60
virág
féle
kul
éjszak
##ÁL
##oltam
június
##ula
##zív
született
kert
##lét
##EM
##zint
maguk
##ikat
mező
tenger
##eként
kuty
ideig
##tató
elektronikus
előző
##nen
panasz
szór
##ölg
éven
##ándék
Szak
partn
##ájuk
##chan
visel
##aim
##ÁR
##orv
rendőr
##seg
konce
blog
Ch
rendelkező
2010
társadalom
minket
bajnok
népszerű
##ogle
##ust
zsír
2020
senki
##éig
észre
##ólag
zen
##onban
##lós
##tettem
akinek
##esztivál
sors
minő
##tebb
állami
eszközök
közösségi
helyre
megszer
##izál
##tét
##jegyzés
##ékes
szerepel
Jó
káros
alkalm
gyermekek
##ződés
##fal
##erend
terme
szállítás
Szolgáltató
Szám
felnőtt
##lok
##amp
##50
ehhez
alakul
indult
mindegy
beszélget
##fok
lehetősége
Milyen
elején
##vállal
port
paraziták
fertőzés
leveg
szeretn
##öd
##jut
egymást
este
##ológi
években
##rat
belőle
egyértelmű
katon
szige
állandó
Tal
tes
voltam
##úzeum
image
kategóri
számítógép
##hatják
##ekció
egyéni
súlyos
tömeg
őt
##tetett
méd
maxim
hagyományos
##ítására
##építés
##dők
rengeteg
válik
attól
##ttől
orosz
Jéz
méter
állás
továbbra
igazgató
magad
tette
##ácsony
funkció
leginkább
##jával
##osztály
forrás
##ték
jót
nemzeti
##akra
##észeti
Kár
rajta
##aránt
##ltek
időt
bőv
##IN
##zol
miközben
##onta
##ala
had
##örgy
ít
pozitív
##urg
indok
##szó
szal
kevesebb
hajt
évti
Állam
utas
gazdaság
válog
gör
végrehajt
##deni
##omra
helyszí
##ama
neheze
hé
gyulladás
##bban
link
list
nekünk
eze
Európa
##zár
##ármester
Se
konc
próbál
Érd
mintegy
té
szét
olaj
munkatárs
##vétele
befolyás
kedves
bármilyen
##igye
Gábor
tudják
hatóság
##vezett
##tuk
egyaránt
##anap
épít
Ezzel
határi
résztve
egészségügyi
dokumentum
##ítást
##ann
##acebook
könnyű
##edi
febr
##tiv
egészséges
csinál
aktív
##nyújt
##kedelmi
##álisan
létrehoz
előny
##ntr
lelki
főleg
##letet
##lmi
maradt
terhe
győ
##nan
interne
##azon
##jenek
kezdemény
érdeklő
##tették
Miért
div
kony
valamely
feldolg
##gép
előbb
##ítést
július
##ötte
Város
kever
Im
látvány
##usok
probléma
jutott
Két
megjelent
várható
##ózis
##unkban
többször
hord
##iás
erről
29
szakért
##00000
##öket
augusztus
Kriszt
ellent
hí
##záz
közön
##előtt
##ektől
##esek
##ezése
##kos
Tisz
dem
képzés
krit
Felhasznál
##lov
fogja
hajl
tűnik
##önyör
##lame
##content
hitel
##zők
energia
##fogy
##lebb
##story
##ációt
Rend
tartozik
nevel
változás
isbrandcontent
##eri
##oznak
##ondol
modern
Jézus
##vét
pir
bél
##okról
##ották
##szaki
##zav
mobil
Tam
üze
táb
legk
fesz
becs
pénzügyi
##jebb
legg
##ítását
##lmiszer
##besz
titk
reggel
##amos
nekik
fekete
külföldi
##ége
##ukt
oka
kapcs
##ajon
mélt
érzés
leve
felkész
sim
részét
Google
##örténe
##ájának
##óknak
férfiak
üzleti
##hal
##akad
##oskod
##áris
##idesz
visszatér
lakosság
##aival
digit
Oly
##atég
foglalkozt
valóság
követő
##jaink
##ölte
dal
fed
ebből
##ülete
##vészeti
##jében
##nge
##assa
számított
készített
hány
tab
com
kedvenc
##tekint
##ivil
üzemel
##orn
pszich
közösség
ugyanakkor
kevésbé
bejelent
felhasználó
fizikai
befek
Ami
szék
Par
kapcsolódó
nyolc
inf
dohányzás
##uny
##ásos
##ila
döntés
söt
ügyfél
ül
##lesz
##ire
készülék
szinten
##bar
##rtok
igazság
Német
György
elnöke
Természe
hagyomány
##állt
amennyiben
Ked
##sa
fil
##idő
##sem
rece
szent
valamit
tartozó
##évén
magasabb
Zolt
mások
szomb
mértékben
fenti
mondja
február
vélet
ajánlat
##ákban
##unkra
##énk
##észség
lesznek
##nevez
##jak
##atták
##kerül
ká
Egyetem
szándék
##való
álm
figyelmet
##udomány
##kedik
látni
számú
energi
Minde
Sándor
tere
részes
##kezés
kemény
##zö
Általános
néha
##áron
Je
##test
##száz
med
Aki
##ulni
##telj
kölcs
gener
takar
mögött
##jog
nappal
##külön
mellék
utána
##őd
mennyire
##áltam
##víz
Akkor
mester
amik
tilt
remek
##ezték
rak
##SA
##oni
##ásában
##úttal
##iben
tudunk
ekkor
##lin
leír
des
##adást
viz
##jeszt
##odik
##zolgált
leggy
##szerűe
##szerűen
##atart
Ut
##nyel
##zünk
iskola
##OK
felhív
##mérs
típusú
kim
pént
##áshoz
sh
fels
tulajdonos
##van
##telet
##atjuk
##ezetten
Központ
##32
embert
vasár
mon
állt
##adása
formában
valamilyen
száml
##onyol
együttműködés
##nunk
##növ
##ítésére
tanár
##oba
tapasztalat
Zoltán
197
felület
##ítését
nélküli
##cz
Ir
cm
költségvet
megadott
ráadásul
80
hvg
##országban
vala
helyes
##hats
vitamin
##ason
meggy
##polg
Har
km
##esten
194
többek
##vesz
ezelőtt
##tetni
##asztó
utca
##űrű
Ed
##pet
dís
önálló
##éves
##55
##haj
puszt
működő
település
##éséhez
##ünkben
##keting
##jű
##10
of
ablak
##üst
Tör
részben
gyönyör
##ilván
mat
##óm
36
beszer
visszav
##eret
pályázat
##kap
##ermek
##omp
tőle
tájékoztató
női
2009
használata
##ottam
jöve
##jelen
tartó
##forg
Ter
nyilvántart
##hatsz
szed
bemutat
hozzáfér
Lehet
reklám
##városi
elismer
all
játékos
##olvas
jelenlegi
##zete
##őként
##vitel
##vedés
##ódi
##rom
berend
Orbán
Külön
hosszabb
közvetlen
önk
melyik
Föld
Zrt
##jött
együt
bék
##szav
egyben
##si
munkát
mire
##co
nincse
ágy
lehetne
biztosan
jármű
haza
tárgyal
##nekar
proszt
ür
##íthető
belép
##lhető
francia
li
tudományos
tra
fegy
országos
##ője
##iában
kulturális
öszt
##uper
##lők
kényelm
felismer
beszám
##emelt
pót
használni
folyamatos
45
kivi
tünetek
szerepet
sikeres
ára
##ore
##helye
##ítve
módosítás
neked
##ultak
tánc
tudnak
csillag
ülés
##inket
gl
Aztán
szű
log
tartós
Szem
fa
##ugár
##ásnak
##olják
hivatalos
##ibb
felúj
kollég
##ler
fejlő
szépe
##szolg
semmit
megőr
szülő
vörös
##vári
dísz
##köze
rád
##almazott
megerős
ideg
##zni
##erel
adni
egyszerre
toj
##hatod
állít
##AK
##var
##pad
##lo
nyugdíj
kijel
##lemény
ko
##csap
óri
mondani
azóta
##che
egyetem
élelmiszer
tulajdonság
jellegű
##ültek
Fran
említett
idei
leb
idegen
##ozási
évtized
vezér
##isztikai
##krét
terjed
akit
üveg
ajt
##őben
Hát
Sp
mozgás
időtart
aminek
halad
előfordul
##irat
lehetnek
ös
##ezik
szociális
olcs
továbbiakban
akadály
járó
szolgáltatások
Köszön
##metlen
https
kre
lassan
kére
90
eltávol
Olyan
kil
áram
kölcsön
sincs
##zák
adja
##ekhez
felvétel
szórak
##pel
klassz
hideg
annál
##odott
lek
Na
Hat
2008
szabadság
##ezár
##omos
##ocsi
Att
Első
Igen
##AP
##gazdasági
##rák
civil
kötött
kérdése
fürdő
sét
Üg
##ate
Tamás
szenved
Jelen
##inál
##tion
tudtam
Facebook
átalak
##ation
##ers
mellé
közvetlenül
teszt
##alan
eur
The
kifejezetten
mere
sötét
amivel
papír
##fáj
70
fell
tudok
alapvető
Országos
András
Hozz
Du
környék
assz
adatkezelő
##ítenek
##órum
##cen
asztal
elé
pillanat
##ccs
húz
##oltak
legy
speciális
kerék
rendelkezésre
használható
Fi
műsor
száj
##jte
##kan
Nemzet
pal
magán
##ljük
##éteg
törek
házas
##értéke
##vásár
##zetet
tük
egyház
közz
##mill
szépen
mé
pro
mutatja
##ukció
Természetesen
remény
hatása
##bor
Fontos
stratég
##ölgy
tartja
vállalkozás
##oktatás
##EG
csúcs
##ésen
amelyben
házi
megtart
fiú
újság
várt
##író
segítséget
35
index
##öttem
##szolgált
prod
##orvát
töm
érzel
##ségének
kulcs
koron
##bi
bíróság
imád
legfel
##ságú
szig
##ségben
birtok
meghal
##atása
amelyeket
##ütört
Nincs
tip
##ológus
uj
lakó
##élek
beruház
pedagóg
##ova
Ahogy
##llyel
budap
ot
##ansz
apró
biztonsági
védelm
megfog
hétvég
##oztak
öreg
##ík
felfed
Ge
##cc
idején
##fut
##énnyel
##ereg
Iskol
2021
##agn
##ekből
Di
szeretnék
ruh
##okr
##usztr
feladatok
kop
##airól
képesség
##jait
##akkal
megkez
digitális
##izált
rajt
sejt
500
##zeg
##IS
196
zsid
héten
##össze
##ászól
##aut
##73
Amer
szelle
tets
Bizottság
művész
##olása
##aik
szeretne
karácsony
magyarországi
gondolat
##ateg
képvise
akció
körülmények
##uzs
##ülnek
munkavállal
pat
üt
tej
betegségek
megl
##iszony
##irány
rák
stat
észak
szeretnénk
kapcsán
##éren
##fjú
##heted
##gyűlés
##telem
hasonl
lov
##irod
ízületi
cukor
sajt
önkormányzat
##okhoz
##éért
##olható
##leng
kihív
##cső
##sp
##kér
##ux
semmilyen
##yal
érkezett
##ektor
mérk
kiter
felszere
tran
##ózkod
Budapesten
kellem
itthon
agg
##ények
##ura
##lőre
mindenkinek
nevű
hü
tartalmazza
választás
##teles
##olikus
Tehát
összesen
határidő
##jünk
árt
For
települ
Ilyen
Ügy
cselek
##ületek
miután
Ör
területen
révén
Ott
##ódás
neg
##urkol
vírus
##vészet
##isták
tiszta
tábor
aktiv
problémák
mindkét
írja
##aid
ötlet
tartani
##lmint
Hi
technikai
##ásokkal
##nom
szívesen
látogató
##urcs
vezetője
eredménye
Szín
##utas
budapesti
Adatkezelő
##tenci
gáz
megoszt
Egyesült
##ésében
EL
##munk
táj
felmér
játszott
amire
##étlenül
##úd
##ajnok
##azt
szeml
##szint
fár
Szövet
gondoskod
olasz
vasárnap
##űnt
benyújt
##ris
##átok
##lte
negyed
szolgáltató
megkap
##áci
##polit
##app
##ajos
##hatóság
Pál
klasszikus
##nünk
##akter
Egyesület
olt
##ítették
nyugod
valószínűleg
##állam
##one
doll
##aszkod
##már
adag
nyílt
195
szez
fokoz
##biz
mondjuk
##EZ
Sajnos
származó
nyel
drág
poszt
##játok
rendszeresen
gyeng
Balaton
sos
egyete
##ülni
utáni
vállalat
koncert
##forduló
szempontból
##edési
mennyi
kedvezmény
órakor
pénisz
megint
konkrét
anti
mindaz
##képpen
##rak
##db
##hív
aktuális
tartalom
po
korr
##ikát
elvár
##und
csend
féreg
##ésű
Sch
sü
ingyenes
alkalmazott
képesek
minőségi
intézked
##ack
tagjai
gyógyszerek
esély
hangulat
##erc
##ítsa
enyh
folyó
Vik
forgalom
színész
Bizt
##újabb
központi
##mene
háttér
##olaj
vak
kerülnek
##ain
##lését
cig
##lég
##magas
befej
délután
##zin
##úti
regény
leszok
##rip
Hivatal
szim
építés
veszi
ritk
bárm
nyert
hozott
##techn
##bes
##imn
##ései
negatív
##őző
##űz
##hor
javaslat
##ví
ás
##atait
##ikum
világh
hum
Web
alt
##jére
azoknak
##olták
orvosi
minőségű
információkat
##ókkal
ennél
##ázni
jóval
ilyenkor
száraz
##kü
##ferenci
##tünk
alatti
##épp
kultúr
vád
felhasználói
testület
menek
hétfő
marketing
##adja
##ity
megyei
alsó
##ásához
##ámp
##raf
sütiket
valamennyi
##lási
rendszeres
tartózkod
Fidesz
tervezett
Rá
##kedett
kezdet
##ektív
További
elkerül
##rég
##III
##állított
##köd
tudás
érte
győz
##nevezett
##nánk
kockáz
gyönyörű
##man
levél
ölt
##fajta
nyári
##erelnök
védő
tudod
szerkezet
hőmérs
napig
Attila
kamp
csütört
##átus
##rem
Egyéb
##tim
valódi
db
eltérő
megprób
##30
##forr
független
Talán
összet
múlva
elmondta
Reg
megúj
ajánlott
tablett
beszélt
2007
Munk
megért
jutt
valójában
##irály
gyan
##ozást
vagyon
láts
magukat
##anci
##jet
##ekor
##tevő
##uli
önt
##éki
uniós
##ünkre
##yógy
szén
kelle
teszik
##pi
hasonlóan
bolt
szempontjából
erdő
##aján
udv
mére
nevet
post
állnak
##iplom
##hetők
##sh
nálunk
##zéd
##sd
kérjük
személyiség
##ké
képet
##rit
##ump
##oljuk
Ár
##ded
kód
##NY
III
feny
összek
szoft
számomra
évig
##ságban
##csökke
Visz
bármikor
látszik
rit
##élni
legújabb
##ogatás
ÉS
##széd
elvesz
elége
Erre
oldalán
dolgozó
##oli
közönség
vonal
fül
tekintetében
vastag
##esszi
##tell
részvétel
velük
parlame
KÖ
##omat
##árty
Bél
##anszír
##cik
tisztelet
hatással
időszakban
Tr
keresztény
##lték
Ép
elkezd
kényszer
tudomány
diagn
ipar
tizen
létes
##ori
annyit
ví
fénykép
megnéz
kur
##OM
rug
nevét
##omás
láttam
csont
iránt
munkahely
##ájékoztató
##venni
magunk
megfelel
##énél
##szerűbb
szellemi
edzés
elb
polgármester
megelőző
##központ
oper
kol
életmód
##ítottak
okos
zenekar
legfeljebb
buk
érzéke
rej
##ségei
##aba
Pár
zárt
##ódnak
##asis
automatikus
későbbi
##eség
kutató
##áruház
mad
##ÁG
300
körében
Megyei
szüksége
##féreg
01
előtti
országban
##erny
műszaki
hivatkoz
##eznek
kereskedelmi
közölte
##étek
meglep
fellép
##olnak
Kl
kezelésére
megszok
hirtelen
##áss
tavasz
történelmi
##ozg
##otó
koncentr
##egyen
következtében
adatai
írta
tudta
szembe
tól
##ulnak
előkész
nyar
At
##ora
megrend
koz
mege
##otel
anyagi
létezik
Mát
pre
##isztérium
##verseny
stabil
##ozzák
szil
Es
##lon
ural
tol
hallgató
##ngyel
kort
##ovács
fant
##akció
tudott
##ry
Ol
hiba
##kező
##teljes
kiny
##almak
színvonal
érdeklődés
előír
miniszter
Társaság
Vas
gondolom
##álták
szenny
szü
##ória
levegő
szerzett
jelölt
##ületet
háború
jö
függetlenül
##áit
2006
jelentősen
##igh
Önkormányzat
gyom
úr
##tér
##pály
##intéz
##anyol
##esszük
##viz
vásárlás
látás
sárg
eddigi
##okba
megrendelés
Ve
hulladék
##eztem
##lenc
##xt
keret
##akör
##éken
##eknél
Felhasználó
##ányi
tú
némi
vevő
kettő
bíz
MTI
Lajos
anyagok
##vág
##ová
##jék
irán
eleng
##pari
##ukra
ham
megközel
Ver
##járt
Ren
2000
Bud
VI
kampány
Hol
használja
zse
##áztart
ellenőrzés
##hy
##iter
gu
od
kilom
kórház
szülők
##ezer
Világ
est
##védelem
politikus
abból
32
##tegr
előzetes
lemez
megtan
Ti
teme
##telep
szomszéd
Ház
elektromos
##ÉG
Könyv
hős
##ozók
##zövet
terméket
kivétel
Szeret
##AI
elképzel
##nov
Szeg
##film
##igyel
Deb
##nám
##nes
##issé
izgalmas
legye
velünk
megváltozt
piros
komb
##netet
író
bevezet
##ga
##adások
ábr
##ezete
ére
önkén
##levél
##fin
pad
##apán
helyettes
elmélet
Th
varázs
##sággal
##tettek
szolgáló
Bank
##TE
Id
nak
fórum
teráp
áp
##gyógy
töltött
vette
egység
##11
általa
szűr
asp
##annyi
alakult
kerek
##élem
##aradt
étt
fognak
##ach
esetleges
##miatt
alkoh
akiknek
##lovák
kínai
önkormányzati
hátrány
##ome
Nekem
##ct
kiegészítő
roh
kezdve
ősz
##ítjuk
kutat
Ker
##titk
kapcsolatot
##tendő
tábl
rám
##öp
Kör
Viszont
kötet
biztonságos
##áltak
hiszem
##egyű
évre
##zob
falu
Tanács
##vis
közep
##igazgató
élete
szeme
ev
##értve
##járól
New
##essze
##hatott
##atát
érzékeny
szót
##ókusz
kivitele
felelősség
díjat
##véve
Nép
elhuny
eld
határozat
##ismert
Ant
Miklós
##ana
##ásait
##aszer
##õl
##leti
bemutató
##óc
egykori
##hess
##áng
Ek
##d9
lépés
kockázat
dolgok
labd
Szabó
izom
##are
együttes
##cser
hozzászól
Ok
Nyug
tel
##atlanul
Kedves
kétszer
##part
##irdet
##ami
##önd
##lop
##olyg
##ita
igényel
##tese
mindössze
Kon
különféle
##ezetett
##olva
ugye
##cet
megoldást
Önnek
##vid
feltétlenül
színes
##ÉK
tünetei
változat
##ászati
ezáltal
bölcs
meglát
##écsi
idős
adta
jelez
vers
kellemes
gyermeke
rejt
akk
növeked
fajt
mindennap
Ze
art
##5e
##geli
nehezen
menü
elege
##kezet
folytatás
##ellen
esetekben
életét
##szol
Ehhez
Ber
##ezhető
fesztivál
használják
Azért
disz
zenei
AZ
Rem
Hon
##akrabban
##sav
térd
eredet
##able
felb
##ástól
lehetőségek
##hets
idéz
Cse
menni
##AM
Lát
##our
##szolgáltatás
##ésőbb
pihen
##ords
jelentette
engem
gyer
##cél
##mis
##3a
beav
Ben
mindenképpen
##IK
##oszk
##tesz
tegy
bes
##atják
##au
vizet
technológi
##hetsz
majdnem
hatására
tartalmazó
inten
##io
mm
megtud
##lása
##ébb
Péld
döntött
konyh
48
szar
szervezetek
Szerintem
meden
##kot
úgynevezett
feladata
elenged
##szerep
Ang
##ákon
##ezések
##ává
szegény
terméke
csodál
##udományi
##tok
Gr
Szóval
##képes
részletes
elind
űr
óriási
ger
##adók
06
ur
felmer
##pia
brit
néven
elhagy
hétköz
ennyi
##árok
élni
##tál
Debre
diplom
Intézet
százalékkal
Var
##éta
##alog
and
járvány
##íték
beszéd
kiprób
Hung
##oln
##atikai
##atokkal
menet
esett
örül
##pót
##ozták
piaci
eső
Bor
##lány
##nit
kék
##tein
kötelezettség
nyak
Bel
Károly
sosem
hiába
Alapítvány
biztosítja
##tön
##ásról
váll
dolgot
napján
##ual
##b3
##abad
nyitott
táplálkoz
##lók
##közben
##októl
olvasó
néző
Pedig
személyek
##TT
dolgozni
sír
##ográ
##ew
alb
Mond
különbség
un
Rész
sikerül
##VI
gyász
kissé
befektet
kívánt
kiemelt
terh
garant
##jével
bot
Hal
miniszterelnök
folt
feltételek
massz
beép
Keres
internet
részlet
erekció
kezdett
##uha
##ítők
prosztat
ant
##itt
##uss
használatát
fiatalok
közzé
##üntetés
főváros
gyök
##rendel
##hessen
kaland
##ájú
szuper
réteg
klub
elhunyt
életet
könyvtár
bíró
plusz
Sem
##osszabb
résztvevő
segíteni
##ille
##éshez
megvan
elter
hú
##álása
kérelm
asszony
bemutatás
##aiban
No
kő
előseg
Jog
##ros
##ításra
##cionális
##ázó
egymással
##ezést
hazánk
hangul
Úr
napja
##teti
reform
iskolai
##AS
évente
forintot
##ttünk
kie
Ind
Fr
Krisztus
Kom
Duna
##velő
kezelni
##hály
határoz
céljából
Néhány
helyszín
gyakorlati
##irk
szólt
##ulása
##zata
elsz
meghív
félre
ifjú
csok
vajon
lep
adatait
ettől
bizottság
##vételt
értelem
##fogyaszt
##űnő
tudatos
többen
mérkőzés
műtét
parkol
##écs
rov
the
tün
allerg
Horvát
##aira
##hid
##iság
Unió
##ném
viszonylag
konf
Fej
méretű
##arc
naponta
##jal
##ered
védel
átlagos
##ítanak
##OP
túr
##ezetet
##szabad
videó
##sért
##asztikus
##zus
##azin
##ászt
rajz
körben
##ákra
##ens
##inni
kiderült
##ezésre
##alista
dolgozik
dolgokat
reag
eleg
##CS
##atokat
sérül
far
havi
##akadály
Sh
felel
szellem
elk
tészt
sajtó
Telj
töl
Gazd
##zönt
##ázott
ideális
kamer
##pció
##nyű
##talanul
szexuális
##ázás
item
hab
élett
##zésére
kárty
Azonban
fegyver
##sszel
hamarosan
kedv
Viktor
vétel
programok
##program
gal
alv
egyelőre
elkül
nagyjából
várja
gyakorlatilag
Zsolt
##óst
szolgáltatást
információt
bennünket
##feld
idők
finanszír
szigorú
##amb
gyakori
kors
talaj
forrad
Ekkor
true
részlete
megtört
##fokú
elegendő
ep
helyzetben
ahogyan
krém
Múzeum
tükr
százalékos
Majd
##mar
egyetemi
köztük
világban
kivált
állampolg
##igazgatás
Tele
fagy
##yw
szabályok
szintű
##anyagok
Mikor
##úton
tünet
##ezd
##uth
látja
##OZ
lenn
##izáció
innov
##bbet
horg
44
##orok
betart
##szervezet
közösen
pik
meghatározó
Program
integr
bevon
33
tete
##asi
##obot
##akon
oktatási
nyugati
##ítéséhez
megvásár
##szék
Kérjük
##emlék
befog
kerület
Tart
##ÉR
megtekint
##atnak
##bajnok
Kovács
##lles
bonyol
eredmények
##ara
amúgy
sokáig
img
szeretné
Vár
##obi
kellemetlen
mikr
##SZT
##vett
ellenzék
track
Ger
##választ
##zál
Sport
veszélyes
##igr
hullám
gazdálkod
##ezve
mentes
IS
szóval
##kon
##adta
tanfolyam
##edő
##ián
##olási
##lást
##Le
állatok
##betegség
##észek
##nyire
09
##ölni
partnert
##éj
kezde
##aját
##huz
rajong
Hely
##aték
könnyed
##zon
önkéntes
érdekel
pub
##vert
Pl
##oe
megakadály
megjel
##uj
Eme
téli
Med
megr
iránti
büs
rögtön
##22
oldalak
egyértelműe
busz
ket
egyértelműen
kan
##imnáz
##crip
pontja
##unkon
##esztés
##zatok
##pap
színpad
százaléka
nincsenek
Dél
nyilvánosság
##attak
ital
MA
##képzés
felhasználók
##ezők
magának
gyártó
##áson
##ÍT
dohányzásról
valamelyik
legyenek
Össz
##ae
##óni
kicsi
mened
tév
gát
nyújtott
kutya
##tör
title
segíti
Ugyanakkor
Képviselő
információs
kiadás
##ary
##opp
##tetése
komplex
##szerek
védek
##esszor
rendező
parazita
megtalálható
##olyan
függően
messze
magunkat
karakter
választott
##alkot
Hír
sebesség
összeh
bejegyzés
cip
tudós
Ag
##if
kora
kontr
kilenc
hatalom
##tilt
##közt
Iz
mindez
különös
ellenőriz
vékony
##ítjük
##vei
##ítók
tetszik
##ómai
megkérd
tim
Idő
no
tég
Seg
##viszony
amiben
beavatkoz
eskü
short
böngésző
ff
##ításához
view
##name
jövőben
sar
keny
Európában
##IT
válogatott
##belül
din
temető
történelem
##lia
akkori
alkat
lemond
##th
fogyasztó
##senek
##ukor
##almazt
##umot
sugár
formájában
##itány
##émia
##helyzet
Kész
térkép
34
##áni
hálózat
##ölés
##kó
##ax
véletlen
e6
ezúttal
##aknak
ler
ser
##ozások
híres
##ania
munkált
##ózs
##ash
mielőtt
hiteles
számunkra
Car
feles
hozzájárulás
Rom
kérelem
##biztonság
vallás
napos
rez
##kely
##dor
##apor
##gé
rége
visszak
##ts
műanyag
##kora
nézve
##pon
##ernatív
##áknak
betegek
ugyanaz
mégsem
erőszak
##isebb
Először
##ékek
legjobban
##ászat
állap
bát
egységes
##dnek
##különb
Vál
címmel
gondoltam
döntő
szenve
felsor
Ráadásul
##álják
level
##álnak
fém
kos
##asszony
##telenül
okozott
##énye
irodalom
edző
tökéletesen
##cription
problémát
##ategory
les
##ikában
##367
##biztosítás
embereket
Tib
ob
##19
Iskola
immun
kilométer
orr
akarja
##12
##társ
látom
Jav
##áján
Kap
kialakulás
##ailable
##fű
IV
Pén
isz
##18
##XX
kidolg
napot
##védő
időjár
fizetési
ipari
érzem
étrend
##ömb
regisztráció
##ándul
available
Orosz
pozíció
okozta
Érdek
növekedés
##ich
##abc
fotó
alkohol
cégek
##nged
Mindez
kifizet
##ádi
##channel
uralkod
description
REL
doboz
Király
##iskola
##omban
recept
##yú
author
közepén
visszavon
##élés
korszak
##bran
##onnan
##ásáról
##álunk
óvod
kiderül
00000000
##73b
aspx
bemut
glob
internetes
##olcs
csíp
megcs
Olv
sziget
##Code
erősen
category
##vit
tracking
alól
tartják
korában
bejár
személyi
##onal
##nép
42
kezelő
szalag
cent
feszült
régió
##ror
szánt
Végül
szállás
agr
alkalmazni
keyw
útján
guid
külföld
ún
##óth
Fér
##CI
szakemberek
##ATED
életben
bán
##avírus
##logo
3d9
##atóri
keywords
támogatást
##estamp
##ezési
timestamp
mult
szerd
kup
##bb55
##5e3a
ba
nél
##ödik
4abc
##Lead
onn
b367
RELATED
ffdb
##nának
e632
partnertag
trackingCode
isbrandchannel
partnername
partnerlogo
##b3bb55
shortLead
3d9b3bb55
ffdb5e3a
3d9b3bb5573b
##iget
##branded
esik
isbranded
bárki
kapu
##ügymin
eleme
negyedik
##bázis
velem
##orbrand
isbrandstory
isbrandcontentorbrand
isbrandcontentorbrandstory
bont
láz
alkalmazása
embernek
ösztön
##ításának
0000000
hőmérséklet
TV
##lmet
mostani
nagym
okozhat
##ogó
##ogató
##ökön
##rae
kg
##003
amiket
képek
na
normális
Mihály
módja
Jobb
szolgálat
000000000000
téma
Nemzetközi
feltölt
lépett
felügy
csatorn
##qu
foglaltak
felép
##éve
sk
csinálni
lezár
##oros
##haszn
rendszert
jóvá
vásárló
##áld
der
##remű
kaptam
##ítások
áron
magyaráz
szállítási
helyiség
Ám
jegyző
tájékoztatást
megjegy
kivéve
##uma
elérni
##ságra
##tus
##szerte
##oztam
visszaj
stressz
##ileg
várak
ismerős
Kín
08
világon
##kett
##egnap
példány
órán
##ömör
##omi
##nod
technik
##jam
érkezik
legut
Mária
2004
46
##őzött
Balázs
egyensúly
##lme
##gondol
##ásoknak
2005
##gond
elnevez
##eztek
élt
##pát
kezdődik
##éti
Mon
##zését
kilát
színház
##almát
folyadék
rang
##attam
rugalmas
állapotban
üzenet
##jármű
letölt
Inter
krón
illető
##fehér
városi
##emben
vettem
38
##ódni
tagállam
##feldolg
Színház
##perc
többség
utat
kreatív
kért
szezon
helmint
érett
##tárg
##tra
Fog
bút
ves
Vannak
##ken
##róf
kikapcsol
adatvédelmi
párhuz
magyarok
nőtt
olimp
intézmények
Ex
könnyebb
##esett
##jav
##usi
média
példa
rendelés
lámp
Emellett
##agan
reggeli
tiltak
##iratkoz
Imre
##avart
szek
##imnázium
bekezdése
##asonl
végső
##atú
eljut
búcs
kéne
kizár
##90
változatos
szoftver
megalap
mennyiségű
##odat
tájék
megnyit
##ilk
##gazdaság
napra
##dély
tuds
jelenik
adós
##omba
elfele
##ezze
élményt
árny
megbízható
##állító
laz
határozott
##cel
tudsz
története
vezetett
kommunikáció
kapta
biztosított
létszám
mindennapi
##szövet
##zelem
##oid
elkövet
szál
Ezután
testvér
Eur
##játs
##telefon
pályázati
népi
##llát
##legesen
értelmében
La
##éseit
##hettek
##ogat
Vissz
korai
##rajz
forintos
##ségeket
látott
átvétel
kiemelkedő
kötő
heti
graf
##ater
biztosító
##embe
biztosítani
alternatív
##álva
ten
román
udvar
tétel
meccs
mindegyik
húsz
##mát
ned
Egészség
Aut
Joh
Társ
##ancia
időtartam
u003
##forrás
bevétel
##fejlesztési
legalábbis
webáruház
megszabad
címe
til
##mos
legend
tekintettel
görög
parancs
szür
látogatás
szokásos
##70
##rog
egyez
kérdést
kes
##ini
400
##uni
melléklet
##ájára
##barát
bocsát
értem
tényező
##puszt
repülő
##ségeit
##kezik
##tenni
szabályozás
Gyógy
##zuk
időre
megszokott
##jtemény
alapú
##lve
kelt
életében
##ikó
##rab
##AD
meglévő
érintő
vigy
ch
mozdul
megd
előfizet
Tóth
Cl
márk
##ozva
##reg
##ükben
szerelem
##aktérium
##ows
##üsp
Ág
##mad
kerültek
##nák
levele
kiegyen
szerelm
szeretném
válassz
email
##csökkent
kétség
hip
kapnak
érkező
##jától
működését
##ásai
ismeretlen
szik
##öngy
##zek
lehetetlen
##ásokra
államtitk
##dei
Li
Miután
pol
##velt
##elv
##OG
csodálatos
készítmény
##olást
##ccse
Gyermek
##zól
gyalog
díja
Volt
Fogy
olvasható
##kapcsol
rendben
##kar
Béla
szabadon
##ábban
mást
osz
##ásd
Gyula
##ulátor
##omó
##jesz
végére
írni
##allg
tál
150
vize
##ításával
Foly
##donság
világot
rendszerek
fent
##ítettek
Köszönöm
elől
##SÉG
éreztem
teny
katonai
fogják
##ületen
abba
válság
emiatt
drám
org
szervezett
megbeteg
valahogy
##zetett
##zések
##ree
Sőt
##helyet
##állási
fejlesztés
kocs
dön
teher
ugyanúgy
fölött
##ferencia
vis
##ulását
tanult
bejelen
Például
##essé
tó
##ziós
kimond
személyesen
##ációja
elégedett
érzi
##bet
kel
##akoribb
közelebb
piacon
háztart
Néz
##40
##dvöz
Át
közremű
automatikusan
##élte
2003
##követ
fajta
alapvetően
##ozs
##mir
02
##ítésre
betölt
##ulajdon
legs
##mán
útm
emészt
##jába
keleti
Bi
tanuló
motiv
ásvány
##ipari
élnek
intell
pénteken
Any
##lyes
számtalan
színek
##ártya
Man
megjelenő
foglalt
##worm
49
megegy
magatart
Polg
senk
Ph
##oknál
karban
előtte
kedvező
##oxid
##set
színű
követelmény
##itek
ék
##anyar
betű
állomány
##helyen
##inkat
védelem
közeli
park
##ségnek
áldoz
kezelt
##eszte
##lenek
nyáron
##csill
##éria
megfi
részéről
feletti
magában
dollár
fogva
rosszul
##úny
##ormon
##ret
fejezet
szűk
##képp
##fény
méh
Tibor
##itis
##oy
pin
soroz
furcs
véget
bánt
##anapság
múzeum
##fer
terén
verzió
##ájával
rakt
Jelenleg
alapanyag
##ísér
látogatók
innen
írtam
MSZ
repül
trans
Ap
##fesz
emellett
funkciók
Kat
értek
##pedig
jelenlét
##sorozat
törzs
Ilyenkor
##bél
##ségre
cit
tudat
##ica
##emi
##vező
##ítse
##alizmus
kávé
Sokan
tűnt
korszerű
többnyire
##ign
következik
dolgozott
forgalmaz
spanyol
végző
bekövet
káv
Budapesti
mellet
rab
##éllyel
37
támogató
##hivatal
adomány
##hiány
harminc
##zték
hig
szerkeszt
programot
##rát
baleset
kezdődött
##netek
##ásba
##zög
##letesen
munkáltató
55
##ítettem
konz
elutas
##DP
Aján
##ozását
kombin
körülbelül
##őn
Szép
legmagas
ábráz
viselked
maximum
részén
##ciós
##köny
Közép
tudatjuk
##ülek
konferenci
amin
##ikusan
##16
alaposan
többsége
##évé
fejlesztése
##óba
mondom
kultúra
sziv
világbajnok
körű
##kő
másfél
mak
##édia
##tárgy
folyamán
Ezeket
Erzs
kényelmes
katolikus
##szk
édesany
##ényi
jég
komolyan
##ipar
##eszköz
jelentőség
lélek
kezel
dom
szel
korosztály
merevedés
főként
látsz
valah
Gal
amint
##emen
leggyakoribb
##ood
védett
gr
épült
Három
##burg
eb
hatású
péntek
figyelmét
kamat
Mindig
tekintve
átt
profi
##álóz
rendkívüli
szől
##üd
intézkedés
ritkán
miként
03
szeretnél
##felvétel
alkalmazás
kifog
05
mechan
Rák
hozta
##utal
##osszú
##atika
török
##élő
##uzz
fejlesz
eszköze
Akad
étkez
##őtlen
leírt
világos
##astr
mutató
hete
folyamatok
alapító
összefüggő
vonatkozik
##hatékony
voltunk
##cím
##apasztal
megállapod
páros
egyenlő
##ight
személyre
weboldalon
játszik
tavalyi
##ségű
##ona
megter
legmagasabb
Bizony
születés
művészet
##kelys
baktérium
##ezzük
évad
intézkedések
munkáját
címet
eszt
felnőttek
ször
helyszínen
munkanap
47
használatával
ugy
##pénz
körbe
##óként
fizetni
##szeres
zsidó
megterem
##80
melyeket
erkö
mostan
fak
Mad
hozzánk
pálya
##millió
##ságos
süti
kapcsolatok
##17
##telezett
hamis
husz
technológia
nyár
hozza
Közös
##igazgatási
írásban
##helyi
##zött
munkaerő
##izálás
kiválasztott
mellékhat
75
##attart
nemrég
Szabad
életem
##bra
mág
összefoglal
képző
koronavírus
elszám
téren
diákok
találni
Eszt
43
tanús
##ÉP
rájuk
utazás
##köt
##íthatja
jók
ellentét
##level
adnak
##14
##ésnek
kivon
##land
##ászár
római
##ászok
visszér
##örög
##nter
mem
##vebben
##ned
##agyulladás
kibocsát
##AB
összegyű
amellyel
szokás
hor
dics
mozog
Bék
küldött
megkeres
vacs
##kl
önmagában
Emlék
##ane
kitart
többé
másrészt
kattintva
Élet
##vetett
07
##ságok
##itor
##ekkora
##század
áttek
elsőd
##meneti
potenci
közelében
onnan
fokozott
##hull
férf
##berg
veszte
kielég
Tisztelt
Ste
karbantart
termékeket
##zást
##oldali
javasolt
Szerencs
tüdő
évet
##24
##ónia
méltó
oldalt
igazgatója
##gő
##atkozt
Adatvédelmi
CS
kiadvány
ismeret
tetszett
számukra
##orna
fejlesztési
táplál
támogatja
körüli
##művész
##lege
##15
immár
ügyfel
fü
NA
193
##szin
##car
Vásár
##ózás
újdonság
##tess
résztvevők
ló
##szert
##éje
sérülés
véletlenül
Koss
Ebből
villamos
hajó
só
krónikus
##shop
##ködő
szeretem
eltelt
gyár
Szövetség
szombaton
##ítsd
##inél
##sejt
Csaba
ennyire
környezetben
##bl
##ola
##nevel
##lések
összehasonl
konflik
megmutat
##endő
##ota
szag
szórakozt
sav
Arany
Kormány
##osító
közlemény
##özés
##öbben
elengedhetetlen
alacsonyabb
lelkes
man
kezdte
kerékpár
teljesítés
nyilatkozat
csökkenti
alapuló
órát
2001
##obban
egyesület
##ekedett
anélkül
39
városban
##arch
tág
##áram
migr
szállod
##olv
statiszt
órás
telefonszám
kaptak
Minisztérium
egyedülálló
##out
##esi
kitölt
maradék
profil
##ukban
##adat
idősebb
Ád
Ember
Kossuth
férg
lehetőségeket
előnye
##becs
felaján
##ságának
##fogó
##ébet
Fotó
##60
##edd
##NK
ezután
##olland
forduló
nyaral
Csal
##fia
##rág
passz
kereső
fiók
##ose
Gu
keresni
##bér
munkás
##odra
##ÜL
ox
mor
##korú
Jele
##érdek
melyben
főszerep
##ovjet
##őknek
KÖZ
kirándul
foglalkozik
országok
##ításában
obj
##étes
adatot
##atható
gyenge
##özött
##US
áldozat
feje
mindenkit
##cselek
életének
Horváth
tartalma
egyike
##irodalom
gól
##latok
##eit
##kert
##lyenek
életre
dur
rokon
részvény
##rik
szabott
##íróság
kapható
USA
megye
##term
##gyűjt
Inform
##osta
##vándor
##okrá
elfogadja
##ügye
véve
##25
sorban
Lak
##atási
AL
beszélni
rendelkeznek
minimum
##gely
változások
Sim
##szeg
éjszaka
##arkas
vizsgálatok
##ekbe
elõ
##vely
##nének
Egyébként
##ményt
kíváncsi
vezetői
számot
nar
kiszolg
megszüntet
árak
fl
##jei
##üspök
##olók
lat
##mint
##örtön
fizetés
abszol
Felt
segítő
kézzel
futó
régen
azonosító
##tud
##oktatási
szop
blok
Pro
##úzt
mindenféle
sör
##atva
##idebb
##oma
évfolyam
elj
ri
##ellenes
fontosabb
Szil
We
kapac
teremt
négyzet
##cskem
bizonytalan
útvonal
plat
megbesz
kérdések
legsze
##idejű
##tori
szombat
##ménnyel
##ale
Ért
##émiai
Használ
trend
transz
##ncse
XI
nyers
napokban
évforduló
dátum
##szob
parad
szálloda
jövedelem
foglalkozó
ráj
##asd
előírt
04
##beszer
akike
értelemben
Érdemes
IP
japán
alkalmával
rendelkezésére
Test
##ossá
testi
Francia
átlát
éles
Gondol
Cél
kialakult
megfigye
fia
##ps
partnere
##led
szoba
könyvet
percig
het
szakértő
##MI
beleértve
vásárol
vonatkozóan
lakos
költségvetési
köszönt
felek
terhesség
hozzát
nyelvű
büntet
adatbázis
nagyszerű
##erület
nemi
##tartó
vállalkozások
alapja
XX
beér
mentén
tanulók
irányuló
végleges
##rot
lő
férj
hátsó
hormon
optim
##csal
kiterjed
rádió
interjú
anya
interneten
Haj
##astély
##háza
Con
alkotó
Szé
##rajzi
GY
##vezetés
Erzsébet
polgári
utcai
Pi
klin
helyét
IN
beáll
színe
bonyolult
##odó
##udit
osztrák
érdeklődő
##ulhat
eléggé
ízület
ezüst
tartomány
elterjed
egyrészt
Akár
Str
tize
hatást
##üveg
hiányában
##csat
versenyző
imp
gyull
Önt
garanci
Azon
isten
##kelysömör
top
mára
éneke
fős
strand
köszönöm
##13
##eráp
##iszter
akiket
Ját
rosszabb
igazol
##közelebb
##teget
##erceg
események
ránk
##ceni
##lenes
##ikon
feleség
##ys
pihe
kaps
190
##növény
mosoly
legkisebb
##ítsuk
##eztük
megköt
##szög
##esebben
hibát
##arak
kapsz
egyén
rendőrség
különböz
globális
##okk
drága
megfizet
alkotmány
##asszal
világháború
bátor
kislány
normál
tem
páp
Kult
őszi
természeti
belv
ellátott
célra
felszín
koncepció
##igen
kezdeményezés
emelked
szimp
híd
Haz
végéig
sűrű
vicc
##ili
úgyhogy
##iszta
sajtót
Nos
felejt
vall
Ah
##lla
magával
nyelven
gon
##hetősen
##edni
mérete
érzelmi
##mes
képerny
tájékoz
feled
találkozt
áttekint
##váltás
források
megkönny
nyilvános
##szolgál
összetevő
##vál
##ÉT
ritka
elemzés
segítenek
##ÁNY
hatósági
##arúg
illetékes
párhuzam
álláspont
megszól
##ednek
lettek
televí
diagnoszt
56
ügye
leány
GDP
futam
építő
minősül
Fele
##lang
legfőbb
2002
árnyék
##állítása
amelyik
##alommal
jönnek
Vesz
gumi
társas
dagan
ellátás
fogalmaz
bennem
Annak
tanév
iv
helyén
biztosítása
##atra
##hegy
hétfőn
hozni
album
következmény
utóbb
##alit
##úsz
feladatokat
beszámoló
nézni
kincs
bolyg
hajlandó
olcsó
65
minimális
projek
Wind
találtam
##000
esküvő
kihasznál
üres
prakt
##yárt
Forrás
déli
##takar
pop
alkalmazható
Idén
asz
gyomor
##kát
könnyedén
lennie
másodperc
erősebb
1000
##asztott
parlamenti
Arra
##bolt
##rol
##álok
látta
York
felelősséget
elny
##rier
Egyház
##örténeti
##uty
köszö
elme
napjaink
használunk
Weboldal
hallgatók
trag
##lé
##llal
odaf
ügyfele
művészeti
keresked
##viteli
##lue
legszebb
eredetű
##oldalú
izm
pontot
aláír
##itu
##adását
##vizsgálat
##vének
##mik
zuh
Győr
időtartama
énekes
fennáll
##tettel
##ztek
divat
##költ
Anna
tojás
temetőben
##nyug
nyomás
extra
kettős
méreg
##ükre
végezni
##élelőtt
kifejezés
##rác
megnevez
készíteni
##ÁM
##UL
ismerték
##iny
kocsi
robot
##ÉL
kutatók
eredményt
##ÉSZ
legnép
mondott
##bre
Magas
##azás
műfaj
elképze
kedden
jelentkezik
##sék
meglepő
##angél
##áink
megszűn
##vette
segéd
feltár
kérni
előter
publik
##ótól
távon
Port
##mérő
lengyel
Jól
##helyek
szerdán
##ÉNY
fogyás
##eztetett
On
fertőzött
aránya
csaknem
véleménye
##milli
máris
felm
##aktív
##ali
változik
bizonyíték
##sük
ered
##íten
számát
mezőgazdasági
évszázad
akartam
összhang
tartanak
dup
MSZP
##fürdő
AD
##terület
##ítéssel
kommunikációs
PR
kortárs
gyülek
Fehér
kínálat
##ement
##öndíj
létrejött
elhelyez
ütem
hasz
próbálkoz
##cska
illeti
Katal
##áljuk
oktató
Miskol
olvasni
közlekedés
##urt
##SÁG
gombra
Mat
kapni
Park
azután
megállapodás
##intézet
##ítheti
##össz
büszk
Co
régóta
labor
##kezelési
füst
felk
##aszk
gerinc
App
##ton
Cent
hatását
##mét
belüli
Debrecen
##IL
##nemű
ugyanolyan
rendezett
Amit
hátter
vén
##press
nyugodtan
szerez
szívvel
kiszám
hiánya
meglehetősen
kisg
akarnak
##ésekkel
##ítással
körülmény
teli
egyidejű
##vére
fáradt
nyilvánvaló
##más
##ételt
induló
BM
hátra
tri
anyagot
kialakítása
##lép
##kárty
##csere
változó
járul
amelyen
tv
tevékenységet
ton
megsem
támogatott
hatályos
Teljes
##kelt
étterem
hihetetlen
ret
##lésre
##iról
érhető
hibás
Kiss
közölt
sark
emberiség
##művészeti
könnyebben
Vid
ebbe
##óf
csütörtökön
##igény
ágaz
##IA
##ezs
Szi
üd
egymástól
##hatom
táplálék
ciklus
alkatrész
börtön
jöv
dinam
Nyilván
szakm
##leve
##bol
Össze
ügyben
filozó
vízzel
##ezetes
lege
Kál
fogok
##ure
Év
közlekedési
rózs
##ítan
##telenség
##TAT
Dun
gépe
##ube
épül
filmet
poh
##llesz
mand
##ómi
maximális
cigány
joga
környékén
ce
ismeri
##fen
Gi
Kiv
kataszt
mas
Pénz
kisgy
jelzi
Köszönjük
elment
jótékony
##we
legr
győzel
##spir
gondolkodás
##sé
rendelkezés
éri
elfoglal
##csomag
pedagógus
kiadó
elolvas
Törvény
szerződést
##szel
Os
nyomon
értékű
##onként
tulajdonképpen
káp
fájdalommal
##váj
##ars
kívüli
##húz
##vizsgál
szokott
virt
igénybevétel
kosár
##ÁT
net
##lán
költségek
váz
nappali
ellenk
sző
##értek
##lay
állampolgár
bármelyik
akkum
eladó
ál
fogalmazott
csütörtök
álom
##ordin
kital
##odni
##kit
##étlen
##ré
ellentétben
##műves
amilyen
nincsen
lend
kozmet
indított
megsemmis
euró
legközelebb
##éljük
elfogadott
akarok
könyve
##ergia
prosztatagyulladás
##kány
##23
jóváhagy
Jan
##érz
zajlik
##tend
megoldások
##ezését
##ükkel
vidék
tárol
felesleges
domb
##icit
Bő
##jához
átmeneti
##beszéd
20190
##váz
szemlélet
120
vettek
EN
lef
Elm
otthoni
gépjármű
esti
Art
##ionális
pak
előfordulhat
##ulást
csapata
##korban
strukt
mindezt
szeretettel
titkos
##48
##uf
##hög
befolyásolja
magára
okok
##hozatal
nevében
##zésen
mérg
állítja
ételek
egyfajta
tartom
##méter
vendégek
recep
páci
##léssel
kutatási
trén
sür
szerencsére
##vös
eredetileg
Sal
alapítvány
pillanatban
##hette
##umok
megjelenik
##estere
Hiszen
Ádám
##ósz
##dni
telt
##timal
telefonon
##ley
abszolút
feldolgozás
csapatok
klím
##édi
##ikák
Ab
összeget
prot
tesztel
titok
Mindenki
kab
megfogalmaz
##berális
szabvány
##mozg
kilép
jogviszony
forró
rendszere
Olasz
nálam
##telő
fogunk
##erme
Gyakor
távú
adatainak
célt
képzel
Pal
termel
##aki
szélső
alul
##ségen
##zene
valahol
sikert
hajnal
tisztában
tartoznak
##opron
illesz
##lemez
##zige
##ucc
működési
tegnap
elsődleges
##sek
kezelhető
Hét
##zül
bőven
karácsonyi
tipp
##adási
Pa
Közt
ígér
##olf
matem
Éppen
reakció
esetek
fordult
##gyárt
félt
dug
macsk
##éles
bűncselek
legnépszerűbb
##égzés
komment
cé
infr
##park
beval
dik
##ipt
##ességében
##lit
##férgek
##ésekor
csoda
ult
függő
##jteni
levő
##anna
várják
kiköt
##RE
nyúl
pályán
##színű
honlapján
szoros
Számos
##ball
##fest
érinti
Hozzá
Szomb
bí
bün
Alk
megnyug
környezeti
használjuk
jelenség
Ide
Ismer
szapor
homok
magazin
Besz
viszket
##pád
sikere
honlapon
##rád
mondják
##ams
baba
##odnak
ismeretek
##ardi
##óv
gó
ötven
res
##őri
##örténet
##így
Észak
sáv
##udi
választani
energiát
szereti
##attan
git
felfog
sal
délelőtt
berendezés
##éző
Víz
szlovák
játékok
pikkelysömör
##ness
kerülő
##verz
szervek
##kedelem
Gergely
##lót
kijelző
##jaként
1990
mennyisége
##onc
##éma
ősi
##arnok
korban
Varga
Gar
zavart
##aidő
rendszerben
döntést
médi
eleget
jellegzetes
szerepelt
magáns
pál
címre
illetően
hangsúlyozta
olcsóbb
jelentkező
lez
változott
helyzetet
kapunk
##tári
folytatott
eszközt
ezeknek
Mély
##zag
Windows
nyílik
Önkormányzata
játszani
utólag
##ezent
szomorú
műv
##források
Vállal
Ham
##jek
köre
fekvő
felszám
megít
##ácsi
##cske
szárny
érin
konzult
41
##onstr
fókusz
löv
érthető
következménye
áru
sárga
amiért
helyezett
veszik
Ellen
lejár
rögzített
hétvégén
##astrukt
leggyakrabban
Hang
kérdésre
##END
##sereg
##atom
másol
##irt
##isztikus
##ességét
mindannyi
ugr
árfolyam
Rob
to
##okratikus
bejegy
hivatás
tisztes
növeli
sért
keress
##unknak
Fáj
fokozatosan
szemmel
##fort
lánc
győzelem
sajátos
##eml
pinworm
##ozzuk
Míg
túlzott
##res
tok
kihagy
térség
##hű
mez
meglepe
szerették
tönk
extr
szög
dolgoznak
címen
területek
99
##lab
képvisel
Mart
##yelv
tartoz
##szünk
nyitva
##alitás
##lic
Mer
lényege
##ékely
NEM
hónapban
##hő
##its
##hattak
##ác
várhatóan
Pat
vidám
##tatott
##alis
##illa
irodalmi
egyeztet
##árgy
láng
támogatási
##abbak
világszerte
irányba
sokféle
sug
ref
##onyi
hétköznap
kivételével
növényi
##mot
valaha
##26
pil
Mindenk
áruház
##dalom
##veszt
gyar
tavaszi
vesznek
##EGY
ilyes
Ők
épített
burkol
##no
##prof
eredményeket
dar
tekinthető
Zsuzs
##iségi
olvastam
text
##íd
##údió
hagyja
Árpád
ik
Jelent
záró
##zerv
vidéki
elpuszt
##ript
musz
következők
nehezebb
FEL
ellenáll
ismétel
században
##lyal
platform
hatóanyag
elkészült
##különböz
th
ból
jogok
##ásuk
##itást
útmutató
számol
Vörös
sima
simán
her
##assuk
építési
##ins
módszerek
##ahagy
technológiai
Pest
##cell
tevékenysége
okai
##eztető
Katalin
Ügyfél
elért
Személyes
ly
tényezők
As
harmad
címét
bátran
##alizál
admin
kinek
US
megjelenése
Korm
készen
megvizsg
esélye
dolgozók
nyomán
adatfeldolg
lágy
lásd
északi
esztét
##oth
felől
évében
támadás
jogot
##ítésével
örömmel
hez
Ír
hábor
szol
szintet
tanítvány
##ővel
védelme
54
herceg
derül
OK
olykor
fék
készülő
szerkesztő
##iszerint
alud
elhatár
elindul
fogom
családok
halott
srác
rág
Szerző
Ing
tervek
mg
fázis
##EV
##EF
megtér
furcsa
##ino
adóz
EGY
választási
tartotta
##znek
generáció
180
kapcsolatba
hüvely
##top
##gazdálkod
kísérlet
##ÁZ
##vevő
##házban
Üz
mondtam
házasság
kastély
kritikus
beszélgetés
polgár
jelenl
hetek
Szabály
okozza
sm
##szent
tápanyag
Lond
ötödik
EP
Oszt
szabályzat
lehe
##egener
miszerint
írásbeli
rát
##nökség
##zunk
bud
##kedni
drog
Nor
századi
csavar
alkalmazkod
mekkora
úti
eljárást
tevékenységek
megelőzés
##szál
bul
alakú
élvez
bok
nektek
##RA
##ográfi
##edést
tették
##tetek
##lődési
középiskol
szeretnének
adtak
##ítésének
jelentés
mutatkoz
##rán
ús
gonosz
##párt
kiindul
autók
rock
meccse
tanú
vállalatok
munkakör
medence
##izni
##jéről
Kapcsol
##kereső
fes
##zá
összefog
##iker
látványos
szemét
##OD
cseh
határozza
Szerencsére
igy
Egyszer
##rény
##iden
##rac
95
munkája
csel
heg
legkésőbb
hazánkban
Pető
várjuk
idővel
##milyen
tudták
bors
##szolgálat
szele
##harc
egyházi
kezelési
ellenzéki
##zór
erőt
lebonyol
##AZ
##360
statisztikai
kezelést
lop
##ÁLY
##ath
lehessen
##teit
moder
valakinek
##viv
gyűl
##olására
Eddig
sajtótájékoztató
Andre
elsaját
túra
adják
jövőre
figyelni
Németország
##ozható
életünk
Szen
homlok
fűszer
demokrá
##múlt
lényeges
nehez
képeket
értékelés
##ilkosság
vadász
származik
felszív
kontroll
elár
##IV
fiúk
##ressz
ebéd
sík
bőrt
EK
hírek
veg
##ivat
mértéke
államtitkár
Játék
##osi
folyik
##ölteni
üzemeltető
Közben
##obbant
85
Tudomány
CD
##egyetem
1999
Éva
vegye
##vélemény
szorong
##almú
##ky
fantasztikus
láthat
költő
citrom
nyelvi
Bib
politika
##zemély
Vajon
##ÉN
##nyezet
nemes
mese
hónapos
szán
napok
terror
hím
megkülönböz
manapság
hiányzik
szereplők
leírás
##ülést
##anda
##ásainak
##asztok
szépség
bajnokság
##ópály
##IZ
sikeresen
ügyvezető
##vent
versenye
##abilit
##pill
kak
vél
##fert
nevezett
##ogatott
Biztos
fűt
bútor
ajánljuk
labdarúg
##vállalkoz
éjjel
évesen
##osis
témában
##pontos
állandóan
spir
alapul
tőke
parlament
eleve
##ikája
##use
Vagyis
##üh
##ánkat
képvis
részében
mutatják
##istály
##avig
##27
fejlett
##ülése
elismert
területeken
##pótlás
szakma
dekor
holnap
terve
támogatása
##mod
informatikai
##csem
kiadott
##három
látjuk
összeköt
számla
bev
módszert
##marad
felszerelt
játékot
intenzív
##jukat
iskolában
Széche
csomó
##politikai
küzdelem
##övid
kijelent
termés
##eredmény
lehetőségét
törlés
azonnali
előadó
megad
készülnek
használati
állomás
##por
##detett
feladatot
Fekete
sztár
##ossal
hárm
talp
Márt
##asok
tehetség
kategóriában
fris
##dönt
##kák
ugyancsak
nélkülöz
képen
tető
tudtak
##jogi
szénhid
felvon
egybe
forma
lefoly
összege
##bizony
gyűjtemény
ajtó
gondolt
##ütés
##ÉSI
##ger
támad
sorrend
végzi
Tur
emelkedett
kezeli
mutatott
tanulni
Tri
Legyen
figyelemmel
kéri
vezette
##nó
Rád
eszembe
##mentesen
szavak
szürke
##képe
Általában
szövetség
távolság
##ph
Max
kenyér
bű
megfigyel
változtatás
válnak
teljesítése
lit
elsőként
kosz
korlátozás
##iel
##őkép
márka
kegye
lux
Szív
elvált
folyamatban
akkumulátor
ké
értékek
téged
visszaje
visszajel
##iet
Kol
elmarad
##lam
vízben
gyereke
közepes
##gyűlési
menedzs
választék
rut
megválaszt
ani
##láb
bány
porc
##űek
jöttek
karakt
genet
méz
##kul
produkció
kormányzati
szünet
##iák
csípő
időjárás
másnap
kialakított
##osztás
enni
Mely
illeték
immunrendszer
jogszabályok
fogyaték
##atossági
hűtő
forradalom
püspök
##hont
##üszö
beszélünk
hatékonyan
inspir
##28
észle
##TP
Széchenyi
vizsga
sí
raktár
jelentett
##illent
infrastrukt
széklet
kanyar
##ismere
sérült
Később
mindkett
250
Segít
##kezési
jellemzőe
jellemzően
képessége
iP
##menet
##arend
rém
Lengyel
részletesen
ront
útjára
modul
##ENT
Tám
Kárpát
##esetre
kif
Pály
##papír
szeretett
##verek
merev
kellő
##szár
vaj
Mil
SE
kint
##hálóz
befektetési
befizet
szerzői
fenntartható
Tény
ünnepe
Ahhoz
követi
székhely
éjszakai
ünnepi
ilyet
##olnár
elegáns
##hetőek
##asztás
paradics
##vágy
anyuk
##állítani
iroda
##vad
Ro
##arett
használnak
duzz
visszaigaz
nyilvánosságra
Kön
##atórium
##ttó
##piac
##élyebb
foltok
amiről
##ainkat
közigazgatási
medenc
##ítottam
MEG
##iga
##cí
ítélet
elemek
Hotel
##ART
hozzátart
elve
##hír
szerettem
##család
##amat
értelme
igazából
Azok
##férg
váltak
Gyors
Szeged
##29
növények
##zõ
Továbbá
##téri
##zim
##nöki
ru
tudomás
mondan
Szerződés
##kök
eredményez
##dög
app
Érdekes
mért
##áinak
naps
##esztett
ahonnan
jöhet
tesznek
##cium
szub
tettek
Anal
találtak
számon
célú
1997
konfliktus
##óka
hatóságok
megmond
felesége
Mic
tar
koordin
Fer
##abbá
Hagy
jén
##zte
##UD
kezdtem
##bo
##aszám
64
##yi
vezeték
##állomány
zöldség
általunk
Cég
hozzájuk
Elég
produk
külföldön
##őtől
##ukk
tegye
költségvetés
fu
adatkezelési
biológiai
##ölő
Abban
felbont
félelem
##ítsük
vásárolni
völgy
biztosítási
automat
időn
egyszerűbb
##uta
páciens
##felt
##ásokon
mailben
lista
fogjuk
Egyik
End
romant
Öt
szég
kórok
Her
##éget
##íthatatlan
olvassa
madár
gépek
Bak
##fejt
##bal
vív
válaszol
jelöl
öltöz
járnak
folyton
találkozó
összetett
számodra
##tük
Judit
párhuzamosan
la
megtiszt
cége
viselkedés
gyászoló
formája
##ipp
megtes
##yors
met
##ano
sajnál
##szerk
##galmas
##ric
jelennek
##gát
Dán
Fél
megmut
belváros
egyenesen
##abizt
##üszöb
##ikk
##fól
szőr
Oper
##otikus
célból
segíthet
orvosok
óráig
param
aj
kezdeni
rendes
##délyi
##lcsi
vasút
##tete
##IR
mesterséges
##mirigy
borz
felszabad
csoportos
Neked
Nyír
##technikai
##ovics
tűn
##odr
Államok
tőlük
szervező
##asson
##assák
karrier
kering
##dob
##kocsi
gyanús
jogát
##sebben
vették
##erte
ellenkező
avagy
mértékű
szabályokat
bol
##atunk
HP
élők
eszközöket
abbahagy
korlátozott
##rag
##nyit
##icle
pinc
prosztata
kerülhet
vita
##emre
##zanak
türe
hölgy
Ható
anyagokat
képze
##ons
##usztrál
kism
kiegyensúly
##mm
##inger
bekapcsol
leszek
cigarett
Ja
##hord
##ebbi
Jú
##orit
elkötelezett
tél
##szór
Som
tanácsadó
többféle
##ttük
##íván
Termék
narancs
##usk
ragaszkod
lassú
akkora
##dolg
átadás
elméleti
##őkkel
Fin
##list
##uff
jogalap
600
fájdalmat
eredményeként
optimális
##vin
##tad
professzor
##szül
kitűnő
leszokni
részletek
Békés
eljárások
szektor
vendéglát
##ézett
menüpont
versenyt
átlagosan
Apple
##jatok
magyarul
53
érintettek
főz
veled
középpont
regisztrált
elkülön
##rendszeri
67
##álható
függvény
lépcső
##tevők
Air
##telenek
Veszpr
repr
##bank
szervezetben
szurkol
kutatások
Válasz
tapasztalatok
Hab
##harmad
torn
virtuális
képviselője
HD
tagok
##ilkos
fejlesztések
Rég
díjas
egymásra
HU
##idéz
##fü
barátnő
vándor
##ódást
##önyv
##jesztő
lányok
termelő
##hatalmaz
állni
területi
prog
Azóta
kése
Mér
##akk
vizsgálata
Marg
##cip
nézett
##forma
dir
##üsszel
##álom
nőt
Neh
##MP
##jainak
egyidejűleg
termelés
vihar
időnként
##rep
csuk
##nyelv
akars
sár
barlang
adódó
##rad
akarsz
bezár
Si
##ásból
jóg
mellette
foglalkozni
##ókép
##emmel
negyven
megél
Film
Parlame
hétköznapi
kegy
##vezés
rövidebb
Egyete
##edek
SZER
Mire
értéket
Olvas
##uti
fájdalmas
gyerekeknek
megmarad
fontosnak
összefüggésben
igyekszik
Kez
arányban
##fik
tilos
189
##olhat
felmond
Szt
##üntetett
ásványi
it
technika
##ázta
PC
Mac
konzerv
Egyre
felg
ábra
Molnár
szebb
Ele
57
komolyabb
működött
mindenhol
Ere
formátum
len
háromszor
zsák
##egyet
##ozd
bú
beállítások
us
Hungary
szilárd
nyugodt
gaszt
##onok
##ávid
Antal
##lleg
##fájás
számítás
küzd
fogs
őszinte
mozi
képviselői
kérdez
megtakar
##ellát
Szoci
##ítót
58
fák
azonosítás
hód
megváltozott
újságír
##név
##zéssel
deviz
##eink
Nyugat
##leten
területet
terep
kategória
meglepetés
##ozásra
##tics
levelet
Fesztivál
küldet
önkormányzatok
Jobbik
peri
szervezeti
huszon
##tetési
magánszemély
árnyal
eredményei
59
##kg
##allgatás
gyert
Óv
Szol
vállalkozó
harag
evangél
alkalmából
bajnoki
rász
##járó
Prób
ről
felmérés
eredő
kézbes
puha
Do
kore
##amint
pénztár
egyenes
cl
##lati
Dávid
Gab
családtag
légi
Fig
nyerte
közbeszer
tettem
Bart
teret
erkölcsi
bevándor
illetőleg
##íthat
Koll
Mari
remélem
törvényben
mennyiségben
Géz
##zavar
52
##telés
font
sikerrel
bemutatkoz
fárad
##dens
nyújtani
keletkezett
munkatársai
Akadémia
##éstől
XII
állítólag
##rav
nyíl
##attól
lár
terjeszt
cikke
Sc
hatályba
Karácsony
újj
Tag
##anya
##edve
##VIII
##edések
fokhagy
hatáskör
fővárosi
alapon
##onz
klinikai
olyanok
orv
##OT
##száml
nyál
megyében
##nete
Könyvtár
portál
méteres
ízlés
tulajdonosa
konyha
##ohas
##oldalak
##tetik
##ánnyal
mindenképp
Dok
fogsz
Elek
##ítések
százalékát
beállításokat
halála
##hone
szemölcs
helyére
##ciókat
##ána
autót
garantált
gyakorlás
##ózsa
példát
kártya
megelőzőe
megelőzően
1998
##csillap
köszönhető
Mc
vélemények
működése
##helyett
gyakorlatban
Ur
##ID
jelentése
##ui
kívánja
Part
EM
ítél
fehérje
metr
##iszten
rendesen
Ford
Dav
művelet
illusztr
akivel
juttatás
illat
örökö
gyógymód
Ce
elfogadás
konstr
##BB
John
földi
sej
tisztán
bevált
végtelen
adminisztr
érdeklődők
felfügg
haladék
elhang
község
##itása
előterjeszt
mindazokkal
vezérigazgató
##habilit
##ünkbe
összegyűjt
##usa
hajlamos
stand
ügyvéd
tárgyak
##ilab
mennek
tényleges
Pan
##émium
kaptunk
Petőfi
szőlő
ragad
##űri
Sopron
tömör
Kics
adunk
célszerű
szóba
oldalról
##itől
Cseh
tenn
##dok
##essége
vonzó
kijelölt
legutóbbi
otthont
kenő
##EST
felszól
embereknek
Rende
bírósági
érzék
üld
szovjet
frissen
##amen
##apja
##ezen
győztes
##yás
##ku
Gimnázium
##szerkezet
Op
kutyák
rekord
##vebb
Kecskem
hirdetés
##jetek
többiek
okból
Klub
összhangban
diét
emléke
szórakoztató
##jegyzék
bocs
##jétől
fölé
előadást
##öttek
kérte
gum
##ünknek
##200
##hasson
cserél
szülés
für
megoldani
beszélge
Irod
##atik
Vi
##AC
##érzet
csere
bennük
##odor
##leget
##akép
Elv
##vető
##ízület
szoktam
Col
##oszkóp
liter
beruházás
csecsem
balese
Tar
gyógyszert
ka
##láz
döntése
Online
Oroszország
múlik
akarta
forgató
hozzám
átfogó
véleményét
jós
##ítsák
percben
fertőző
akarják
##teli
költsége
gyorsabban
##otikum
maradnak
##hvg
érdekelt
Hason
vesszük
akarat
indokolt
Tisza
Hold
##ináris
ragy
##ratul
nettó
szűrő
nézzük
kérdő
általuk
munkavégzés
isteni
Annyi
ből
megjelenés
##asznált
szeretnéd
##asa
##ekul
nedves
legfris
##seb
színt
##kelő
##eztünk
Szal
ajánlom
fenyeget
szolgálja
##PS
lényegében
feliratkoz
családja
tartalmát
Márton
ellentmond
##ozással
Németh
Remélem
szembes
kli
##akarék
kapcsolódik
elgondol
élénk
fidesz
##kun
##ller
életkor
vonz
elbír
Lu
sütő
hangsúlyt
##hatok
Bál
##ape
játékosok
öng
San
##aimat
céllal
gyakorlatok
##38
léleg
állapota
Hu
##beni
szerver
##ORM
##irdetés
##AG
Hajd
Dem
##ájába
címzett
felében
képzett
életed
földön
perces
hallott
##ügyminiszter
hatálya
oldalra
megjelölt
##zetek
elveszt
hallottam
legfrissebb
##EZET
bejut
akarom
előadások
menekült
unok
élős
elf
várni
rutin
bármit
adót
kip
tűzolt
szert
Hosszú
##óczi
##amara
töröl
##váns
##lettel
Saját
##tente
állom
üdvöz
##aktor
##lyag
verse
##fejlesztés
hagyjuk
területe
vallási
##lánc
svéd
##tudományi
##rum
tartalmaznak
##ís
Fejleszt
##kednek
iskolák
##ommal
##nyűg
beépített
megtörtén
szabadidő
félév
fantáz
##bőr
anal
lézer
amelyre
##lep
##zetesen
##antól
##ulin
stratégiai
##MS
##article
##dtek
Bla
##vente
mondták
célok
ishvg
##360article
ishvg360article
olimpiai
hagyni
étkezés
nyomtat
Kal
##bem
Kelet
csoportok
##ukkal
Pont
##LT
##veket
ösztöndíj
##játsz
gyűrű
lovag
Párizs
melletti
##rek
kompe
hónapja
##ösebb
kine
tás
vízi
##ációban
létező
gyülekezet
##állítási
rele
segített
kialakítás
holt
történetét
mondat
oszlop
kerületi
tantárgy
láss
Erő
utód
51
##mat
##ajzs
megind
fer
Izrae
##TV
kud
##napos
rendezvénye
kérem
Különösen
##ességi
pohár
segítik
tesszük
hivatalosan
Fl
védelmi
du
##JA
időpontja
tanulás
foglalja
##ozására
ülő
mélyen
amiből
kísérlete
ismerő
késő
fejét
MN
kérdéseket
Trump
minta
vari
##bány
felirat
##aiból
csinált
##ls
kiáll
főszereplő
##ismeret
##ljünk
Kiadó
hold
Kérdés
ugyanazt
##örök
##ülly
##űe
##ozdul
##folt
Mező
Erről
##amer
munkavállaló
pontban
alkotás
szolgáltatásokat
##mester
javítása
csendes
##óbert
következett
kompr
Elfog
műhely
rendelkezések
praktikus
##űen
bemutatása
csomagolás
ken
webhely
kerülni
felold
Megrende
tüneteket
##ékkel
villany
opció
Parlament
belt
szerb
lev
utcán
##apr
hallgat
tartalmak
##pat
mû
költöz
##özi
##EP
##ká
besor
##úrt
Farkas
igénylő
##ASZ
boldogság
csek
##ítunk
merül
Japán
tartották
##onnyal
arch
##ökkel
problémákat
kóst
##ulmány
##ohasem
autós
élettart
létrehozott
érzése
##lant
lennének
##ességet
fájl
gyógynövény
működnek
megtörtént
meghosszabb
3D
##ányos
##isége
zsin
NY
vegyes
legtöbbször
All
állítani
Község
munkan
##apt
tervezés
Egész
Verseny
mutatta
##felület
##49
fogyasztói
megsért
kím
billent
##emetése
mezőny
Kit
##ságosan
##biztonsági
közgyűlés
télen
mindazoknak
szell
angyal
##ild
katal
hadsereg
##ucat
Sa
##ake
alát
fűző
##lésen
fordított
acél
gyorsabb
tabletták
##anni
felhasználása
figyelmeztet
adták
Valós
##jövő
vacsor
szerepét
##http
##hasznú
##erv
##lanak
szolgáltatók
800
##rei
magától
Gond
kezdeti
##szal
##öli
##erget
intézet
elindult
Kór
##ájukat
Javas
repülőt
Gyakran
megrendezésre
Rich
gondolja
##páros
kisfi
##esebbet
országokban
csepp
##éretű
országot
fogalm
csatorna
gab
növekvő
hazug
##utaz
eldönt
adás
##ien
versenyen
hamarabb
##adrág
okostelefon
díját
atom
##ZS
nála
zong
Kulturális
forgalomba
##ábító
Akik
gondoskodik
jelentősége
Techn
##ákról
Együtt
##őződés
nyugalom
##ilatkoz
##ance
kapcsolata
monitor
doktor
béke
érettségi
változtatni
telek
nyertes
megnyilván
##okatlan
##zésre
Tájékoztató
##KÖ
Szervezet
##atér
Tudom
védelmet
figur
##biztosítási
Men
nagyban
##ülési
allergiás
gyerekeket
Szint
##oteráp
Román
születésnap
tartalék
vizes
##zmus
hekt
postai
##orvosi
1956
##ítőt
pusztán
terasz
éb
eltűnt
másképp
vásárolt
Tim
ultra
nevelés
vezethet
kapcsolattart
##ada
gondot
holland
Pécs
bekezdésben
##ismertebb
##ünkön
Egyed
##45
hűt
Mos
Folyam
megrendelt
legke
határon
##68
belek
megtapasztal
adatlap
##ánkban
##uttó
##ÁV
higi
tétele
##műve
szervezők
##hetem
##iszem
##örtén
szövő
horgász
vezetés
##ítson
honnan
LED
##fontos
##atőr
genetikai
##isk
bevásár
várost
képzési
nevelő
##telek
hírlevél
lin
kivétele
meghalt
88
##ical
##fot
##azz
királyi
padló
megszabadulni
##erhe
olyat
erőfesz
gi
##olád
##rogén
szakkép
egymáshoz
tranzak
prop
alel
liszt
##brid
gyermeket
elad
##eződés
haladéktalanul
##lását
1992
##ekven
##ügyelő
masszázs
megrendelő
##ességgel
beszélve
##ásokról
##berend
u003e
amihez
##jedés
alapos
##ezésére
##aszín
##eges
Gl
##iával
##avezet
Afr
horvát
##air
##hetőség
fokozat
számok
tőlünk
bicik
Bab
számban
hüly
szélesebb
távoli
jelző
##tter
##RT
működéséhez
közeg
utcában
Tom
Géza
diagnózis
Néha
elhelyezett
előz
##árak
zené
##redit
húgy
enyhe
összeállítás
intézkedéseket
Cr
lettem
##attyú
derült
liberális
tartjuk
##szen
##IG
kiegyensúlyozott
ezekkel
##omon
Szombat
látják
ÁSZ
szakértők
##zke
téve
##onális
fenyege
##IM
##menő
##ival
##bud
##aikat
egyetért
találunk
konferencia
irányelv
##hozni
##ízis
##étert
##terem
picit
érzelm
m2
forrása
##ojt
érezni
helyt
közti
kond
fotók
fájdalm
##ile
teljesít
nevezte
szerinte
havonta
tabletta
##öbbe
##zere
latin
##izáló
oxig
##ályos
cipő
##autó
Mot
Alex
közülük
##osa
témakör
##onya
Kb
navig
napló
üzemanyag
ügyintéz
cikket
fon
tapasztalata
vont
mal
##anál
DV
##cal
##xe
vám
trük
Négy
hatvan
tengeri
elmen
##gar
járulék
szerezni
baráti
kezdődő
halálos
eszközökkel
szembeni
kiép
bázis
cikkek
##ml
##krán
optimal
négyzetméter
Eszter
zseb
irt
várnak
##velés
##nyilván
politik
szenvedély
fogyasztása
keletkez
épületek
lád
##profit
rendelete
Országgyűlés
enge
Digit
##regény
##táb
66
egyeb
##fontosságú
többlet
end
izz
szakértői
barna
Inn
árul
##adnak
proc
Figyelem
##ékesfehér
##roid
sajátosság
mondhat
ellátó
laptop
##esés
tükör
##agram
##ottan
tenge
##uck
##eles
##ljár
##llel
##alg
hátul
polgárm
kerese
mögé
akarunk
Szegedi
szimból
alvás
##ham
futball
erővel
Veszprém
Form
##unkkal
vasúti
##ael
felsőoktatási
Eng
##latot
co
You
Ágnes
MTA
ahová
berendezések
magabizt
anim
##atást
jogszabályi
bemutatott
jellemzi
Com
pof
##iek
##ála
att
##felelő
Adatkezelési
##yulladás
##ational
lele
könyvek
fogadja
vész
maradni
szerte
falak
mérleg
vállalati
##rie
szitu
bizonyult
esete
irányába
kezelőorvos
sl
tartalmat
köröm
##vélt
##nyomás
ügyfelek
Szlovák
Szinte
szerves
találta
látogat
békés
Róbert
##ításokat
##ária
terheli
meglepet
megtanul
tea
megszak
##onprofit
EUR
rost
belől
segély
##ületett
rendőrök
országgyűlési
Gazdasági
neves
##riai
foci
terjesz
##ling
hotel
##árium
##olya
megszűnt
##tk
Tudományos
Inne
kialakulásának
részeként
ident
terápia
##ttem
jelenet
##ugr
CX
##dődött
megrendel
Munka
készítés
kezelésében
Kan
egészet
vezetők
##ációval
megvilág
##erin
munkanélkül
Ettől
##tél
##hassa
##ient
gyári
##életi
Old
különben
1996
##ömeg
mul
mennyit
szerette
lenyűg
hosszan
közreműködés
Rendszer
##zsák
folytatódik
bennünk
nehogy
Euro
##félék
alapított
LE
OR
Hall
Hiába
autób
eszm
valakit
legmeg
sohasem
##ságról
hibák
tűnő
ismerete
##77
csodás
##lõ
férfit
##iméter
##cer
##delmet
##áf
szükségünk
pillanatok
gyöngy
ismerik
Bécs
későbbiekben
##álatok
tevékenységét
ost
napirend
színházi
##minőség
ellene
##35
kapitány
fizetett
##rosoft
lél
megszervez
bekezdésében
NB
lefelé
Legal
Mich
maradjon
##kán
##hessük
Ink
létesítmény
##áltuk
##zki
dokumentumok
Tra
parkoló
Zöld
hátrányos
megte
sejtek
vállalt
máshol
##ogatni
##EC
##mann
stílusú
##nyeg
##értékű
jobbra
hozzáférhető
megkül
pól
##hold
táblázat
##beszél
fejlődési
kiválóan
hangzik
szegedi
89
##izz
##AJ
leghatékony
hívják
##kes
188
megoldásokat
képviselők
felte
készlet
##ee
##yle
##hős
##valók
##ytics
Szolnok
Ugyanis
tegyük
##afut
szenvedés
##aw
##össég
kapja
Mátyás
lehetőleg
##állomás
beleegy
##hó
Vad
hitele
luxus
teljesítményt
##olását
okozó
tájékoztatja
##csökkentő
regionális
kasz
párkapcsol
Sziasztok
defin
Kicsit
Hatóság
cucc
##élyeg
helyben
Mark
gyereket
szam
császár
tengerpart
eseménye
tapasztalt
ifjúsági
##udvar
##ko
##IC
##tetést
ereje
veszélye
IT
készítmények
változata
szokatlan
SP
kedve
72
ci
adjuk
folyós
megkér
##ódtak
Tavaly
tudtuk
##ősebb
népszerűs
hám
ige
##iport
Jam
okoznak
##ítom
Szük
Vend
##tetet
##ozhat
testben
mele
elvise
járni
68
Sokszor
igények
gyakrabban
##igur
készültek
Kálmán
funkcion
##inter
emlékszem
lakást
felsorolt
hipert
Rádió
##tté
őszint
##ikkel
számolt
részei
pályázatot
próbálja
##ánik
##GYAR
##ogén
sehol
##munik
##pan
kitör
igényt
Édes
kereskedelem
epiz
##arn
Seb
előforduló
##vesebb
Fővárosi
humor
változást
##osak
fiatalabb
településen
Rövid
##atlanság
teljesíteni
kiegészítők
Köztársaság
keresz
nevelési
intelligen
vizelet
piacra
releváns
közelmúlt
##pénzt
mostanában
Mo
útra
bed
##ney
helyeken
Pap
nyilatkozt
##gá
bizonyítja
projektek
kedvence
##milliárd
düh
egyúttal
##hetek
vizuális
##alatt
egészében
ízületek
##aidat
bírt
bent
Közel
##deje
Egyedül
##ításáról
dohányzást
fők
Bra
tartottak
zsűri
##terv
Hamar
jelentenek
##értelm
leírása
Temetése
pápa
##ámat
##ase
u003c
hozzájárulása
##volt
bef
szeretik
Mielőtt
ezekben
pályázatok
##denek
spor
Lesz
##munka
##atosság
##olhatja
ukrán
Semmi
Hasonló
soron
pályára
folyamatot
haszon
ismerked
órától
sportág
hy
Tü
##ésekre
helyzete
Mindkét
kezében
##fájdalom
##zoba
vir
MIN
Máté
regener
hobb
##vén
##eld
fejlesztő
igencsak
környezetvédelmi
##zta
Amint
megeml
##attuk
##gyulladás
nyújtó
dek
eredményes
##tatási
beton
##nnel
Vit
##eztetés
paradicsom
profit
##po
készpénz
gyakorolt
MAGYAR
##házak
orvoshoz
##66
kimer
##tene
Reform
bruttó
##edése
kontine
letilt
munkák
##ekint
##szolgálati
református
tartunk
kristály
##nai
negyedév
áts
##szky
elterjedt
Honlap
szerszám
repülőgép
ígére
földre
lejárt
comb
hozzászólás
csús
pul
ilyenek
##állapot
##zhető
csapadék
Mégis
##édelmi
táplálkozás
Fény
##orld
##élték
szerencse
vonat
Balog
alátám
##jaiban
forgalmi
Szintén
##ázza
megford
remekül
start
ezekre
jelzés
##ekever
##nke
##tatni
összekapcsol
##öbbet
tavasszal
nyeremény
front
egykor
mesél
##ékenység
ingyenesen
##kék
csakis
autópály
belse
##hatta
illik
zenét
korrup
lim
garancia
innovatív
növekszik
kihívás
##polgármester
kevesebbet
ujj
képtelen
##delme
törvények
Soha
újonnan
GDPR
Harm
##egyel
Amúgy
##bíróság
Gyurcs
Felhív
emlékeztet
Simon
##ájáról
tudomásul
##zent
##niük
bib
##ésről
helyszíne
##hatás
történetet
azokra
1989
##vájci
##cin
##ségesen
##odása
Tw
##tanács
##ületes
##csökken
##75
gyógyszeres
radi
##lagos
kibont
keser
Németországban
##úló
univerz
billentyű
filmek
rehabilit
Gyász
Túl
vonatkozásában
óce
Államokban
kiált
feszültség
##andós
##öljük
Intéz
elhal
ősszel
kiszállítás
kiír
megelőzése
Amíg
##ssal
##üzem
gram
##állni
##ózni
##EI
Korábban
hallani
megism
Központi
alkalmazásával
terhes
űrlap
##kom
##áne
romantikus
##rai
tudatosan
kedvel
cukorbetegség
vicces
főbb
nyugat
tucat
roham
átutal
##ketten
Cím
köd
mol
Valószínű
munkavállalók
percet
jo
Microsoft
##véért
Istent
Qu
gyűjtött
egyből
afr
##haz
másként
tőzs
visszakül
kémiai
##örzs
bur
emelt
megalak
kapacitás
ST
Mak
##forgalmi
##dró
98
lényegesen
Bl
##zabad
##mező
##férgesség
védekezés
szocialista
robban
##zom
##oncs
korrekt
Izrael
Igazgató
##ute
Bálint
hónapon
demokratikus
teker
Szabolcs
remél
röviden
TAN
ideiglenes
Prof
##ünkkel
filmben
##ékelt
örökre
##suk
##ívum
tréning
##uly
##nád
javaslatot
érzed
imm
af
1993
Városi
1995
Arról
Inst
temet
újból
hétig
megérkez
levon
általam
senkinek
Alkot
Tájékozt
kókusz
##ködik
teng
derék
export
##kent
lépést
##fajt
óriás
kamera
epizód
##ásokban
hagyott
legyőz
Legalább
koncer
Eger
##művészet
hírlevel
kudarc
megérteni
##ish
évtizedek
házban
kezét
szerepelnek
közvélemény
ideértve
jelek
##iros
építeni
fennálló
##uljon
##kozás
##OTT
Parazit
érezzük
Ho
pane
fogadta
##essék
szerek
terjedő
felkeres
zajló
kerüljön
Dob
fix
túlságosan
összetétel
ELTE
##ozzon
önállóan
testülete
Eladó
elválaszt
Mész
kezelésének
érkeztek
##ament
meggyőző
határa
épülő
##99
programja
kard
hasonlít
hagyta
##ésétől
##kraj
##itco
##own
##delmes
##onald
Önök
##kön
szindró
cseleke
mechanizmus
elállási
Osztály
##hú
házak
buli
Analytics
vese
Brit
##eks
erők
##hozzá
illeg
közepe
vizsgálatot
jártam
vezeti
##jébe
felépítés
##szoba
bronz
gyanú
levélben
ruház
Műszaki
rizs
##ulási
##vak
rendszerint
hónapig
Boldog
##álására
##gős
botrány
##kult
szövődmény
Will
##temet
stúdió
megmaradt
##övetel
zuhany
Kup
##gyel
héttel
játszó
kv
##gyógyász
##közön
Párt
zseni
sert
nevezik
magasság
felét
élünk
##ho
felügyelet
Cor
mozgalom
cső
##44
##rang
Amerikában
##nkívül
##zatot
##biotikum
##bek
##ZAT
felmerülő
Nehéz
##rid
##78
Debreceni
IX
nyújtanak
Zene
hőmérsék
tekintetben
##to
class
hívja
adók
##odást
##kitű
Mal
elcs
##izm
legendás
76
megyek
##fordult
##avi
követni
büntetés
hirdetések
##FA
számító
##UM
MK
##álást
##otin
bizott
Figye
előrejel
mélyebb
##ower
BK
lárv
##neke
##pontja
##fát
dolga
azokkal
minősége
találták
felfelé
##felől
##TK
minisztérium
David
##szerzés
legel
##ológiát
egészségügy
ördög
Emberi
szabályai
helyezés
##asztja
úgyis
elképzelés
##izálni
##õs
tájékozód
népesség
hittem
##ies
spór
Lab
megjegyzés
##működés
pajzs
##utak
##nium
helyesb
felhasználásával
##vényes
##rendet
napjainkban
Luk
##nyen
##fólió
csökkenteni
betegséget
##fogyasztás
szénhidrát
uralkodó
Egészségügyi
nagyság
kétségbe
Csoport
lyuk
diéta
Állami
##tív
támogatásával
jegyében
Ill
kalap
panaszok
##ükön
Zala
Orvos
tanító
ételeket
néme
örökké
fényes
##ácsol
közzétett
elektron
vitor
##hették
##gető
méregtelen
mindkettő
##számú
csomagot
Bre
##csont
##ibás
Pann
Nemcsak
##életet
munkaidő
feltételeket
##ókban
hívta
##szavatossági
ötlete
játszanak
vehető
Vol
##sport
Vezet
##edt
Szolg
jutnak
idege
roz
##ator
##okrata
tők
##okért
##zse
álltak
Vis
bez
##dést
##niuk
Kollég
hova
##jéig
Miközben
növe
paraszt
Spanyol
##ÁSI
visszasz
Mas
állunk
##osnak
szerviz
##oztunk
##zan
csip
##hatatlanul
ritmus
##ézis
sokak
évtize
legismertebb
számolni
festő
##növek
edény
részesül
nagyot
biztosítás
hany
találhatók
##indulatú
ille
##virág
opt
energet
fekszik
kenőcs
##zót
számítógépes
##NÉ
működésének
órák
álmod
örö
vol
##lésére
nyugdíjas
Kiváló
találja
Bővebben
fotós
facebook
megítél
érezte
Gyurcsány
fas
mindenre
##óan
elfelej
utazási
elteltével
##hét
Baj
Nyom
típusa
egymásnak
elvégezni
büntető
apja
maj
jogorvos
Mindegy
elhanyag
##39
Tartalom
tisztaság
lakossági
##tettük
##anyagot
Mod
írták
pedagógiai
gyarap
Máj
##rendelet
fogyasztás
vinni
Vill
parti
##TA
##veszi
##oper
##hel
foglalkoztatás
blokk
##ódása
feltételei
mellyel
96
spirit
##anem
##ativ
szemüveg
érdem
neur
képernyő
náluk
bemutatni
kicser
kérésére
Rákóczi
választotta
nevé
inst
tehetséges
szükségesek
Tor
##alax
##iális
orvost
##áta
feltüntet
##fesztivál
Robert
info
stratégi
felelő
##kereszt
Sy
ajánlani
##készítés
Minél
##összeg
gőz
vízt
Ifjú
ÁSZF
díjak
mus
kukor
##ezettek
keverék
##unt
cikkben
##ikkal
tartalmú
vehet
Sik
kijelen
felmerült
keveset
kimutat
örülök
senkit
Bog
összer
eről
meghir
hozzák
hazud
megnézni
adatt
elzár
árát
szerda
ellenőrzése
hidrat
válhat
##alack
##ességek
##agg
meghatározása
kezeléséhez
húsvét
esztendő
szempontok
86
véleményt
##alizáció
##hetőleg
hogyha
értékét
történhet
##iknek
csatlakozott
vásárlók
ID
lapos
##getni
Rengeteg
sorra
##veszély
színvonalú
kijav
kérdésekre
pécsi
Fal
##menny
kaz
##közép
##BC
odafigyel
pici
inz
beoszt
megtalálja
humán
##izáj
Ev
semmiféle
##NS
Had
hónappal
tönkre
##ÁNOS
pillant
végeredmény
pok
##itását
szé
kötelezettsége
Hid
tisztség
megtalálni
hasmen
fit
##adásra
##46
Csill
eljutt
Ko
NAV
vezére
nézők
##aty
##pa
veszélyeztet
##egyed
Amerikai
imádkoz
banki
értünk
Felső
elfogyaszt
keresi
dall
valamivel
##kah
1994
miatti
##ánok
##inform
##úv
Teljesen
tért
programokat
pontjában
Üdvöz
##esse
##olok
##presszió
weboldalak
ES
Don
egészségi
##CIÓ
##lim
##76
megszűnik
##körű
Tér
szorosan
hónapok
belőlük
bejelentette
Erdély
Dom
mentális
indulás
##uri
##adom
hála
fogod
riport
rejtett
nélkülözhetetlen
szu
magába
végtag
rendezés
##yár
futt
fedél
háttérben
Barát
##védi
mikro
erdélyi
lond
darabot
helyzetbe
részének
kivizsg
Kereskedelmi
javítja
meghaladó
angolul
##artó
Biztonság
hangot
idõ
közzét
ikon
hetente
Hit
mondható
Éle
stratégia
##rász
##láv
adhat
vigyáz
hálózati
megsér
együttműköd
Lov
megalkot
dzs
##uel
Íme
előírások
pen
svájci
medit
##df
Környezet
felhatalmaz
patak
##járat
időpontban
pihenő
megment
##betegségek
csökkentése
##szön
utoljára
leendő
legegy
##NI
Ild
terhelés
##luen
##hetet
##nterobi
##liai
települések
levegőt
##ep
VII
buz
78
jegyzőkönyv
kézműves
Ba
objekt
Név
import
háló
iPhone
##álog
szigorúan
módosítása
választások
kérelmező
##úrát
világában
kiemelte
##óma
Bajnok
felszí
mondunk
tőlem
szolgáltatási
Nov
##ONT
legjelent
mégpedig
rádi
Bem
erősíti
órával
Véle
polc
##áim
olvashat
direkt
legyünk
63
##eszi
leszünk
##jeként
prémium
nyelvet
##ülve
700
Dániel
okozhatnak
##rendszert
Út
Jár
vagytok
Érintett
Család
minek
afrikai
akkoriban
##ításban
Szolgáltatás
##ítem
gondolok
##lona
ponton
gondolni
##ítendő
##egyek
##problém
##áma
jelenléte
design
##használat
kialakulását
fogyasztók
##ásztor
baktériumok
Tes
kís
Magyarországra
##lekció
##lésével
sereg
munkanapon
Egyszerűen
Kína
##edtek
##cher
Mondjuk
Black
hard
##odva
##átorok
Szakmai
hátterében
általi
meghaladja
várom
bio
célkitű
##ultam
##ítésében
testvére
Jász
óvatosan
témát
radik
előrehal
tévé
##uláció
##font
elkap
hivatkozva
kereszte
testet
pályafut
##öll
REND
Bors
tankönyv
zajlott
##kat
Char
ütköz
##edre
##fizetett
Merc
##chi
nove
feltételeit
muszáj
Bizonyos
tot
fur
##házy
##oo
görcs
##ESZ
kedd
##éka
látogatott
##hatóak
íze
szarvas
pártok
balra
##tevékeny
##igens
lovas
munkaviszony
halm
webshop
##nyí
##inf
##pillant
iparág
##zenek
##kodás
##ster
biztosítják
##ÁK
##jtő
##ájából
tüntet
##bár
mentem
ült
londoni
Személy
##kodik
##ínál
ilyesmi
Vegy
folytatni
Albert
##ségével
előtér
lerak
torony
Brüsszel
kelljen
##adására
Örök
Tudományegyetem
megtenni
apa
ételt
izrae
videók
hangja
##ella
Nyíregy
turisztikai
hátha
vért
mész
fuvar
labdarúgó
Lin
##TC
vágott
##ziót
##zky
##éjét
megfont
csapatot
szenvedett
Lass
##ablett
Telefon
filozófi
##centr
##gó
##ostor
megbízott
##79
tudást
szükséged
meghallg
helyezkedik
sokszínű
##ulát
papill
ph
Regisztr
forin
szerzetes
köszönetet
megemlék
előbbi
##iskolai
tölteni
frakció
elr
##azar
Stat
Sár
érzik
elhíz
##kever
villám
##oxidáns
zongor
mérs
84
##ásából
bináris
családban
##ray
közérdek
szobor
##ákhoz
irányban
##ószám
Jer
vezetésével
##atur
##lata
##áskor
állag
bál
inni
hiányosság
##zetendő
##ákból
jelle
bankkárty
##dt
belát
##ÓL
bűncselekmény
Vált
szomszédos
legked
exp
szerencsés
##ozíció
tox
alkalmasak
Egyrészt
kénytelen
##ELL
##getés
kerti
eséllyel
okokból
pléb
pri
szt
szállító
##jelölt
##wood
Inkább
##keny
engedélyezett
##itcoin
követte
cserébe
##TM
kényelmesen
szóban
bebizony
indiai
szorg
kevesen
fűtés
alg
##hetetlenül
kedvéért
gyógyító
##ásától
terápiás
látszólag
házat
##ofőr
160
##úak
megszólal
##TER
mindannyian
rendelt
vok
Otthon
határt
ENSZ
maradtak
használatára
magyarázat
felületen
##vidék
mini
##ikával
kiemelten
Lo
ötv
bolygó
##állom
##ájt
##jjön
OTP
##egész
tünete
nemzed
kellék
Telek
##ítt
tészta
képviselet
idejét
dió
gyulladásos
emelkedik
##anyi
kaphat
mutatnak
köré
Illet
történeti
elkövetett
halt
kerest
róluk
Sar
##érés
King
##állap
testsúly
mani
Sziget
észlel
pontosabban
hetven
##ítottuk
zab
##kocs
ideges
megérd
##étet
##törvény
##nkét
Művészeti
tenden
komfort
ébred
Kert
tetején
##gyógyászati
elérése
szenvedő
##adva
##mart
hatályon
##szakasz
##lesztett
beavatkozás
##négy
kereskedő
állította
Red
megír
##UNK
Rendőr
Köszö
Net
Franciaország
megkezd
##élete
Vásárló
vig
##ilap
##atai
HPV
lecs
mozgást
építészeti
antibiotikum
dolgozunk
##erei
Felelős
lakások
sűr
megyünk
sújt
VIII
üzenetet
Des
keresett
régebbi
elit
##eivel
írásos
másikat
evők
Addig
##uhász
arab
Újabb
Berlin
évről
szakszervezet
So
pog
kormányfő
##hessenek
Láz
jelkép
korán
##hesse
CO
##képző
vendége
##sort
##olsó
##ellness
##onim
Fogyasztó
tölti
Fut
felir
hajd
ih
##nyira
##rét
felkészült
##ital
izmok
Jak
FI
művészi
emlékez
vilag
##hu
Maga
mentek
munkatársa
##jelző
jutni
##világot
##ztük
video
##esszionális
Elektr
83
vizsgált
feltüntetett
##szerkesztő
joggal
aty
rendelkezése
olyas
baz
elker
Pécsi
Mester
Vér
katasztróf
Hen
elít
hangulatot
Református
AM
néztem
legjelentősebb
##almazta
1991
félelme
készítette
jelenthet
bácsi
##oppant
KI
inci
bl
lelkész
##talanság
##olom
keretek
iskolába
##adásával
konzervatív
megteremt
leszel
téved
##levelet
lebont
dimen
kezdetek
jelezte
##usban
Ser
történetek
##őv
támaszkod
##DSZ
egyszeri
ja
##inkron
szertart
##gáz
partnerek
készítése
##fertőzés
tervező
##ategóri
gyakoriság
süte
mellk
irányító
##peny
##agok
érteni
ruha
rajtuk
legtöbben
69
szintje
fideszes
tort
##édet
gyártók
zak
módszerrel
##réteg
TER
hatásos
tudjon
rendezvényen
##õk
##LET
kérdezte
##gett
felvételi
##amű
elnevezésű
Tiszt
ellenében
kál
ismerjük
hatodik
62
csatlakozt
folytatja
igényes
elkísér
##osabban
hálás
##ítsék
adatfeldolgozó
##laz
Michael
##mix
leves
fogyók
programban
##öveg
##yakor
Műve
rászor
##otok
állapotát
meghatározás
lóg
110
házhoz
elfogadni
Pri
őszintén
##ülését
##orog
Diák
Szociális
Cser
##nőtt
Internet
objektív
Előfizet
bére
félig
##rans
##oke
eltölt
teendő
életbe
##ásakor
forrásból
Kéz
fát
évekig
indokol
baloldali
szolgálati
Köv
dizáj
mobiltelefon
ezeken
nőnek
##SE
##mail
báb
weboldalt
##umb
töre
középső
palack
Wi
büszke
##umat
csú
döntések
merevedési
##szag
Bo
##eszett
##nik
bevétele
##atását
Honvéd
tekinteni
Török
túli
bomb
sztori
elérhetővé
Paul
mehet
##űk
kivitel
kívülről
tárolás
hadi
kedvelt
##ugy
##ffi
videót
engedélyezni
##változás
nyilatkozta
tudtunk
##ronómi
IM
eloszt
megrendezett
##forgalom
##bevétel
fogalom
##kerék
réte
ránc
Index
mutatni
Dan
130
előállítás
kezdtek
toll
##ntől
##SH
felr
##irok
erek
tárgyi
##káros
##odtak
Andrea
védi
fejlődése
korabeli
tanítás
gondolta
megírt
megéri
ADAT
barátom
gyümölcsök
megtám
Éj
meghatározza
##avált
elemző
##átri
Hy
bort
##ójában
fertőtlen
magyarság
##tiszt
engedélyt
rúg
MI
gomba
fertőzések
összehang
##ekvenci
##anács
Mód
szintre
Polgári
melyen
74
##ajtó
kisgyermek
##ulta
Kezd
ess
##éséről
tipikus
találs
jogosul
találsz
származású
##cuk
elküld
rács
mocs
##adalom
aggód
##ügyminisztérium
##ESZT
jutottak
autóval
töltő
fogalma
szerződésben
unalmas
jogsért
Vendég
kisb
##nát
csokolád
debre
hajlék
rö
napelem
reagál
USB
##politika
produc
##emelés
##zil
tárolt
párbeszéd
##izálja
ugyanazon
környező
##ókra
##BEN
opciók
Eset
dinamikus
##aihoz
lok
éd
sós
elhangzott
megbetegedések
##yt
élettartam
közösségek
teszünk
Valami
gondolatok
finn
összességében
bűnös
tisztító
rovar
kávéz
ékszer
##cei
javítani
útja
##vettem
Ezúton
elvileg
Mészáros
órára
szövetségi
gondolkoz
kuk
mérkő
##atainak
interj
demokrácia
##ottunk
világhír
##útáv
##arát
Keze
##aa
show
tanácsot
##zo
Moszk
##work
gondolják
##vend
Ri
köhög
néni
##ápl
fakadó
alum
csaj
##kológ
##lvény
##kai
erd
bekerül
keressük
ellenfél
Elmond
Star
##ith
bőrön
##üttes
##ELY
felvenni
pályázó
parancsnok
up
##BA
Mozg
Ákos
kézi
DE
pontok
tét
##amon
##lások
irrit
##ukkan
Ázs
németek
##nya
Tényleg
##könyvet
##szegény
adatszolgáltatás
##földön
benzin
elhár
lehetünk
Pak
##asztani
szi
Elsősorban
##bon
noha
##áncél
ER
evőkanál
szülői
akarjuk
EG
renge
amelyekkel
pedagógusok
##hassuk
hozzájárulását
SZAK
##erre
középkori
##émet
használatához
esztétikai
##tesse
törlését
öngy
antioxidáns
##sy
tanácsadás
megbeszél
##esebbé
érkeznek
Miskolc
éh
##ációját
tizenöt
újságíró
helyesen
##szerv
készüléket
Bíróság
amitől
##adjuk
felvilág
##zolgálat
##pir
valósul
védelméről
##agos
felgyors
kivitelezés
ismerőse
add
##izsi
semmik
felve
gyújt
UV
##gyakor
##33
vetett
Mor
##RI
benyújtott
lépni
tünd
##őnek
elemzése
bossz
szobában
Ac
##atokban
##párti
jogszabályban
oldala
Imád
kifejezett
mágnes
növelése
qu
fól
próbáltam
nik
##megy
munkával
##ezhet
felügyeleti
gépet
váratlan
##olásra
##amsung
leghatékonyabb
pomp
hatékonyabb
szöveget
partján
macska
stim
##hár
veszek
##usztri
alkalmazzák
passzív
##yenes
kurzus
##esszív
légy
Nálunk
bejelentés
Ahol
##sá
My
félidő
##ókon
dkg
Dis
térben
kaj
fürdőszob
Fejlesztési
zeneszer
apart
felkészülés
London
szíve
##nnye
##ánya
működni
gólt
nevezzük
Lel
megállapított
hozták
eljárásban
járművek
zsírt
szólva
##háztart
hoztak
kattintson
vételár
##úzió
##íthet
aktivitás
igazolt
##tege
helyette
##hassanak
támogat
##KI
tán
irányt
befektetés
Iroda
utak
Ismét
koleszt
memóri
gróf
zálog
amelyből
kezdete
##héj
##váron
lennék
hetes
konkrétan
témája
helyreállítás
megadni
Pin
##ream
##ikusok
szükségük
Székely
##ételek
keresnek
forgatókönyv
Folyamatosan
band
tengely
szóviv
kiló
Görög
##pálya
állítható
alkotott
települési
legerő
csatlakozó
plak
futás
Székesfehér
mosolyog
##iből
valamikor
Tok
##jüket
legtöbbet
##appan
Pontos
támadó
Választ
##táv
##ülök
ajánlatot
fordítva
megvál
turizmus
Erős
##áh
használatának
gyerty
kart
##énes
munkahelyi
##ulok
Jack
gyógyulás
aggod
módosított
integrált
##yeng
##vai
személyzet
növekedése
##cent
hozzáférés
oldali
##űs
##DF
előzetesen
megcsin
##liában
lakásban
elfogadható
elsőre
##öly
végzik
aznap
muzs
oktat
nyolcvan
##csapat
Endre
inger
##ítmények
indít
##ÍR
sült
hírt
##ülhet
Buda
##őket
meghirdetett
##nökök
Zsig
szakképes
alábbiak
apost
Kutató
rendeltetés
máskor
##tencia
Mindezek
##ilabda
##ÜLET
##anat
burg
##inknek
Alkotmány
birtokában
viseli
##netes
önmagát
##rill
1945
Innov
találkozik
számítani
enyhén
##adal
ütkö
##asan
dupla
##kártya
vízbe
mindenkor
teheti
##típus
##hattam
##kodott
kérelmet
foglalkoztatott
tax
megvalósítása
##sok
felújítás
tésztát
##essző
interaktív
##almatlan
helyek
láthatjuk
szerzők
szakszerű
dönteni
pinworms
Lap
kereslet
Somogy
##ínium
zenész
##dí
kezelését
ugyanez
alábbiakban
őriz
javára
televízió
hőszige
megtag
testületének
étvágy
milliós
alma
##Sc
prov
##osodott
percre
##bíz
végbél
pezs
Előre
tartva
várunk
végleg
##funk
kommunista
tartósan
szállít
##vonalak
##dését
hitelt
napfény
Tit
##edes
##ációkat
játszót
kezdetben
terje
méghozzá
##osított
helminták
##zatos
##ngő
##lnek
okot
MNB
alakja
##közlési
goly
Csap
választja
tanulási
##tic
használták
##ságon
ketten
elfogy
szerelmes
Hozzátette
kört
művelt
balaton
előírás
ügyében
##itas
Kapos
venn
##üknek
beszélnek
amellett
Pénzügyi
Gyerek
férje
##oltunk
##74
##UT
írok
újjá
igazgatás
##SZÁG
Emiatt
jelentkeznek
gyógyszerész
##ozót
CL
Fül
##vezetők
erőteljes
látszott
szemlél
##igazd
Tak
Szia
közre
##ájához
szerz
ízes
folytatta
Wal
Istennek
Szabályzat
oxigén
##elete
##inus
kattintás
full
igazolvány
vét
állást
miss
##ermék
törleszt
Október
találkoztam
##zelő
extrém
kó
Post
##ÁSA
modellek
##ound
##gazdag
prob
számítanak
ac
##pes
intézményi
Agr
riz
##ardia
##ETT
ajánlás
megújuló
##zve
Tök
tul
MÁV
nedv
##oham
tervezet
##BAN
900
##llemző
##eksz
kong
viszi
szalon
ahova
örökbe
hozatal
hur
Ment
Tanszék
##nkat
fennmarad
takt
##65
##ódását
##úli
##onat
egyeztetés
elégedet
Magyarországi
izraeli
bekül
eseményeket
visszatérő
bizonnyal
törvényi
kalóri
##szervez
kategóriába
embere
forinttal
tuti
Intézmény
##arat
##jaival
debreceni
Mindent
##önteni
##kering
Innen
stát
##aris
##hit
számlát
különbséget
##épés
##iként
##ÁSZ
##esei
##ádat
##bizottság
Ukraj
szeretni
vártam
szakorvos
##que
túlél
durva
##hetetlenek
domin
Ann
öv
felhalm
ekkora
kiegyenl
beil
csík
sc
színpadon
##ílt
végezte
tartalmi
##jem
##vánnyal
beszélgettünk
SZAB
79
##éten
amennyit
összefoglaló
biztosítanak
állati
energetikai
fogyni
ml
betekint
Po
##űrő
##vesztés
ellentétes
igényei
intenz
vállalja
##ölet
sülly
igazolás
ej
weblap
építmény
gyöker
búcsú
túlsúly
kiváltó
udvari
Illetve
Szó
emberben
kezdetét
beszámol
##dhet
fokos
csep
feltám
Media
tudomany
szerződések
emberekkel
változásokat
rózsaszín
menetrend
erejét
Hegy
Nik
mindenütt
##lmes
sorozatot
##netel
kábel
kegyetlen
##ásom
jelei
##képzési
eléri
szóbeli
túlt
Díj
törvényt
tanulmányi
jelentkezett
##NT
Jenő
Március
73
népe
##piaci
##föl
ultrahang
találkozott
##üty
emelte
maguknak
##vere
torz
lenyűgöző
##ökben
felhasználás
stadi
közelmúltban
vezetése
gitár
Napi
##mei
##kóz
ht
##OSZ
##vers
kezdték
ALAP
Egyetlen
állhat
másikra
##jeit
lib
jövedelm
kétharmad
Dani
##életes
színben
legne
##had
bankok
##ökök
kapcsolatosan
##OV
megóv
##kös
##asag
ténylegesen
irányadó
##lyem
##uld
deb
influen
fizetendő
Ennél
kiür
törvényes
Kiskun
hónapokban
##ulcs
##umban
Utána
gyűjtő
ázs
törekv
##eleten
bring
##lekedési
##ökkent
gimnázium
zsidók
korszerűs
Kid
Olaszország
Sokkal
hosszútáv
Raj
und
##kodó
legrosszabb
kezdi
megőriz
krump
Amerika
vádlott
##lis
##korlát
##egelő
reprezent
titka
##falt
##óna
közúti
jogalapja
kialakuló
időm
jelentőségű
##ületei
magatartás
operációs
jelentek
##ációra
Ildikó
csúny
amatőr
maradvány
elnyom
ellátása
##anyelv
Ju
találkozunk
140
##assza
##vőt
gondosan
if
Mindenkinek
##pl
##áltunk
torna
tisztáz
állítják
fordulni
réz
teljesítménye
írják
82
adóhatóság
anyja
##únyog
népszav
hozam
szervezetet
hozzátartozó
Bod
##zállítás
erdei
##64
összegét
körzet
elképesztő
veget
##ánsz
##adatok
hatások
##oval
HV
hossza
köszönjük
hallgatói
Sokat
felvett
Kő
környezetet
slág
diff
##igi
home
gyűj
társul
kábító
Nonprofit
Valószínűleg
##éna
##ságnak
látták
művel
eredményeit
Fiatal
kettőt
kérheti
##csarnok
##onda
##éterek
##vidéki
fem
óvoda
bécsi
##alíció
ellenfel
77
alkalmazások
behat
műszer
egyszerűs
pláne
Bus
szerkeze
franci
##andi
kidolgozott
építész
tanárok
közele
##értékben
kártér
BMW
illegális
megnyom
##kutatás
##udatos
Katon
motoros
hasi
##ats
eszközön
##ákba
színésznő
használom
nős
mindenkori
tálal
jelm
Mont
Ausztri
##ashing
Súly
94
Bur
fájdalomcsillap
##atib
fúj
felemel
##ugál
rohan
funkciót
légkör
vasárnapi
éltek
láthatóan
##íma
##közel
Ni
mozgó
olvasás
élelmiszerek
válaszolt
##ander
sza
mutatták
akut
cselekmény
Gyógyszer
##azs
##reen
kerékpáros
lakott
migráns
előd
##yn
Alig
##építő
Házi
professzionális
földrajzi
bárhol
miről
##ttör
##dve
kísérő
##rendszere
fényt
próf
##edéssel
##szerint
lába
##mon
##ötték
##izációs
kém
##fus
értékesítés
##képesség
egyebek
kifogás
megvalósítani
mozd
felsz
nyilvántartásba
másoknak
dallam
ellátást
jeles
elemeket
##íciók
##agon
belföldi
Cont
inj
legh
##hőmérs
kapcsolód
cirk
rán
várakozás
Telep
Egyszerű
szörnyű
lánya
##gátló
##orban
némely
20180
gyártott
belépő
köthető
##ostól
kritérium
##gent
##edagógiai
Martin
##imb
##ips
értesítés
hangos
elvi
Gazdaság
templomban
##ekért
##atására
dől
akárcsak
meghatározni
Rad
##illet
Hamarosan
számának
Megrendelő
##box
festék
##cset
húst
World
nyereség
hozzátette
küzdő
##épület
látunk
szerezte
##ian
bővebben
támogatni
##osságot
##dési
újat
##unkba
##íthatjuk
Bp
##ossága
##ssé
elgondolkod
léteznek
hatalm
feket
felder
##íli
gombot
évszak
Jegy
##UR
szekrény
Tárgy
##épe
elérte
mapp
életük
##kereskedelmi
édesap
választották
Utóbbi
holott
kívánok
Követ
Férgek
kézhez
##34
rejlik
ennyit
hatásai
fordulat
jelszav
sofőr
kitér
következményei
##nélet
bizalom
oldalát
##ámogatás
beme
##ányér
szólnak
Valóban
##fil
##fikus
kút
önbiz
többségében
##kód
##xik
kezeljük
struktúr
##kás
barátság
szállt
fejt
Cikk
##ágaz
Szeptember
Jel
bekövetkezett
Íz
magamnak
technológiák
usz
##ága
##irányú
gyártás
ülésén
megszüntetés
##akciók
elmul
tiszteletben
kipróbál
NAT
átlátható
##ándok
mezőgazdaság
közöttük
##usson
##akteriális
##lend
smink
kaka
lenyom
véleményem
módját
víg
érő
szeretek
Virág
##uzív
##eszközök
maximálisan
Kereszt
katonák
##látás
##ádium
Holland
Cookie
forgó
Digitális
szabályait
Természet
##félek
ragaszt
Csat
képezi
zsíros
követelmények
arth
##alapú
Főleg
bám
depresszió
Ism
##áradt
használatos
##latos
kockázatát
##noki
bak
sertés
váratlanul
éghaj
barátságos
szedni
amelyeknek
1980
állított
megállapodást
pet
kéte
örökség
Oscar
tetsző
Kim
pisz
Samsung
Fil
##hozott
mindenek
viszonyok
ázsiai
tárolja
kamasz
##köve
segítségét
##szintes
nyomtatás
felkér
odafigye
##áre
gyilkosság
mindenben
##icion
tobb
meny
elrend
területre
ismételten
##növények
feldolgozása
hangulatú
látod
apartman
propag
jártak
##ezéssel
AP
élvezet
Android
##kv
vállalni
##arvas
matrac
Zsó
testt
alakulnak
##85
nővér
gyengébb
##szövetség
##ánként
##árga
##helmint
Katolikus
bérleti
felhívás
87
reális
komprom
##ezső
legerősebb
szinkron
gramm
##kutató
##roup
##tartózt
visszafog
om
teljesített
maszk
##vételével
Kék
hangzott
kompetenci
Mus
##way
utánpótlás
Kik
nadrág
##nézium
minimál
Gyöngy
szerény
összetevők
Azzal
fejlődését
vacsora
##cy
támogatások
felhasználási
elérhetősége
kinyit
##zéséhez
Szövetsége
rendezvények
Hungar
hölg
menő
megelőzésére
eltérően
politikusok
alumínium
##outube
Hozzászól
Vide
##erd
tekinti
megalapozott
úszó
##egység
elősegíti
Eb
kok
nevén
céget
##ézni
székhelye
Bot
lefek
hibrid
Rendkívül
##ársz
kezébe
segítők
##ucs
szegmen
számítógépe
##hajtó
intelligens
##CO
kórházi
##ógus
##felhasznál
Kos
Mennyi
törölni
világa
igenis
##sejtek
##udat
letölthető
##ress
mindketten
##futó
nyomtatott
##rózis
Mintha
átmérő
spirituális
##számot
ellenség
Gyászoló
adottság
egz
labdát
##ole
oldalakon
rendszerváltás
hitt
bog
##rendű
együttesen
##ciát
gasztronómi
61
##kország
##ültem
bizonyára
összpontos
pon
Helyi
##ektus
megközelítés
Margit
fiam
##essziós
Tegnap
járunk
szerzője
megköszön
si
sort
##llesleg
James
értékeket
leggyors
Pol
máig
zász
esetlegesen
felvétele
##ánus
lapot
##lór
óvatos
búcsúzt
##árdi
##ködők
mindjárt
megtervez
##nnep
##ökország
részre
##imer
##djön
hetedik
betegsége
munkak
##örvény
go
haladó
vitte
bélyeg
séta
elkészítése
birod
sele
indítvány
fenntartja
potenciális
##ÁLL
törő
##TATÓ
kormányzat
ismerte
tábla
##kezni
Végre
erőforrás
##alja
##TL
tapasztalattal
City
perccel
foglalkozott
részvételi
olvasók
versenyzők
meddig
hangszer
szélén
képező
megnevezése
gondolata
HR
##nyt
##hajó
sérülések
fővárosban
spektr
rel
galand
##hur
hár
##ngedett
ivó
megbecs
fentebb
71
leszokás
Peter
##állást
##üreg
lo
autóbusz
##attunk
hülye
fejlődő
kérdésem
##kötés
##95
művek
Can
##ZŐ
szavakat
##ualitás
Budai
tehetünk
Száz
Kur
##VII
kiválasztása
csók
dolgozom
tartály
Ezeknek
célba
szokások
hozzával
átad
végi
konstrukció
Intern
felvet
elre
##vegy
szintjén
auto
aktívan
vezetni
turista
élőben
megismerked
##din
fantázi
##oki
okirat
tároló
különbségek
elkezdett
##őrző
roma
Zsigmond
##érkép
zar
dollárt
hozzáférést
területére
megszerzett
útját
elsõ
munkába
benyom
fol
megoldása
szülei
teszem
városában
előadása
off
lépések
##ozom
elképzelni
tonna
Posta
Java
háztartási
Tat
népek
élől
##szerző
elmes
tudna
pör
abr
henger
lépéseket
gömb
##oge
##teszi
Állat
végeztek
Média
Sam
Rep
adjon
folyos
szerencsétlen
lámpa
sürgős
##NP
##iti
érdekli
##uláris
##ésbe
baloldal
else
##kanizs
kialakítani
##inkkel
szakaszában
nyilatkozatot
vevők
Tulajdon
##anunk
geszt
Ani
##vezetője
##élked
Soros
Kutatás
közbeszerzési
##ísz
##hálózat
óceán
##72
illő
környéken
Papp
##vételi
##észségügyi
töltötte
jogról
Webáruház
Mindenesetre
inzulin
##nergia
eltűn
##szülött
Hány
##ezésével
világra
##ezheti
lépnek
Balogh
mentő
előtérbe
gyakoribb
##las
eszébe
érti
1500
érdemi
##ojekt
térképe
telephely
világhírű
Polgármester
##zésének
##éltek
Ra
bevet
##KOL
##hullám
támogatására
jogszerű
##uszi
számában
##ségük
##erőmű
infl
zavaró
érdekeit
dobog
Nyelv
forduljon
kialakulása
órában
határozottan
gur
amennyire
megrag
##ársasági
drágább
##ságára
rendelő
fotóz
sorsa
##vezér
hipertónia
##ztam
valamiféle
##MÉNY
priv
kies
##jaira
##vissz
kedvezményes
csekély
megjelennek
igazolja
##vát
súlyosan
születik
eff
##tti
koleszterin
beállított
előttünk
##czy
márt
fordulhat
##ugg
módszere
tárlat
BIZ
##amentes
iszony
létrehozása
##rõl
Aty
drámai
##ogyor
##éi
eltávolítani
áf
bevezetése
##döntő
személyt
összecsap
könyvben
##acsoport
vert
jelszó
épülete
gondozás
folyamata
##állyal
készítő
##szól
##embert
véli
megválasz
barátja
meghibás
küldeni
##fenntart
fokozza
##jegyző
Moz
színpadra
emlege
##ward
javítás
polgármestere
KÉP
szennyeződés
##öltöz
megakadályozza
elnéz
##városban
jelentik
##atóriumi
katona
##meden
glut
rendellen
generációs
csodálkoz
madarak
nehézségek
leszám
Chris
takarék
##álását
megkapta
elmegy
Kíván
kollekció
pesti
Oktatási
veszélyt
felsőoktatás
tárgya
tapint
határideje
esed
##kérő
bizonyított
##ítania
Újra
Hirdetés
engedi
##ográfiai
késedelem
##úk
##88
gén
szoptatás
tetejére
##vezeték
bord
Szolgálat
nyír
fontosak
kezelik
##vezmény
##rális
##zenei
fordítani
work
romb
lomb
Kérd
##csoda
##áival
kábe
sab
Rossz
##usszal
Ifjúsági
részek
formát
neten
Férfi
##opog
foglalkozás
DVD
##olással
ellenőrizni
halak
##jává
felet
tehető
tagjainak
rendelkezései
csoportban
figyelmen
##sch
Hajdú
Vasár
##csa
elvégzése
toler
magához
értékelése
##GA
elet
megállapítása
##csab
időszakra
eltávolítása
viselő
Bence
szokták
Jon
fogadni
jóga
##kluzív
Budapestre
##kológiai
elvon
##adai
közérdekű
eljön
##jas
létrehozni
kórházban
sztr
##ezvény
köszönet
felújított
hátr
tananyag
sorozatban
lehelet
méltóság
Napjaink
búj
##ülék
folyóirat
erkölcs
járhat
##díjat
áruk
mérés
##ezésének
természett
meglátog
Mindezt
igyekszünk
férgeket
pszichológus
keretein
##hassák
##opát
előnyös
##fit
barom
legegyszerűbb
ezekből
környezett
eltör
kimutatás
##vésbé
##aná
beépítés
ottani
alapját
##ols
használatra
Öröm
##sák
##MA
közreműködésével
##ebr
semleges
férjem
##onómi
nyilatkozott
értékesítési
Közgyűlés
##őrt
##ec
##69
félnek
keresik
betét
kibontak
##lie
refl
másokat
Főváros
##ségről
gratul
Hum
##lter
##ázási
röp
kiállított
##ztünk
fájdalmak
##jáig
jellemzői
érzést
másnak
1970
legény
##ossággal
menedzsment
fajok
##gazdálkodási
##sei
műemlék
cukorbeteg
hajlam
zárja
##hall
garanciát
##inka
ötletet
zón
##bír
tudósok
##szenny
identitás
##szolgáltató
##szervi
menjen
valóságos
különleg
Kerek
##került
nyelvtan
aranyér
##adon
élek
##oton
Másrészt
gyakorló
híján
roppant
##ádár
als
másra
Lázár
kísérleti
szélsőséges
posta
kívánunk
Eszterg
változtat
keletkezik
Foglal
üzemmód
jogait
##csatorn
##neteket
statisztik
szervezésében
Előfordul
##oment
mentünk
##érzékeny
számviteli
jönni
Nyit
Miniszt
##nebb
##árda
Részletek
##dd
tízezer
közzététel
választható
helyezve
93
anyaga
360
összegű
##ázik
metal
Róm
vagyoni
##része
##ubile
ügyel
sütit
rette
##öle
kezelések
formák
meggyőződés
Információs
amennyi
November
AK
rendet
elfogadása
Esetleg
##őzni
Kell
legutóbb
elfogadta
beind
felhasznált
épületet
Május
##cm
pillanatra
Egyetemen
Összesen
tulajdonában
##avezető
##hetõ
Művelődési
elkezdtem
##delt
Kaz
önélet
##67
zárva
állítás
szigor
##tani
erősö
neme
tartalmazzák
mín
szeretnek
92
igyekeznek
keresse
Juhász
pattan
zsírsav
Ob
##falak
közeled
##rádi
Csod
hoznak
városok
##áljon
##zók
aszfalt
Sw
vizsgálja
##áé
felmeleg
megérkezett
híre
biztonságban
munkájuk
##EJ
módot
farag
kellően
spont
Vissza
debüt
##ugor
Krisztina
barátok
##VA
akarod
Bán
rezg
eleinte
##ÁCIÓ
formáját
szolid
vegán
##hessék
hatékonyság
teste
hangulatos
helyzetét
Liszt
##eszti
##emier
incidens
##okrat
méretben
vallom
Üdv
185
Azaz
fejlődik
Bér
##lésű
kérlek
felhő
veszem
KD
sát
Mr
Harmadik
nagys
életmű
kompromissz
con
tábláz
##nevelési
cell
##fizetési
##kond
pszichológiai
zavarok
elérhetőség
javasoljuk
##adtak
vász
fordítás
megép
tartása
##SD
fellebb
Lassan
fényképező
Sor
##hitel
szoktak
szívem
felidéz
szappan
eljött
##hén
##omor
bizonyítvány
túlzás
Ugye
tanára
##íva
üv
##szállítás
emésztő
folyamatokat
kivételes
##olunk
feláll
győri
módszerekkel
Bay
Sol
gazda
##inet
##szerződés
párizsi
felhasználni
##száma
stílusban
napokon
szúr
zöldségek
Hor
##öjt
##jain
valószínűséggel
##rof
##előbb
Melyik
Manapság
tájékoztatóban
szezonban
következe
problémája
összekever
rekonstr
levelek
kalcium
kompone
##adót
dis
domain
nyilvánvalóan
józan
##oztuk
helytelen
változatlan
adatokkal
pánik
köv
vérkering
lej
##féleképpen
##ccsal
festett
egér
mérgező
nyirok
##oka
elmély
170
lévén
lök
napjától
idézi
lehetőségei
felügyelő
szúnyog
csig
OL
csisz
főt
Kun
komm
##cio
panor
szerető
##artalmú
##ársa
végét
feküd
kórokozó
kölcsönös
helyszíni
emberrel
##hús
##ószob
##nás
kiinduló
skál
összeom
kertben
Tűz
fektet
megenged
enzim
illata
##resszus
molekul
önrendel
hármas
amelyekben
eljáró
Krisztián
köly
csúsz
##magyar
Csillag
puh
manip
Pént
##eszes
##rich
vereség
lisz
##úp
adapt
panel
követelménye
##áik
zászló
##jéből
Ptk
leküz
munkálatok
##ado
látok
kicsik
nyálkah
találjuk
Hell
##egyűjt
##olú
szíves
LMP
okmány
Vevő
növelni
félreért
Megjegyzés
##zy
##ÁJ
szimpatikus
Super
kiszolgált
Süt
##óját
##esterek
##OLG
fedezet
Számomra
Magyarországot
tisztségviselő
##redes
##yén
##fejlesztő
idegrendszer
kínált
bizalmas
nád
hajléktalan
elmaradt
bra
székely
utasítás
találkozás
célunk
##essük
koreai
sokoldalú
wellness
tevő
tany
komplett
##ásaink
analóg
##itól
szelet
standard
Kórház
##ljék
##uch
gyilkos
##IP
költségeket
merre
célokra
eljárási
##ájk
magnézium
idény
szett
##pontok
megtartott
##urd
##lyás
finoman
##tetését
##soroz
Kore
##álásával
##hatták
##adar
##uknak
tartózkodási
##terme
vendéglátó
kapaszkod
##ngés
##ulva
##labda
WC
célzott
asztali
rendszerrel
##egers
időkben
##sünk
adósság
ügyfélszolgálat
gyógyszereket
hasznosítás
kozmetikum
készülékek
##43
##itányság
##teny
evangélium
##sző
eszik
Ausztrál
Hort
teg
##ódus
dús
gyártási
visszatért
BL
Esz
kockázatok
##darab
Frank
nyerni
naptár
Jo
indulnak
nyílászár
##formán
csir
sportoló
trón
szakács
főigazgató
mégiscsak
TÁM
próbálják
##teor
szök
##ÍV
Fórum
működtetés
##álási
Willi
##alni
rejlő
##vallás
válogat
tisztel
megengedett
##bont
##vacs
##õr
szolgálatot
poli
Comp
elosz
etn
válaszokat
bérbe
##szabású
Tav
árat
függvényében
##áró
megmagyar
ceg
##háború
##nyál
tervet
családot
tegyen
adódóan
váltott
kockázata
##szki
kilencven
kapit
eldönteni
kérdésben
kombinál
fejében
savany
üzemeltetés
palot
kérés
fellépő
elkerülése
tanulmányok
figyelembevételével
következmények
vonatkoznak
tükröz
légit
másokkal
letartózt
szervezete
vizsgálni
3000
##ssza
##isztens
régióban
legkor
napról
hivatott
korlátlan
Club
Él
Kiemel
##ológusok
minőséget
##off
szégye
##hettünk
érni
nyitó
DK
Tel
##BI
védelmét
választók
páratlan
akikkel
##ji
##heze
##szenek
megálló
megszület
Tíz
##hattunk
miben
##eséget
##Ft
Apr
szégyen
egységek
Vilm
##imin
Rendelet
szank
##ida
rob
szövege
ösvény
Play
kísért
Kollégium
fogadott
háborús
újrahaszn
történelm
Speci
olvasmány
törekszik
Bartók
tartozott
mérsék
zárta
Eze
beruházások
##ardiasis
érrendszeri
témák
hová
anyagcser
##tetésre
akadt
nevezték
megterhe
vérnyomást
nézet
emleget
stádium
AC
mérő
hallás
felp
magunknak
##foglalás
költséget
hordozó
Europe
automata
##almának
rajzol
képzelet
valóságban
##koztam
szabadtéri
kollektív
futott
##esztyű
veszünk
81
fah
##célú
pajzsmirigy
##azott
válni
##itter
##ültekint
megnyer
##üsz
##cukor
jelentkezés
Engem
játékban
házigazd
kompatib
fogadó
követik
##azonosító
Természetes
##olgár
##élen
őri
##zelt
Annyira
Koz
megker
vásárlási
ragyog
sajtótájékoztatón
##eddig
##friss
jótállási
##tro
##ÖK
amelyhez
Velen
##öttünk
tapasztalható
aludni
Csong
Norm
státusz
küszöb
testmozg
ókori
eléréséhez
széd
##text
higg
délutáni
ÁLT
##tené
szindróma
elszak
##kategóri
főzés
helyzetű
tanít
##vehető
mértékét
##udio
hivatásos
övezet
International
adatokhoz
foglalkoznak
Facebookon
mennyiséget
tisztességes
##otthon
válaszolni
Far
megal
melyre
órákban
##megye
biztonságot
##INT
hétre
anno
##ítsünk
##lani
intim
kivág
sót
veszteség
kori
cukrot
magadnak
dun
ÁLTAL
##lav
##tánc
nikotin
##mennyiség
biztosíték
csillap
nehézség
kikül
##lywood
kider
##ossági
Fed
##ht
növekedést
hétvégi
káposzt
turisták
##yos
várandós
Márk
##ástalan
agresszív
felszerelés
túlnyom
tedd
rajtam
elvégzett
line
##öbbent
##AA
##cég
szup
nemzetiségi
##hib
funkciókat
kóros
##ále
##hettem
módosításáról
##bemutató
köl
##éf
anyagból
pszichiát
ort
képez
aláírt
férfiaknál
SMS
megtesz
puszta
Mell
Dor
rendeletben
tested
vb
szabályairól
Enged
emelet
öl
Határ
gyakorol
igényét
##arth
##néd
robbant
képviseli
kirak
árut
várta
##vás
személynek
gondolkodni
##állat
##ságában
enterobi
##mened
anyanyelv
könyök
átlép
##ruh
pecs
mínusz
Bert
Beszél
Lőr
Sk
szerveze
elmúl
Kamara
##ameg
céges
nőket
##SC
applik
rámutat
szöveges
##övek
jellege
legm
##hova
webes
metró
##hossz
keménye
akciók
##ystem
##erenci
meta
##egyver
##ady
távolabb
elfoglalt
##finom
##anizmus
forintért
türel
Pannon
##apcs
Közösségi
##hám
##lődik
##aga
mark
nit
##ségében
##szintű
Vic
##értő
War
##dül
fellel
DNS
ezelőtti
álljon
bosz
kötelezettségek
##olások
##odi
dicső
Biblia
felkel
Törökország
##vatart
Szovjet
láthatatlan
prost
futár
demonstr
égi
részleteket
##ziók
kikép
##itással
sére
Adó
ügyes
##eletes
##71
elveszett
##BER
rezs
lezárt
Tanulmány
##addig
méterre
karakterek
halvány
mielőbb
Klin
Vin
előnyben
céljára
##veszélyes
megnö
tartalommal
Alm
Egyipt
Szűz
##lly
kijelentette
##ébred
sose
1944
történtek
##füm
harmóni
emberre
végett
Trans
fenntartása
ügyész
injekció
tizenkét
nor
jogosulatlan
igaza
elképzelhető
üdv
vul
Csakhogy
##errel
##cus
csőd
biztosítva
MP
színp
érdemel
támaszt
field
idézet
kisgyerek
##rap
##cikk
vezérlő
évtizedes
jogosultak
időpontot
bemutatja
prezent
ajánlatok
erősítő
érzékel
Terem
megőrzése
##eszteni
Irány
##igo
kockázati
##pest
diktat
visszautas
##ÁROS
##színház
szervi
radikális
##orge
dráma
Köszönet
##alany
legneheze
gyám
pilót
brut
Senki
##lődő
földet
legyek
Lengyelország
##észett
Családi
változása
Krist
ültet
##hirdet
használtam
jelentést
##FT
keletkező
súlyosabb
életév
##acsk
divatos
##98
fokú
##nyer
##vagy
Vele
##ulásának
mosd
műt
##őlap
atya
deleg
bevezető
igazoló
csecsemő
teremtett
tromb
eltart
csoportba
##31
kapjon
##vásárlás
##nőt
##árban
laza
füle
ráb
beír
államtitkára
tekintett
##ref
szimbólum
##akadt
##pg
##jektív
mitől
##politik
állapotot
html
gyermekeknél
szabályozott
##peres
művészek
filmje
Blue
perce
##fed
Iván
##rok
együttműködési
##jaim
eredményezi
##ero
mérnök
tájékoztatni
##my
évtizede
##zása
##elve
##ks
finanszírozás
##gyár
olajat
oldalára
lebeg
magáról
ajándékot
legd
arcát
szemet
keserű
##cie
meccset
emailben
közter
Kam
panaszt
Edit
fész
tenyészt
ruhát
Összességében
Beteg
hallat
kizárt
adalék
tizenegy
tájékoztatása
benned
közvetítő
##llép
szerkesztőség
kattints
látnak
öle
##arány
megállt
valamiért
##ELŐ
Nézzük
##kés
##LÓ
optikai
hónapra
személye
igényeit
célzó
találkozhatunk
szorul
##lnie
##jaik
téves
##áva
öbl
alján
##áttam
készítettem
százalékot
Augusztus
Mercedes
esetenként
coach
Phil
élmények
style
értesítést
súlya
tervezési
elrendel
feltűnő
megvalósítás
szolgálnak
##ségére
jétől
vastagbél
hetekben
##ZET
Ennyi
intézményben
##ount
Bocs
XIX
##ukle
Szege
megbetegedés
##OB
gra
körültekint
spontán
bejárat
ként
##űzött
##iac
lábak
megvé
biztosítunk
törekvés
##asság
##inted
relat
##szervező
##testület
##zok
kihely
Erdő
garázs
##hellyel
fedett
jutó
mikrof
ingatlanok
##AV
megjelentek
kipróbálni
építése
Lény
##pit
kötni
láttuk
lehetőséggel
##ORMÁNY
dózis
köves
minőségben
Ass
##óolaj
##ötvös
megtisz
tranzakció
időpontját
##honnan
kali
frekvenci
befejező
jelölés
hozzáállás
##szerűs
mindenesetre
##asy
red
lelke
anonim
##áth
épületben
gyerekekkel
szálláshely
Április
##iver
szemölcsök
anyagcsere
##ottsága
##ttá
kezdenek
fegyveres
Különleges
tányér
##ritis
vezérigazgatója
kiemelked
felhábor
kecskem
##adarab
Eötvös
orvoslás
ügyek
##zex
esélyt
használhatja
ajtót
tévedés
##ikönyv
falat
kortól
##pontot
faluban
##technika
találnak
eltérés
##adásának
literes
nagykövet
elkísérik
##ítünk
lencs
sarok
támogatta
adható
lakcím
szőnyeg
megújult
gyerekkor
adjunk
megegyezik
##osságát
##kanál
körm
ügyet
vitamint
funkcionális
DR
##erett
forintra
megélhet
Pé
HVG
##motor
##ükbe
zarándok
##jéhez
Benedek
zeneszerző
##iséget
egyoldalú
lév
dolgoztam
##javas
képzelni
91
nyomd
GPS
##növekedett
megismerni
felment
plakát
találtunk
életemben
fordulnak
kiskorú
eredményét
használó
##oi
értelmes
Valójában
ellenőrző
bírság
##iumi
bűnt
nevezetes
col
##íthetjük
Oldal
szombati
áttör
##amis
máshogy
vonalak
Doktor
##munikációs
Tő
siet
szigetek
teend
kormányt
##stru
Szerk
JÓ
előm
##közönség
születtek
születési
felbukkan
lapok
tin
bir
##SZER
sárkány
hibátlan
##harm
egyipt
adok
iszlám
##omet
tob
egyetemen
nm
menn
foglaltakat
magány
##ezem
magzat
döntéseket
erőtelj
teljesíti
##község
Cégünk
##falu
korm
##abe
##éleg
választása
##ezred
alag
telefont
követve
elal
kerám
kórházba
Akinek
Önkormányzatának
varr
megjelenési
dl
Kérem
##adtam
kérdőív
Attól
kecskeméti
##acute
fõ
##ativitás
kedvezőbb
kinevez
##ima
programmal
megi
leáll
##ukon
kétszáz
##yet
begy
hangozt
vére
otthonában
váltó
Szerinte
##zései
megfogalmazott
##ósok
5000
Log
##ancsol
Épp
képzést
salát
egyenként
hiszt
##ction
írott
korrig
győzelmet
elkészített
belépés
termő
véres
lakók
alkalmazandó
szfér
NE
bocsán
exkluzív
kockázatot
##kock
##lli
##figye
dolgoztak
nagymértékben
közszolgáltatás
megoldható
del
##ódhat
társasági
nulla
innováció
kimondottan
fényképezőgép
főre
zseniális
bil
mérföld
##könyve
kifoly
futárs
lakóhely
beszélgetni
kérünk
adódik
##kodni
##venti
agrár
cserélni
97
##erőt
privát
##szív
jogainak
harang
Dezső
szir
csillagok
Bács
cselekede
tanulói
##onk
kétféle
munkában
ELŐ
csökkenése
##hagyó
ünnepel
kieme
tisztele
##lói
célokat
##kuren
UN
emlékezet
mode
##opor
azáltal
alelnöke
##hattuk
May
tűr
##ékben
Szilág
hatásait
pas
csatlakozás
könyveket
követelményeknek
végeznek
rovat
vag
munkára
minőségét
küldemény
befektető
ügynök
##egyenlő
novell
Maj
pip
Cap
##járás
hasmenés
ügyészség
ingatlant
azokban
##ztak
ösztönöz
csináltam
ágazat
##övény
enyém
##och
##Hz
gyulladást
jogosultság
igazolni
bevi
fogam
jubile
Ezenkívül
Főiskola
történetében
##over
processzor
kompen
##tettet
közlés
##enek
lemarad
írtak
légitársaság
felhívja
üzembe
##kötő
kezelésével
koránt
##usztria
##almasabb
keskeny
színvonalas
##álók
Szat
vágyik
továbbképzés
hozzád
tágas
tartozék
##pihe
##betét
Franciaországban
hegyi
kinyom
dolláros
kacs
szabadságharc
szöve
művésze
FC
kontinens
##dh
Kádár
lépése
koncentrál
Vám
##edv
##alizált
##ványos
szemszög
előnyei
lefe
##ásnál
##tetjük
elmondható
span
##menedzs
Elér
cselekvés
##öttük
Hatalmas
alapj
receptek
evolú
Friss
alatta
##atúr
##inkre
Da
erejéig
voks
##mennyire
károk
##41
vendégeket
gyógyszertár
elemei
1950
fosz
emlékmű
rendezik
##házat
kollégium
óvodai
netán
fotót
rong
##ártól
##ulajdonos
##ózist
napját
##éh
könyvt
infrastruktúra
falusi
jazz
##dülő
messzi
##ográfia
##gyűjtő
használta
féls
befogadó
nyolcadik
sztor
bejelentett
egri
December
gazdálkodó
##érzés
##íthatók
növekedési
##üljön
érdeklődőket
szerelmi
Eredeti
irat
##oritmus
tartalmakat
adtam
Haszn
Szentl
aláírás
kísére
##ideg
összetart
feltéve
Igazi
csalód
Opera
##álásra
Vidék
105
alkalmazását
amibe
ugyanezt
gyümölcsöt
munkame
tanári
aratott
módosítani
tun
Instagram
ismerem
páncél
##király
nagyrészt
##esedett
Legjobb
vércuk
ökológiai
sátor
vizsgálati
Fot
vallásos
legérdek
##ülések
magasan
Január
##özet
fejlesztésére
tárgyalások
korlátoz
##játszó
rabszolg
Bármilyen
##bõl
AS
Lét
hálózatok
Dunánt
##rendelt
##iterrán
lehetőségeit
##nyak
akartak
járás
megjelenését
képregény
üzen
##vállalás
fáradtság
##llátás
##tv
újrat
távolságra
##vizsgáló
korrupció
gyakorlatot
derek
téri
Kecskemét
megkapja
Ingatlan
időz
##roll
Gyul
Sző
Dar
bizonyítani
##rosis
közepette
Hom
farkas
szerződéses
túlm
műtéti
aligha
konkuren
konferencián
gazdasag
Rock
találkozni
elismerést
##lottak
abroncs
##ozatos
tragikus
tervei
grafikus
fejfájás
táncos
technológiával
Rége
##valót
hólyag
szakképzés
felv
gépkocsi
védőolt
riv
legmegfelelő
kozmetikai
selejte
vitt
Fülöp
alapelv
##esebbek
emeli
Zsuzsanna
névre
##nököt
baja
menyasszony
eseményen
##nyilvánítás
összeszed
másodlagos
Reggel
##vest
világába
##vízió
megnövekedett
bankszáml
lakt
##apad
kikötő
közöl
garantáltan
##ATI
pazar
##kiv
Hir
##iness
IG
felmerül
alkalmazt
látogatókat
##alkalmaz
türelem
hirdetési
##zsa
őrült
államok
szke
letiszt
Ausztria
elkészíteni
kerületben
felhasználható
tagság
levélt
szikl
mutatkozik
mu
automatizált
rengeteget
Nő
##ítandó
bővült
kihívást
Nemrég
Gerg
Lőrinc
##zenekar
némileg
ív
zok
rendbe
kidob
##szót
gyakorlása
Felhívjuk
Vigy
keverjük
##módosítás
budai
##ozottan
Miche
akciós
##kört
tanultam
##sugár
Szom
##42
közleked
életüket
javul
puff
kiterjeszt
Június
##HO
eseményt
tojást
##eron
milliárdos
túlterhe
pór
##kozott
természetben
felújítása
támogatják
kínálnak
##váltó
tömegköz
széri
Belg
súlyosb
híz
##iban
##mets
filmes
##ánia
idejében
ismereteket
átadni
##alkotó
ahelyett
kültéri
##zes
titokzatos
Igazából
centiméter
kimagas
Kínában
Real
##erman
lendület
Előbb
##akod
jogellenes
##cker
egyetemes
##ányok
fik
birodalom
fájlok
YouT
Paraziták
textil
##koló
Petr
Fre
##ira
gondoljuk
##DA
helyezni
gyökér
Temp
eláll
teljesítményű
vidéken
szükségessé
Vasárnap
Szerb
hűvös
felülvizsgálat
##dőjele
mets
eleven
Ezúttal
kereset
váltani
tudatában
##fizetés
megszületett
kand
csoportja
Nekünk
##hab
##adással
csupa
fogyasztási
legközelebbi
Szeretném
Los
##kodnak
általán
frissítés
Sió
##rófa
##iken
ellenfele
ponttal
beazon
Elkép
összeállított
##FI
##ozo
hozzászólások
##ázatos
##érzéke
##lad
megtek
##kerek
MV
teát
##CD
Svéd
döntéshoz
##edagógus
##áknál
##izálása
akarták
megvolt
felelőssége
forgalmazó
folyékony
##burkol
1960
##assá
erőd
szentel
Dohány
##lip
##ismereti
telefonos
##űt
közhasznú
telik
járok
Thom
próbált
##nyújtás
célját
voltál
higiéni
államháztart
##itási
Szegeden
ránt
mellékhatások
##uktív
zenés
##üf
listát
bekövetkez
tárgyakat
##86
##ázva
helyezi
kérdéses
OM
##má
Ferr
elemi
vállalta
Valak
##úrás
Bölcs
fölös
mindazt
##ruház
##mega
##lekedés
nyomást
döntöttek
Lig
legrég
jöttem
olíva
##biztos
##do
Vizsg
halált
Belső
lefoglal
##lax
munkab
Jakab
legelő
lább
rendszerbe
megállapítani
okát
Második
##47
meccsen
elérhetőek
Köszi
haver
központja
Történe
mindaddig
közelben
tegyünk
időpontjában
ausztrál
##teljesítmény
idejű
vállalkozói
##ödöll
szakad
kilométeres
kanadai
Washing
Alkalmaz
nagyszabású
##37
##oot
munkájának
##öre
workshop
ellenálló
állampolgárok
parfüm
##atin
érdekesség
egyiptomi
arca
okán
##fic
##odban
cic
Fok
##DI
##gin
##kelet
##kísér
##lton
Mai
Jövő
Rt
rendre
LXX
##gatni
##aps
rajongó
ülésen
nőknek
részleg
kiírt
írást
XXI
tagállamok
tanúsítvány
rendelkezésünkre
kimene
menstru
sablon
##erto
##lent
##lenség
EB
hangzás
Páp
##nevelés
szakképzett
nyomtatvány
##agi
##kant
naptári
1988
##köre
##chen
szobák
##énia
Bu
Febr
ötleteket
megméret
##zták
régebben
legnehezebb
általad
##LL
jártunk
fentiek
belülről
One
Miniszterelnök
Igazgatóság
konflikt
előr
haladt
##őrök
##esztette
vezetnek
hallgatni
mérkőzést
beszerezni
örökös
Uram
festmény
megkezdése
nemrégiben
borító
fűződő
##helyettes
megmutatja
##ÉTEL
egyének
125
szennyvíz
igyekezett
amelyről
##ézi
Group
Kre
illeszt
##éltető
kereskedés
defini
##osav
Kocs
éhez
eszközzel
kamar
##rop
tartok
##osp
befolyásolják
ÁLTALÁNOS
lépcs
##EZÉS
párom
önrendelkezési
édesanyja
jogokat
##tej
##öltés
##likk
átgond
##óly
##telék
KDNP
boh
##ereket
jegyet
néznek
Kir
jónak
##edző
antik
YouTube
Heves
Rud
AR
retteg
szemem
##nig
hiányzó
hiányos
##böl
listája
Régi
##ifik
Vállalkoz
beérkez
esküvői
megkérdőjele
benyújtani
##gomb
Deák
but
tejt
350
tanszék
Zsuzsa
##orék
hajszál
Gép
##nehez
hétvége
azelőtt
merült
##ces
vedd
we
szabadul
##áren
fenyegető
##mise
időközben
hiszi
szeptemberben
kript
##ÉV
kommen
Tegy
Cas
teljesítéséhez
##menni
##izom
jelzett
fürdőszoba
##fül
##anként
intenzí
PS
éppúgy
mennyiségét
##köteles
alább
##inkben
hem
elképzelése
fejezte
Egészen
gyönyörköd
##oszlop
szervezési
pénteki
mögötte
Értéke
##vics
pontokat
szabályozza
##avédelmi
büd
visszaél
benneteket
tartás
gondoskodni
##övidebb
erdők
öz
Különb
érv
ök
Egyelőre
tenisz
##völgy
Szabadság
feladatai
zsírége
nőst
dizájn
nyarán
##trikus
Fizet
árus
irányú
##ítsunk
##leteket
##ikban
városa
bolond
Láss
bassz
AN
Mári
mosolyg
ügyekben
pók
építkez
ellenben
Pusk
Leírás
tudná
háziorvos
stáb
##ple
Őr
legolcs
##itz
##kedése
hívták
Este
cáf
##telték
kkv
Szár
egészben
kapok
átsz
kizárólagos
mostantól
menekül
##egyelmi
##fc
##cskék
##ergi
fasz
folytán
válás
##ÖR
lefedett
##mosás
##álj
##vájc
turb
módszereket
Inf
mindennek
dalt
sora
harmonikus
Bíró
csem
##pak
lépésre
Lég
##neti
ellenállás
hazugság
Kapcsolódó
Mezőgazdasági
nemzedék
##íthatják
papr
heged
##zél
boríték
##inteni
Pontosan
rendje
Barce
##89
elöl
betöltött
képezik
rosszindulatú
##unkhoz
előállított
érezhető
melléklete
hihetetlenül
pete
folyóir
maradhat
Bíz
zavartalan
pihenés
my
##adják
by
ejt
kezelésre
Ellenőr
##emellett
ily
megszeg
##cens
részesült
megbocsát
társulat
##ıl
ötletek
hardver
##krém
##vó
Hitel
tudnám
meghajt
főnök
hangszór
klíma
sorrendben
##unior
kulcsfontosságú
törőd
lakik
NATO
folytatása
végezzük
##rakt
azonosítható
döntöttem
televíziós
böngészőjében
##szeretettel
##ÁLIS
Dönt
kiadása
energiat
Harry
Audi
szívében
##ugró
protok
modellt
pontján
lang
Mobil
ráv
##rög
következőket
élén
##osult
funkciója
légzés
##tesebb
Top
hozzájárult
kikerül
kötelezettséget
kutatói
naprak
vető
mérkőzésen
ébr
összevet
##csoportok
külügyminiszter
##inó
tejet
keményen
##jelenti
próbálta
kábítószer
magamat
elhúz
##hegyi
műveletek
beköt
kedvencem
KER
készség
próba
##iszi
napvilágot
tények
különbözik
tanítási
##ATA
támogatását
időszakában
##zatban
Madrid
kapcsolódóan
szennyezett
##ősz
tank
KSH
játszottak
##vall
Por
fűtő
hinni
ostr
természetvédelmi
kígy
regisztrációs
írva
szerződését
átél
spektrum
tagozat
Lip
##emeltető
helyezést
##einek
igazságot
##szabadság
##estert
fenyő
##yúk
helyreáll
Szilágyi
üzle
tartalmának
kilátás
Hozzával
eltűnik
##esztin
menti
kád
Gra
levág
alkatrészek
jpg
bírja
meggyógy
újrak
szabadságot
Jogi
tolm
##ködése
##csok
építkezés
ef
megközelíthető
Közhasznú
élen
lakói
szakképesítés
lehetőségünk
tematikus
alkalmat
nőknél
##ponzor
rivális
városrész
költészet
vállalkozók
Másnap
bizottsági
helyezzük
##ware
jogai
Azonnal
##nyílás
kicsiny
##cíz
rangsor
közönséget
Gondolom
pihenni
karc
biztonságosan
jöjjön
Keresés
AB
##EH
##leménye
epe
elbeszél
csata
nyújtotta
felületet
##weis
ugyani
Dénes
palett
apróság
főszerkesztő
kimagasló
##abron
vettük
legolcsóbb
##bur
iratok
csónak
kezet
szolgálják
##asztása
##esd
istent
Megbíz
Alt
vehetnek
mondván
##zekrény
Jogú
kielégítő
##őrös
George
##iki
feljelent
hagyom
elkerülni
fizető
minősített
daganatos
##rin
Angel
rand
munkám
mással
##atty
leh
bevonásával
Ilona
szövegek
javasolja
##mosz
nai
hadd
összej
irányítása
Dal
utols
##amut
doktori
##azek
zenek
bu
Zal
##ÁSOK
Többek
legkevésbé
asztalra
##lety
levegőben
##áztam
Polit
##adalmi
Hozzávalók
resz
labda
személyében
kiszár
köztársasági
kérdésekben
##piacon
utazó
##uári
tömeges
##nyilatkoz
megillet
Pil
##hallgató
algoritmus
helyről
##ELEM
##emping
ent
alkalmazza
##idat
rept
##api
##yd
világosan
elvárás
alkalmi
elváltozás
előttem
dalok
##ájár
##ŐL
##ogni
használva
sokaság
##ovány
stadion
költözött
aminosav
vitatkoz
Szükség
##ázati
Élelmiszer
##igeti
##tabb
Kod
Őt
glük
műhold
messz
ped
emelkedő
örömet
##ENY
##cep
##mérnök
szemében
tükrözi
takarmány
százezer
sugárzás
##lünk
Jók
Lukács
hiper
felejthetetlen
szend
szünetel
##lóra
##dődik
Óvoda
technológiát
Nézd
fakad
megjelölés
mulat
költségeit
Puty
egyforma
válogatás
gyűlölet
ellenőrzési
##üze
matematikai
Kellem
szavakkal
jobboldali
linkre
készítettek
CE
Master
##hólyag
játékokat
kapják
alkoholt
amiatt
ném
alapot
felvételt
iskolát
##aras
##urált
korú
##ffy
hatalmi
##isten
##OLT
kerítés
##finomult
Norbert
énekesnő
áldozatok
##izikai
##hová
##átlan
##oddal
megtév
hagyják
garantálja
gyulladáscsökkentő
ragyogó
juh
##felügy
##akez
megadása
tásk
##úri
##nkénti
léptek
##ózó
##ília
##voltából
váljon
reflex
##vényt
##érni
vitaminok
szerve
szükségem
Szovjetuni
##jós
Léte
szegmens
elül
igényeinek
MS
dátuma
meghallgatás
artrózis
1200
##orba
Gyű
előnyt
##iné
megnő
vagyont
Vilmos
TH
kisebbségi
##ujj
tradi
##ÉD
Hírlevél
kávét
sötéte
Nic
tat
##cseg
##gyűjtés
szándékosan
Telekom
Svájc
##reet
##tatja
otthonról
nemzetiség
emelkedés
pilóta
szabálysért
teremteni
##NA
Corv
Donald
##sori
##sag
csom
ÖNK
##azmus
##ésszel
##őre
feltör
forradalmi
alapítója
##hiasis
államfő
elav
megmen
Teréz
időszakot
kiszab
##amarabb
menedék
előrel
vásárl
megszerzése
##csik
történetének
Udv
csáb
idejére
nedvesség
kötelezőe
kötelezően
rendezték
##óból
To
##egyelm
##sett
károkat
fejleszteni
felületén
egyesek
nyomtató
1848
##61
csapatban
##vizsga
megőrizni
##uka
intelligencia
##zésével
##caris
különösebb
Királyság
Megér
portfólió
megtörténik
érnek
##rus
##tian
követett
kisfiú
termeszt
##latban
válaszok
étkezési
XL
##oljon
felzár
##ablak
weboldalunk
rendszerét
élhet
##via
elnyer
XVI
##zási
Ga
nyitotta
Mindegyik
##baj
##alisták
gyermekeknek
testét
ismertette
##sburg
lecser
kezelje
##eszánsz
erk
diszkr
##melweis
fura
szabályozó
ezekről
hajók
tennie
Jellemző
##atch
külföldre
norvég
röhög
##függő
fiatalember
legelső
részvételével
konyhában
##act
válassza
ügyfélszolgál
számíthat
##go
keresés
problémái
##tesszük
Fájó
Regionális
pulzus
##sön
ord
non
##acsonyabb
vakcin
Kle
##atitis
nézd
##nder
Érték
eligaz
##bc
##gyal
kamara
jelleggel
barokk
látva
##ónusz
##aknál
osztoznak
kollégák
ünnepélyes
°C
drasztikus
##nse
értékben
masz
##kam
Tár
##anom
házaspár
környezetbarát
Oli
leghír
mintát
emelni
##geti
##ajándék
királynő
Batt
megvalósuló
lezaj
Tég
életvitel
lássuk
box
##esik
segítünk
fejlesztését
fogyasztani
innovációs
Július
körülménye
aranyos
##ALOM
korong
Tapasztal
betör
beszerzése
elnöki
vegyen
mindegyike
##amban
##ntúl
Bad
##ÓP
társaságok
gabon
Törvénykönyv
##ségbe
Noha
Ahogyan
##nev
vibr
##bit
világát
ellátni
Külső
beszélek
##hozza
felfedezés
##opt
hetet
állapotú
##ikip
sap
##isztika
ellenőrzi
határozatot
##km
IR
kiküszöb
##műv
látogatóink
Bul
ígéret
Február
##eser
Helmint
##koztak
emberekben
gyereknek
gyorsaság
##ítettük
Takarék
dög
##osztalg
ITT
itteni
Ty
jóvoltából
Remek
Hav
##jánál
receptet
Egyetemi
tapasztalatai
hatékonyságát
##TÁR
Lehetséges
##ISZT
találhatóak
értesíti
kifejleszt
##Script
Juli
##hőmérséklet
##képvis
utaló
daganat
rektor
erőszakos
birk
##tájékoztató
megállapítás
lárvák
##ezőt
##iába
illóolaj
felfüggeszt
sorszám
Projekt
koncertet
##üv
rendezte
##állása
##bbé
kitéve
legrövidebb
Modern
építészet
##inta
Nagyobb
##aiba
értékpapír
körét
okozhatja
sikertelen
társaságában
Testület
Fri
matematika
kezed
bosszú
vércukors
könyvében
##ódási
Vág
házast
Erika
Utolsó
érvel
számmal
Hisz
számokat
Kong
##émánt
lehetőségük
okir
kapcsolatokat
Szav
chip
korrekció
adószám
Földön
##szinten
rozsd
híve
egyenletes
##olj
szerelt
Civil
területeket
##ásig
Tek
##ÁCS
kreativitás
ellop
##öknek
Forg
kifelé
választó
##lőt
##történeti
##auz
elismerés
##egerszeg
báty
Marad
Bevezetés
Szí
hangulatát
Ali
megvéd
közgyű
amelyekre
kivonat
feltétlen
színpadi
testületi
fűtési
kialakul
##zfér
Komárom
repülőtér
##eged
szorongás
harci
fan
csapatnak
kenyeret
##ider
##ársak
jelentkezni
Semmelweis
konzultáció
világnak
##isztító
Valame
##zással
Kupa
leadott
##utya
##sokára
bekerült
járat
elmagyar
##IB
arányos
tevékenységének
feltételekkel
##RAM
Matt
##hetővé
##álatos
##omnak
technikák
felajánlás
Gener
élménye
erőforrások
##képet
##KOZ
előkészítő
kapták
januárban
csendben
Et
társadalm
1920
eltöltött
MŰ
RTL
értelmezés
erede
kétszeres
ÉV
hibája
rönt
##ings
Tudod
életünket
tartottam
médium
specifikus
nagymam
hordoz
##eletet
üdülő
befektetők
oxid
híg
gyermekeket
megváltozik
írnak
Innovációs
##testek
kényelem
tapasztaltam
alkotások
Kemény
kiállításon
szír
Weboldalunk
##élesebb
##era
biztosítjuk
kerülhetnek
szórakozás
Piros
##ORMÁNYZAT
##helyiség
megtett
fark
Bos
Föl
Kisebb
megfigyelés
##képek
##zü
##ízing
Cal
##OLY
Ca
kíváncs
láttunk
Egyedi
##imet
##nket
kezdjük
sebességgel
sivat
áfa
ártatlan
ET
Pesti
merény
Önkormányzati
kifejlesztett
##nyő
hibákat
##agyi
led
nukle
laboratóriumi
tartozás
alkalmatlan
ának
opera
kimut
##ünkből
fordít
termelési
konver
##63
kiab
mellesleg
környezetében
rögzíti
gig
szóvivője
főkap
Vélemény
torny
tiszteletére
tudjátok
##CH
##ünkhöz
Könnyen
visszany
rajongók
etikai
Nád
halász
##oph
jövőt
megerősítette
áraján
##ítéshez
üzenetek
Pozs
Bele
ismételt
szolgálni
##kál
igyekszem
előirány
Fert
felülete
impr
hobbi
##egyház
értelmetlen
kollag
dicsőség
gyógytor
##KE
közeljövő
beillesz
##érő
##jesztett
plety
##nnyel
##ópusi
ML
ebé
##negyed
##méret
tárca
beül
megosztani
végrehajtási
fényében
közterület
lábát
anyak
tegnapi
Hús
##ükről
térségben
nagyváros
kiépítés
törli
önéletrajz
Debrecenben
testre
##d0
kiadások
legérdekesebb
##krit
esetre
hozhat
##labd
##pál
##hetne
légkond
lányt
Igyek
válasza
keresg
##cis
kabát
reagált
vonult
ameddig
mít
Green
Találkoz
##jól
tudjanak
Győri
valót
##jétek
bűne
titokban
korántsem
Ady
##művek
Mostan
##kötelezett
örvend
HIV
kiállítást
legmegfelelőbb
hatnak
érvényben
kval
tulajdonsága
éghajlat
logikus
1986
nehezebben
eurót
##zeten
##lini
vegyük
bevásárló
##kebb
eladni
dioxid
veletek
##assal
céljai
érzelmek
tudnék
pors
##VET
rétege
##áin
kolostor
##getett
##életlen
őszén
ünnepek
párhuzamos
éli
##béli
gyalogos
##őképpen
boltban
elmondja
sorozata
##úrák
boszork
Gratul
könyvel
származnak
foglalkozások
##zsír
dikt
Hozzájár
vágjuk
mediterrán
Pet
##ételi
Takács
agyon
##íthetik
küldjön
préd
Dolg
beltéri
##ozásával
csemp
híreket
háza
##tablett
kellékszavatossági
fahéj
Pszich
##emnek
Elt
napilap
##ködési
Szilárd
panaszokat
##éde
##hessünk
Megállap
sportolók
##elemek
MOL
##választás
idáig
kálium
nevezni
JavaScript
##kont
találkoztunk
közismert
lehets
##bíró
##ponttal
##fánt
##bot
vere
hagyd
mil
##adták
kibőv
glutén
betegségben
Féreg
Óbud
Londonban
manipul
harap
hun
elénk
oltás
##történet
szubjektív
jelentősebb
klímavált
Ugyancsak
felülvizsgál
azonosítani
##adós
kalkul
precíz
Táv
##temben
Bon
ismerni
átadott
kapus
munkatársak
útnak
##esszió
indultak
Csup
érvényesítése
kormányrendelet
kedvezményt
zsú
osztályos
XXX
tartsa
Ros
Széles
##éval
papírt
Thomas
Tour
térítés
##nce
##árral
##ságokat
galandféreg
Rog
Nat
kav
bekezdésének
boldogan
éjfél
átmérőjű
##verés
Napjainkban
pult
összeáll
Regisztráció
bűnöző
regénye
dán
Márta
szólni
felépítése
állították
##OGY
esetet
pék
Móz
##elenk
Bet
##pert
mióta
balesetek
sütőt
vitték
Szeretet
##rive
betekintést
tark
alapszabály
##dtem
országból
adatkezelést
helyébe
karcs
##erben
horror
##áznak
redő
adatát
fenntartó
éget
tárhely
Abb
ivóvíz
##ezon
problémákkal
megpróbál
győző
egyetér
pótlás
kérek
csapatunk
alm
Polgármesteri
fill
tagjait
Tánc
adatkezeléssel
tum
megfigyelhető
mindennapos
kardi
Ka
Power
##rix
##rí
eu
##éra
írása
fizi
szalagféreg
Putyin
hívni
ÖNKORMÁNYZAT
##cul
##ozunk
csökkentik
küldünk
##keleti
##oldalon
értettem
##égyen
tulajdonosok
előszeretettel
##ósa
##pent
kukoric
Gyakori
eltekint
Eredmény
Fen
képességét
köti
őrizet
##ényszer
fonal
20200
tudjunk
##csek
gyanak
##uki
beszélhetünk
torok
##lista
Olvasó
Szék
##íme
derm
forog
beteget
megtalálhatók
##vaj
Éjszak
indokolatlan
Márpedig
megnehez
támogatással
Ult
összerak
##ogott
##omot
vérzés
hagyományosan
##ezei
darabok
idősek
Univers
csinálja
Lásd
biztonságát
azokon
##ödör
kivet
alkotók
##ötét
XIII
##színvonal
hajtott
ellenséges
##ser
Szület
méretek
minimálbér
címk
szivattyú
pótlék
##KA
##arok
rok
mérle
##zöld
##űd
##yl
titkár
fokon
eredménnyel
Sil
közéleti
Mur
##főnök
##empl
##energia
Mennyire
##vizet
cer
túlmenő
létezés
kutyát
bocsátott
megismétel
gyermekkor
##játszott
felajánl
moss
##ezz
##tudomány
Igazság
megismerése
trad
motívum
legsz
Moh
szók
gépi
Elle
utalt
##odását
fokhagyma
újszülött
kliens
Római
százalékra
##zam
##eskü
kupon
legenda
ismeretében
GL
vírusok
##túra
listán
csapatt
nyomozás
írom
mellőzés
teljesítményét
mók
fogak
##Az
érik
versenyre
Nál
olyannyira
életmódot
Kolozs
névtelen
fiatalokat
bizalommal
##veny
motiváció
Han
előadók
Jean
nemet
##ziv
magányos
harcot
Kellemes
ajándékba
##nyugati
parton
##tec
kontraszt
leveleket
Kezdet
##mikus
blokkol
megállapítható
egészségét
meger
bukkant
jelmez
mágneses
##anod
##isak
csoportot
##omentum
Habár
megtudni
választják
1987
##med
##árius
elnevezés
##imum
izgatott
melyből
ránéz
##részről
##oterápia
hölgyek
önként
érvénytelen
formátumban
folytató
tulajdonságai
##iliszta
mir
ezred
##ségből
virágok
halmaz
ismertem
Hétfő
sütemény
##évi
##érem
jellemzők
döntéshozatal
##lésének
GB
leghíresebb
komponens
HELY
kezdetén
##ÉSE
##essen
megszüntetése
fórumon
főtitk
buzd
Románia
Gabri
Vidékfejlesztési
Mt
zenél
mellkas
Ugyanez
világítás
Ingyenes
##készlet
Veg
filmeket
irigy
##offe
napközben
Adatkezelés
orsó
Dunaúj
időről
lakberend
oldani
##rib
hiányzott
##finanszír
szavazás
sportol
Ajánlat
ropog
valósult
##attant
##inok
kompakt
##portál
##érek
kritik
Pre
Úgyhogy
##ítéséről
##rist
módosító
kazán
Pinworm
##f0
bútorok
ajtók
megszün
feljebb
halat
átve
Kiz
leszámítva
szintjét
megvalósítható
katasztrófa
BKV
kormányzó
SZABÁLY
##forni
hajnali
kölcsönöz
kevéssé
védjegy
tavaszán
próz
Egyedülálló
##anikus
##nők
bajt
szükséglete
##atokra
##tens
halálra
dém
Miss
kerestem
kilométerre
kiállítása
megfert
irányítja
##ogás
beérkezett
##teme
érző
##less
ingad
bölcső
femin
##iából
koh
hülyeség
viszketés
Olimp
akkredit
töreked
##ciális
ismeretter
##kin
nyilvántartás
felsőfokú
kioszt
Keleti
Vala
kolb
bitcoin
eleje
elhelyezni
pis
hangját
Isz
##ölése
futni
allergia
##õt
forrást
adva
muszlim
tervezték
##désével
##kád
felej
kedvelő
kombináció
csatlakozik
lí
kancell
látogatása
lejt
Szeretem
fizikailag
magyarázta
háromszög
Neki
nyíltan
lelket
májusban
bogy
elvárható
kamion
városba
tárgyalás
##agen
elmenni
elhelyezkedő
##szövetkezet
jellegűek
##keltő
gmail
Partner
##andra
##BO
Magazin
Alapvet
objektum
Csatlak
NAP
TÁMOP
##immun
pénzért
régészeti
immáron
alany
Grand
felhasználót
Ezáltal
##angó
problémával
##zendő
találmány
##kór
##gat
HA
tisztítás
elszánt
konyhai
##96
##áncs
szakaszban
képi
visszaszor
HAT
tesztek
bérlet
utcára
átadása
##désre
állatokat
startup
hin
félelm
##temp
civilizáció
##oltuk
Szuper
ÉR
eredményeképpen
Aqu
foglalkoztatási
mindhárom
egymillió
##arag
##tesek
együttműködést
üzemi
##annak
titeket
##iára
társadalomban
##hatnánk
alapok
##vázi
Óri
felhasználásra
Gyorsan
Pint
Székesfehérvár
rakét
##arr
She
társkereső
kártyát
láthatók
Res
##tenyészt
decemberben
##olásával
lehetsz
dízel
formájú
Elnök
Kattint
honvéd
tűnnek
helyezték
Felnőtt
kompatibilis
tartózkodás
megszere
meghozatal
kereskedők
részleges
motort
szenz
Függet
éleszt
##ciklus
##emberek
közölni
erejű
kifejezést
##ságáról
##sors
kötvény
##zabadság
promó
szep
legalacsonyabb
##ject
##asztotta
##örcs
##moder
készítenek
szerdai
##uborék
##látó
feltal
tiltakozás
differenci
alkalmaznak
Statisztikai
támadások
Tisztelet
EURÓP
memória
megmondani
visszame
örökbefog
tájékoztatta
csapd
##ősök
kirándulás
Megs
területét
##ÉZ
tisztviselő
fontosságát
##ilát
utazt
kedvezőtlen
kompenz
##álódik
kihű
ist
játssz
tép
jegybank
2022
Terv
forgatás
Joe
Költ
termékeny
Mars
becsül
egységet
létezett
bög
##désének
harcos
rájön
borok
mondhatjuk
szervezetbe
ritkábban
látó
küzdött
esztend
##IX
##58
bejegyzett
előfordult
kull
törvényjavas
Wil
történész
##nyáj
Win
Angol
##ÉRT
tárolni
miskol
##jóléti
megemel
XVIII
Camp
munkamenet
kíséri
ütemben
vezetést
folyamatát
kedvet
##GB
megtekintése
szavazat
##archia
olvasom
égő
##non
Komp
színészek
logikai
bom
##áztak
##küle
##gon
galax
fejem
szervezetnek
szoftverek
kiszolgáló
kifinomult
állapotának
gondolunk
repülés
kritika
##fogás
Vikt
##ítsanak
szponzor
kereszténység
közli
átvenni
##rendszerben
##erdő
köztud
egyenl
megpróbált
azonosítása
gondok
##isztán
megtör
időszaka
gumiabron
érted
szeretjük
utalvány
interjút
nyújtja
közgazd
##bbal
Elkész
üzemeltet
ifjúság
1985
helyezte
Csongrád
együttműködve
sugall
heves
megtartani
programokkal
közösséget
Spanyolország
##fokon
megsértése
##óján
##mû
testünk
formai
Finn
pályát
állásfoglal
behajt
##adag
szervezetünk
tanácsokat
növekedését
##aritás
sci
##szeml
irányítás
##b0
mentor
csukló
##vessző
fontosságú
##zzük
##xel
##éül
##ápoló
tünetmentes
##egészségügyi
fellelhető
végrehajtása
átjár
kombinált
főpolgármester
bővül
lefogy
Gás
elvárt
statisztikák
felnőtteknél
öngyilkosság
##teszem
szabálytalan
szter
google
kiüt
logisztikai
vélhetően
átalakulás
leköt
csi
ellensúly
agyi
belevág
kanap
Bőr
perem
bőséges
##ségtelen
tölg
##hatóan
családnak
##ientált
fejlődött
tragédi
Amerik
##oland
hívott
segítette
nyomaték
ihlet
arcon
költségei
véráram
SZÁM
minthogy
kac
pótolni
hirdetéseket
##cho
betartása
##kínál
Sky
##hettük
##fy
intézkedést
utasok
##ÓK
nel
##tartás
##venc
túlmenőe
élve
túlmenően
##szalag
foglalkoztató
##ORT
írók
lila
##mák
##NYV
##ikar
hajnalban
emlékezetes
rendelkezett
dag
vállalunk
Szerződési
életünkben
ellenőrzött
Ernő
visszafizet
##by
##dc
linken
szakasza
lik
felismerni
##lmetlen
Sü
megváltoztat
##leves
forgalomban
##andin
Ly
Ferencváros
egyhang
##HAT
##zetlen
záloga
##isztenci
##tenünk
##bbek
jelentkezhet
irodai
##dán
rákos
engedélye
ezren
illeszkedik
##kedve
banda
rendelhető
kistér
ráford
##utazás
éhes
amb
nagyra
##oty
váló
##arendszer
Kop
előírásoknak
##játékok
Gold
##ázók
ismertetése
problem
##ónus
nosztalg
##auto
brazil
Sony
##ottuk
cér
turist
fogyatékos
##esztően
elhízás
nézőpont
szeretetet
fejjel
rajtunk
NF
kényelmi
sorok
meredek
kapcsolódnak
Hatékony
problémás
##állítások
hajtó
világba
ass
kontext
##vészett
bejelentkezés
semmiképpen
tömege
soros
##ökkenő
megnövel
##esnek
Hajnal
##nevet
fejlesztett
NAGY
beszélgetések
résztvevői
etnikai
hegyek
petr
ellátására
pénztárc
Hasznos
Af
abs
kep
kérik
veszélyeztetett
##csepp
TART
elmondani
Katona
társai
##rta
szolgáltatásaink
Rendel
felkap
Lássuk
előfizető
##aje
##igg
lejátsz
nyelve
kilogram
megmutatni
ízben
kesztyű
kapszula
cégünk
##idet
kézben
élősködők
ro
##áá
üzenete
türelm
foglalkozunk
teremtő
##fák
##ítója
fertőzést
##ession
szivár
Szentlélek
fúr
Vajd
Pay
Laci
##pressz
fokozottan
CXII
haladva
##ier
hazatér
végzettség
kórus
szekció
tradicionális
kötelesek
##oldó
##meny
kicserél
##ermékek
gyakorolni
visszal
magyarázza
feltérkép
Ján
limit
bölcsesség
esedékes
Ipar
nagyvállal
balatoni
MIND
##nyék
##szintén
desz
mosogató
Gulyás
sorba
Üzemeltető
##arktus
mailt
img4
érintkez
img1
kedvem
koszorú
450
gitáros
elkölt
IC
##áiban
melege
Feltétlenül
felhívni
##örténész
buddh
feszültséget
fizik
bej
##ózus
alkotása
néhol
dimenzió
Készült
jogállam
##hé
##62
pénze
##telező
Sir
##akhoz
legfelső
giardiasis
Célunk
Orvosi
csillogó
ORSZÁG
utó
keresünk
csinos
vent
Times
nyomja
galéri
Sajnál
varázslatos
pszichés
paraméter
adattovább
sztere
reprod
felvált
##parancs
##opia
rájöttem
Alp
tűzi
##TI
##ürt
##csabai
ügyintézés
fotókat
Továbbra
rögzíteni
##ataink
rendelni
Dzs
##ilkol
Gáspár
menekültek
img3
mogyor
időjárási
Bük
bővebb
irányul
img2
magukkal
Nagykanizs
esnek
torta
RENDEL
ruhák
Angliában
Gál
Bill
betegségeket
autópálya
masszív
rosszat
##bevitel
pezsgő
őrzi
pokol
##ásért
Távol
fogott
belefér
Elfogadom
##záró
lejjebb
kij
ISO
megismert
helyzetek
kitett
php
böjt
külvilág
szenzor
feladatait
jelenségek
fenntartani
közvetett
csász
szakaszon
helyszínre
##nis
maradéktalanul
idéző
##útra
hónapot
##aly
erdőben
img0
##abi
elszámolás
dologra
Kevés
Mol
maradandó
##ASZN
##oszex
gyulladása
állok
vettünk
munkaügyi
leng
##tlenül
Kata
Hungária
megjegyezni
sorsát
szakos
##raft
megtestes
igazságügyi
szerkezete
megállapította
Köny
költségét
megköve
túllép
##HA
használtak
képességek
Birodalom
##lehet
feldolgozó
Anti
rendelkezéseit
##ald
evangélikus
Husz
kemping
köhögés
értekez
bíbor
Egyen
tanulmányait
stimul
jövőbeli
elejétől
országszerte
OS
országba
mérhető
tervezi
teszek
előadásokat
megvannak
DJ
iskolás
##yán
cigaretta
1984
##amell
kiszere
ésszerű
alszik
tűnhet
elárul
##intézmény
Mes
adj
segítsen
középpontjában
turmix
győzött
##doboz
feliratkozás
nagyok
idézett
Párizsban
Tájékoztatjuk
##lenk
##gette
fogamzás
##ziget
##kup
##őrzés
##lésben
##álhat
kedvezményezett
javítására
##élmény
szakmailag
dupl
étterm
hőség
hozzáadott
kívánatos
dokumentumokat
korona
##ázz
felszínre
technikával
##ozhatja
Különböző
bag
Szok
Miskolci
ajk
Jul
##EX
##édelem
ügylet
##unkból
legyél
##mutató
mérlege
moderni
##93
##ltük
depr
védelmére
Aba
legsiker
Reméljük
ítélt
lencse
bakteriális
##déséhez
alapjait
igényeket
hangok
gesztus
szerű
##désére
basszus
vegyi
##helyzetben
##házán
kiválasztani
egyezmény
egyéniség
lisztet
MUNK
PhD
váró
Tizen
##han
Bek
utakon
segítségre
orgazmus
elsőbb
Csend
díjazott
elnyerte
eladás
kínálja
tetőt
zárult
változatban
Stor
##ózott
ügyfeleink
jótállás
##cert
dolgokra
fegyverek
##hurt
##ságával
reneszánsz
főző
reklam
Támogatás
##énként
##tetlenül
Rek
##aver
előadásában
Lor
gyanúja
##hatósági
##mentő
Áron
halálának
felfedezni
tájékoztatót
Közlekedési
##olat
magánt
kiírás
Elem
évezred
strong
##hallg
apát
telepített
##telte
javaslom
System
##intéző
human
Ezekben
##vős
Puskás
árbevétel
vetél
kiszolgáltatott
prim
hagytam
##hetség
nevéhez
linket
Tipp
Zempl
csendesen
##kapu
mis
mandátum
##rendszerek
hagyományok
bőség
##modernebb
építettek
4c
írások
Mess
Ausztriában
jogerős
képzésben
Bern
fogadták
médiában
##ihez
M1
Szeretettel
Hill
utólagos
hőt
##ru
csönd
Egyáltalán
jövőnk
kiterjedő
kényelmetlen
polgárok
Csomag
##korong
Kincs
próbáljuk
Der
Bármely
##ush
határozzák
##kiadó
zakl
határozata
##koriban
engedéllyel
##itisz
##JÁN
részvét
##ozatlan
##dem
csütörtöki
Alapvetően
állatorvos
számítógépén
##ítógép
odáig
Bat
krízis
egyharmad
##iew
írd
anyák
##segély
regg
védeni
segítségére
teremtés
##felszere
istentisz
bőrre
Richard
átlátszó
beszállító
helyzetekben
legmodernebb
popul
jelentőségét
indultunk
szigetel
táján
macskák
marha
##ülünk
habár
##https
megné
tulajdonú
társadalommal
VA
zsar
hívő
főiskol
módszertani
koalíció
helyreállítása
begyűjt
rassz
oroszok
##arm
övé
##melő
blogon
valószínűs
Szatmár
képzések
mutattak
##oztatás
adagot
Olaszországban
nyilvántartási
feltételeknek
bárány
Szeksz
##esszt
##álisabb
kereskedési
irányított
##94
utazni
##optimal
általánosan
alpolgármester
letisztult
##atómi
megfelelnek
szteroid
##vendég
évtizedben
##umen
emlékek
tomb
kegyelem
Alsó
lent
finanszírozási
##zis
alakítja
##készítő
függőség
##dog
megkönnyíti
fegyvert
túlnyomó
##lapot
hitet
##azekas
LEG
##tábl
meglepően
ugyane
elfér
fogadják
narr
##árgyal
bőre
##54
elkerülhetetlen
tényt
##mezővásár
élvonal
figyelmesen
inak
szigeten
karant
emlegetett
##lődött
##84
határát
bántalmaz
közszolgálati
pontszám
##auna
mel
áthal
Mára
versenyek
Pécse
példája
kereste
mindenekelőtt
##órás
anyám
ft
##asszázs
##orszag
létreh
hatalmat
figyelmeztetés
nyomozó
módok
ápoló
megszáll
##orid
hátral
közleményében
alkotta
##zabadságról
##aválaszt
észrevét
Szír
apám
AG
PL
testvérek
tanévben
Hód
##zd
##fb
kötődő
KK
fogant
Centrum
könyvtári
ünnepség
hozzájárulnak
anyagokkal
széria
Toy
szk
miből
kerültem
Bio
felolvas
Kele
harmon
közeljövőben
érzett
felbor
ellátási
kockázt
megannyi
alakulhat
díjjal
kike
sebész
Luc
húsvéti
##ükhöz
Biztonsági
##cke
1930
csillagos
dolgozat
jelezni
próbálni
JOG
változnak
##ahi
műsort
##izont
##iparban
Fejér
létfontosságú
helyszínek
halálát
felismerés
egyedüli
templomot
síp
belga
##ilt
Kbt
Leon
##modell
ülve
partnerei
olvasót
lelass
dolgunk
táplálkozási
következtetés
megszor
emlékeztető
Ep
kértem
megkötés
alkalmazottak
felmérése
cégnek
##álát
##yűrű
Fant
fából
Kérlek
tomp
Gergő
eresz
##olajat
##ekel
Válassz
gyógynövények
értelmezése
énekel
Esztergom
csontok
mézes
kérdezni
##versenye
dokumentáció
minősítés
Kiemelt
díjakat
tartalmas
szelíd
##ezeti
##honos
laboratórium
merész
közlekedő
többszörös
Linux
munkavállalói
##ii
Lou
Hó
sértett
mutatjuk
##érmes
Másik
kiszolgálás
kiszámítható
Kristóf
viselt
pontosabb
Mult
##ito
állva
keresel
kihívások
nagyméretű
##olód
befolyásoló
százalékban
##műsor
mondanak
választottam
ros
viszik
megtilt
Tölt
nátri
eljutni
kormánynak
ura
##egebb
darabig
##állatok
annyiban
##56
##keresés
vígjáték
##éteren
nyújthat
##ügynökség
##érte
ébre
rendezvényt
##osítást
belsejében
árakat
##séghez
rendezni
novemberben
##ovic
szlov
##opter
##asak
Állandó
meghód
érsek
érve
jelenlétét
küldetés
szün
Galéria
játékkal
erőforr
##ôl
korig
Spe
##ószer
betűk
megosz
relax
##uum
nemhogy
##zálog
##ségünk
versenytárs
hányad
dörzs
keddi
okozni
cim
italok
nézem
beszerzés
##kincs
out
használatot
Nobel
Bereg
adom
helik
##kiegész
kontakt
sziszt
nyaralás
előkelő
##jainkat
bukkan
parancsol
hektár
##ünnep
pump
##ulásra
##ízületi
élvezni
Til
szövetkezet
##napja
##ítószám
jegyek
éveken
##tterem
220
említettem
teás
októberben
##hassunk
időnk
kitüntet
homlokzat
fedő
##házt
1968
napsütés
reakciók
fajtája
függőleges
erőfeszítés
kézikönyv
ÁFA
lépésben
elkészíthető
megjelenni
úsz
mindezek
szívet
Huny
veheti
megfelelni
esszen
felnőtteknek
megp
##uge
viszonyítva
bejött
típusok
szentmis
Réka
ostrom
sikereket
projektet
szabadidős
##HET
##zöveg
##hatású
integráció
bekövetkező
##ábl
összetétele
Glob
Uj
indította
kapcsolattartás
##hr
aer
kompromisszum
miniszteri
zavarja
Komoly
kivitelező
dac
csarnok
tükröző
nagyságú
##97
leírni
körülötte
munkáltatói
Jeruzs
##ülten
előkészítése
Kifej
gél
részen
rav
hajlamosak
##teszt
kezeléséről
##83
büf
ellátva
tartományban
Móri
főút
bead
Infot
elkészül
csinálnak
kavar
##tatása
évtizedekben
telepítés
kódot
melyhez
elnökének
his
gyűjtenek
Bát
cen
##der
mérési
elfogadom
telefonszámon
##ásmód
nevek
##eredett
impul
szereplői
ablakok
készítünk
##isszük
##idegen
írtunk
##csin
számítva
##ézete
ázt
##ugh
növekedett
besorolás
gyep
##áktól
##cu
##onnal
Körül
útmutatás
törés
Atya
úttör
##tetve
Open
##maradt
gyermekvédelmi
gyengeség
##esége
folyadékot
Kinek
Mikulás
Szállás
ekc
mítosz
hozzájut
nyilvánosan
életminőség
##kalács
##unkról
##oter
ball
azokról
Ottó
dolgát
nyálkahárty
Fogyaszt
tekintik
kezelőorvosát
##zurd
információszabadságról
nyolcvanas
##alkotás
minősülő
oste
##tetnek
bevitel
Gyakorlat
népszavaz
választhat
megrendelést
mostanra
miskolci
##úria
kinézet
termékkel
határidőn
elszen
Borsod
##anár
##útor
##játszás
állítása
Plus
közigazgatás
kitartó
Proszt
meghat
bírói
náci
kellenek
minősülnek
módszertan
##ukkant
használhatók
Igény
érvényesek
kem
Ég
érvényesül
##ÉNEK
##FF
##ünkös
Nemes
férfiaknak
antiszem
##87
arom
interjúban
##EGYZ
főzni
##ültünk
szállást
férő
márciusban
##háló
főhős
igényelnek
##ségéről
láttak
értelmezhető
mo
cégnél
##épa
##utatók
megtalálhatóak
üzletek
vic
gyakorlatokat
##érvényes
ov
oldalunkon
programját
témájú
Evangél
szerkezeti
##ápolás
ezekhez
tölgy
gaz
Halál
kattintással
javult
áthely
##akból
összefüggés
##iszk
alakultak
##szóval
##mb
újszerű
fejlődésének
##andók
ülésére
##ékel
könyves
átmenetileg
Borb
összekötő
EURÓPAI
##álód
poén
gabona
KAP
kínálunk
műszak
tudnánk
rekonstrukció
1978
nukleáris
sir
ártalmatlan
TÁR
legsikeresebb
##rém
elvárások
szerződési
##osh
világi
##front
Súlyos
Alkotmánybíróság
támogatásra
##inget
##ico
akadályozza
##lenesen
betilt
##mete
##feltétele
állvány
masszír
##czi
Valaki
eurós
##képtelen
##erekkel
CB
Legut
szarvasmar
fesztiválon
##haza
szülőknek
foc
##nöm
szeretete
szur
Hanem
##úszt
operatív
becsap
##nez
sértő
##kérdés
tábornok
webáruházban
##ítész
##inam
tobor
##dőn
közölték
NET
##telm
édesség
##vadász
nézi
elérését
szabályozási
barátai
megteremtése
##birtok
Erőforrások
mutatkozott
Szakközép
##esztivált
vágyó
Home
##52
feledkez
alakít
implant
adózó
medi
juthat
##liget
##ckop
aktual
Női
##jegyet
VÁROS
Egyez
meghívott
peték
funkcióval
mp
kimarad
Forma
betegtájékoztató
értelmezni
##ogatja
kérhet
Gabriella
Szlov
négyzetméteres
Eny
akármilyen
West
##lement
szedett
előít
##enged
kijön
##házas
lehetõ
##ÓG
paraméterek
Operatív
darabja
Törvényszék
##teráp
mérsékelt
helminthiasis
##zettek
vélek
tarts
Lem
bezárt
##áter
működéshez
##a0
##lött
fegyelm
tapasztalatokat
elront
megítélése
áh
megkezdődött
##KOLA
##zé
Üzleti
##találkoz
##valókat
ring
##lással
Fájdalom
dokumentumfilm
szedése
##köző
kifejtette
elkezdődött
bibliai
gyermekét
évekkel
visszatart
nagyságrend
zsinór
rendszerének
útvonalon
##elés
vonalon
kíváncsiság
GT
##vénnyel
röntgen
viselni
világbajnokság
generációk
DD
##údi
alkotják
##ökös
húzni
nagysz
##jat
Szombathely
##°C
középe
csöp
Siker
háttérbe
##git
##VID
Galax
munkához
Mis
tanított
versenyben
értékelni
felke
élm
Horvátország
Fa
kénytelenek
próbálnak
munkánkat
miénk
##évente
nyertek
kitűzött
szüntet
blogger
fejbőr
kiterjedt
eszme
megnyerte
##ességű
elbírálás
##ÉKOZ
okozzák
idézte
érkezés
információkkal
##ónika
kémény
kezele
tekintély
##özpont
csirke
elintéz
megelég
listáját
##vével
töltenek
##iknak
cink
##xit
közélet
kezdeményezésére
tiltott
##taur
óránként
Kocsis
pelenk
hozzáférhetővé
autoimmun
Stratég
fogalmát
módosítását
értjük
##értékelés
kívánság
gyógyszerészét
##vezetői
Kisz
Bécsben
##ikusabb
##gyors
##ásként
Ors
Honnan
kísérletek
terjedt
februárban
jobbak
alkotói
részeket
##bocsát
FM
megnagyobb
mozz
rátal
Twitter
korcsoport
##RO
energiával
helyenként
visszajelzés
Nóg
Szeretnénk
palota
medve
konzol
Megjegy
kiemelkedően
Megfelelő
##81
szövetséges
változatát
##tria
eljárással
megkerül
célcsoport
##ote
gazdálkodás
tró
##almakat
Tulajdonképpen
##osabbá
megfizetni
borzasztó
tisztelettel
##cid
fejlődést
agyag
egyikük
termelők
újr
fogni
1948
hirdetett
fogyassz
Washington
odafigyelni
jutottam
##51
turné
##ütő
megnyugtató
témával
Felv
beállítani
provok
élősködő
rendhagyó
##ritk
Köze
kíváncsiak
##atának
Hossz
kavics
betege
##több
Cz
##ázst
utan
Gödöll
honlapunkon
Smart
Puszt
egészségre
kötődik
##felm
hev
csodát
kialakítására
##átta
savanyú
protokoll
ellenérték
##galmasabb
jusson
##ardo
méltán
##92
Könnyű
Design
##körül
kiegészítés
különálló
megkötött
kiszabad
megbízásából
##resszív
osztályú
kifejező
hacsak
Legalábbis
sebes
hasonlók
##javal
##fájd
Szű
##ste
relatív
ügyesen
hiszik
##ázták
alkalmazást
közért
képei
bajom
biztonsága
függöny
demokráci
jogász
találkoznak
átf
megtor
meghall
vágyak
##ukról
oroszlán
lőtt
közleményben
menete
állapítja
##itások
Róma
Danie
befejezése
elnökség
átdolg
hálószob
tulajdonjog
##álé
megnyí
##anyagokat
Moson
eltilt
##resz
szervezése
4e
dolognak
Elektronikus
oltár
szimbol
Keszt
fehérjék
kialakulásához
távirány
##lettebb
üdítő
igénybevétele
##minő
kerüljenek
ismertető
kormányhivatal
leszög
licen
csúnya
##ih
mellékelt
marh
megvásárolni
##ÁJÉKOZ
##odon
környezetvédelem
ca
Szállítási
##rey
##oban
stresszt
Vl
konfigur
##felad
tudását
diplomát
értik
sűrűn
Gyönyör
Közvet
katalógus
##ÖS
mang
színeke
##dent
sorak
várták
SZDSZ
tu
gyermekei
hozható
Irodalmi
döntését
##ölték
középvállalkoz
magánélet
mérlegel
##áciai
##UN
előleg
áprilisban
Of
Roland
Heti
haladja
vonja
hangosan
eredményesen
ismertek
##úszott
látást
##xikói
főtt
felhívta
##kedtek
ellaz
pályaudvar
##odox
Center
csapattal
##gyűrű
megválasztott
Hív
közbe
szövetek
találod
búvár
micsoda
##zattal
rehabilitációs
nagyb
helyiek
##disz
keretei
középen
forgalmazott
akvári
##köri
Téged
##évet
Egyesülete
felállítás
feldob
##éseinek
megtekinthető
##pszich
##opol
evés
##kedést
##öke
natúr
szállítmány
szód
riaszt
##rában
##szöveg
gyémánt
ügyvédi
jogosítvány
Carl
későn
napsüt
Sec
TE
tőled
Start
BUD
##artalma
##lár
##assunk
keresek
fizika
##ényt
beágy
##ty
megvalósult
ró
kihúz
választáson
hétfői
báj
nyilatkozata
ugyanígy
biztosította
munkánk
tűzoltó
időbe
bevezetett
AF
beszédet
##vezési
##usztikus
##onka
szólal
csakúgy
Schmi
##szom
Tökéletes
Agrár
gondolod
Aszt
##ukba
##éjén
##abát
##ességének
termékei
srácok
cserép
tükrében
gyal
##végig
végképp
##onyh
helyszínt
hormonális
kifolyólag
nézz
attit
utast
##lón
csokoládé
##zűr
szűkebb
kérnek
homeopát
érzelme
pontra
matric
tus
Színházban
elősegítése
leford
Szükséges
Nők
stroke
##edését
kötelessége
##OGRAM
üzletember
problémám
sört
teljesítését
die
ponty
##cept
Szob
igényelt
cook
##c0
Heged
Pintér
##ábr
mérni
széleskörű
Od
dia
határok
környezete
##chester
évfordulója
remélhetőleg
Hivatalos
##kiállítás
kilencvenes
tudomást
felvételek
##csökkenés
tablettát
bajnokságban
bén
elhelyezése
##play
hivatali
##álem
főorvos
##öszönt
nemigen
Vez
szüleim
füzet
teremben
bárk
##ingen
haris
Infotv
beh
kapcsolt
frank
cegauto
gondos
játéka
beállítása
kongresszus
előt
jelöli
gyömb
talajt
adventi
megijed
hajtás
##okkant
India
##com
művészett
legiz
visszaemlék
termékekkel
tizenhat
illatos
hetvenes
önmaga
mondjam
szimb
Team
Norvég
költői
könyvtáros
imádom
##otípus
Kulcs
##AF
modelle
ho
kialakítását
ossz
##azat
lemezt
##pihent
tettünk
utalnak
Konferencia
Délután
kiemelni
Speciális
##ezzék
##ÖN
##eközben
##részek
Csütört
karossz
felismerése
gondolatait
figura
hangulata
##alomra
deform
áramlás
Legfel
##óhoz
pörg
##központú
órákat
##gan
Christ
##felet
##megelő
oldalas
##ortól
másodszor
ellenes
beszélgetést
plaszt
Menny
Read
MEGY
adathord
jelöltek
Legf
nevezhető
##RIS
messzire
##időben
##fiatal
cukrász
##ody
alj
persp
##soriasis
kollagén
felébred
vezettek
Fire
befejezés
sajtótájékoztatóján
apostol
kaphatnak
konfliktusok
átalakítás
referenci
##alkalmazott
Maros
krémet
küsz
1982
szilikon
beszáll
adóbe
kopás
képre
nevezi
240
##hatalmi
képeken
##neve
jelenteni
serpeny
vélt
##91
előnyeit
perifér
##ST
##eddel
##igment
##öztek
alátámaszt
1981
összesz
folytatódott
EZ
Szentend
##ötty
értékrend
szörny
##ology
kötetben
vizsgáló
##ásáig
rendeltetésszerű
klip
alapjául
##ues
jelenlétében
Ős
Cy
töltöttem
CT
világbajnoki
terjedés
igazat
színeket
súr
áttekintés
Örülök
Kezdetben
azokhoz
##div
várva
bélben
##tooth
Tudjuk
RÉSZ
1975
győzelm
##abé
pénzügy
lelt
bizalmat
Mindannyi
töredék
édesapja
nyugalomra
tapasztalatot
##jev
misztikus
központjában
##pályás
Gell
Japánban
stílust
tárolása
##hetetlenné
Biztosító
hallható
##amunk
büszkén
nézeget
feltételeiről
##közvet
számíthatunk
javasolta
Hű
Del
barátaim
jelzik
állatot
csésze
Megtekint
gyanúsított
eladott
mondanám
fodr
Irán
közoktatás
távoll
indik
évesek
minták
termékcsalád
PM
gondols
##águld
alelnök
vezetési
##ÖL
adatokra
tapasztalatait
térfog
kellet
váltás
gondolsz
Uniós
##gyártó
kézhezvétel
Biztosan
Ci
hatálybal
érdemben
menjünk
protest
születése
##úzott
land
növelik
Bibli
##inknak
bűncselekmények
barátnőm
Tolna
##ermelő
##ÉLY
becsület
Gyöngyös
hivatkozott
Nyíregyháza
láthatunk
napokat
időtartamra
búcsút
bizonytalanság
##olo
játszódik
##orral
teljesség
##aitól
analit
Bag
árvíz
##53
elégedve
Mir
##ule
Word
varik
befelé
Leginkább
##mp
külse
forral
magamban
érvényesítéséhez
klímaváltozás
mozdulat
pálink
##ius
Görögország
versenyképes
bicikli
felépített
##érzetet
azert
##esület
palacs
járási
Plat
kocsm
megadja
viszon
BBC
kérték
Un
##kölcs
Művészet
##kereskedelem
problémára
##telni
traum
##82
TUD
életébe
figyelj
alakított
##rendezési
védelmében
vs
cikkeket
megvásárlás
reklámok
kézen
elsők
##setek
töltés
középiskolai
##utc
feltehetően
ezentúl
Részletes
zöm
tesztet
emlékszik
##azonáltal
csökkentésére
korom
megteszi
##öltő
célpont
szakadt
géppel
##ázist
##roham
nyerő
szenvedők
olcsón
oltó
helyeket
erősítése
megvásárolt
##öget
szimbolikus
##gelt
jövőbeni
kiegészítve
termékre
Hazánkban
tudnivalók
távozott
területein
addigra
vászon
szolgáltat
jaj
elektrom
##neket
többit
irányokat
##DK
TOP
##léc
##atej
##OC
##észettudományi
végezhető
küldte
megváltoztatás
bélférgesség
Dóra
végrehajtott
hangsúlyozza
weboldalán
fordulóban
tüneteit
Von
homály
kettes
kihasználva
autonómi
kimaradt
valóságot
becsült
társaik
Buk
javító
Jose
hiszek
##idó
1979
##orozat
cseréje
Bizottsága
##irm
kismam
energiatakarék
##urb
évfordulóján
kezdetektől
haladni
utazott
premier
eltekintve
megküz
megtanulni
Energia
megörök
Kölcs
késlel
##lapok
valamire
jólét
##edia
találkozón
munkájában
Nyolc
1983
elemet
##osodás
alakítani
##ibe
##ariasis
gondolták
##fl
parazitáktól
##ution
nyoma
##illant
átruház
univerzális
##hetnénk
trópusi
gom
dilem
inne
jelenetek
szerződése
magyarázatot
##ázása
##rax
##uit
portugál
dolgozói
kikap
keretén
foglaló
##használati
részévé
kifejlett
különö
##színt
##tevékenység
##inken
Vác
Kasz
dő
akadnak
##ctr
hitelintézet
ízletes
alkotmányos
értelemszerűen
##véből
##aradás
márpedig
képviselt
szalad
feltételeinek
##álással
hatáskörébe
abszurd
Anikó
##estet
rendőrségi
Arch
bőröm
TEL
Helyszín
érintettet
tudd
##helmintikus
romlik
##gyűjtemény
említette
##dészeti
alapanyagok
forgalmat
PP
Fodor
látszat
szabályos
évszázadok
túlzottan
mesélt
ajánlja
duzzanat
hangulatban
tulajdonságokkal
##alat
Mün
Hull
##osztó
hírlevelünkre
univerzum
tanítani
alapította
megkérdezte
felületek
##isztoly
darabokat
erősíteni
semmire
mellőzését
oktatásban
koncentráció
##tesi
Pilis
gondolnak
feltöltött
koc
Rit
megszerezni
munkái
##ítsen
védelméhez
közérzet
##inen
##uron
közönséges
beteljes
Szívesen
termelt
##együttes
átvételi
lob
javaslata
Szarvas
kezdik
##now
Kormányhivatal
lakosok
##ozókat
pozitívan
szerelő
amolyan
mesélte
##csatorna
bérlő
károsod
férgektől
##For
tanácsok
dokumentumot
társa
##ERS
alapterület
2x
levend
##acska
megmutatta
Zsófia
au
legizgalmasabb
##lhár
##rács
Eközben
vízszintes
indián
lézeres
pasi
Che
megdöbbent
Reggeli
jeges
támadt
Ross
##fém
Dunántúl
nyújtása
fizeti
sodr
futárszolgálat
előírásokat
Angeles
kullancs
kifejezések
veszélyezteti
sétál
CSOK
Add
böngészője
vélik
rendelkezünk
Egyéni
##mith
ahány
menj
vételi
haja
Előfordulhat
honlapot
borot
húzza
Hun
Angyal
hier
eközben
aszal
tagjaként
világhábor
bónusz
tegyék
redőny
##formák
tárolására
hosszas
Befek
körök
##foglalkozt
Pik
Kíváncsi
##eking
##ségeinek
##álódott
felszíni
Kodály
##works
Ferrari
SS
bevételt
szemin
alvállalkoz
jövője
grán
gyermeknek
weboldalunkon
car
keresztények
Iratkoz
##nst
jelentkezők
szíved
Ast
parazitákat
elkövetkező
mál
bevallás
kórokozók
Pok
1957
##rs
Mózes
##ago
láthatja
elmondása
makacs
felsőbb
##izmust
NG
Motor
##jártó
megvit
felhők
kötete
hajam
erkély
környéke
Balatonfü
tüzet
joghurt
megváltoztatni
szerzemény
címére
oktatást
szenvednek
óvodás
műsorában
törlése
megvalósításához
sütőben
igényli
gázt
szakemberei
személygép
szabadban
Band
Valamint
##csics
kezem
alkotni
##hatna
##átora
mechanikai
mérnöki
terr
országában
csomagok
leggyorsabb
otthagy
taps
beazonos
igazgatási
jellemzője
mélyén
éltem
gő
gyümölcsös
##ációnak
bemutatta
szakirodalom
színvonalon
##nét
##tettebb
tendenci
##erep
kövek
hűséges
##érve
Voltak
krumpli
bejelentkez
kérdésére
##atások
kormánypárt
##mával
utalás
mozgós
következményekkel
##ezse
##nnyolc
UR
Afrika
eszterg
##bbá
##sárga
##áli
leleple
munkákat
korlátozza
istenek
böngészési
ízű
ában
##oszláv
egyiket
mondhatni
##csöv
kapos
alapból
bejön
olvasott
Legy
ideiglenesen
gúny
##értés
hozzájárulok
sokaknak
Polgár
Hálóz
##DÉS
Elkez
felhasználásának
körülvevő
madar
Bull
állása
Horthy
anyuka
káosz
##hatalom
##ckó
ON
##aljai
decemberében
országnak
fogalmak
Pedagógiai
gondolkodásmód
szereztek
Többször
döntetlen
##szerelő
Élő
Ajánlott
Búcs
csí
szerintük
##yermek
##adalmas
böngészés
menteni
##díja
állattart
emb
##avilág
éttermek
##zésében
tünetekkel
##íthatod
rendezése
fénye
Ral
előáll
##pótló
felhalmoz
képét
elmozdul
##ításhoz
##ültség
4000
##mutatás
reumat
megfeled
##ükből
mennyei
tulajdonságok
hajót
felcs
Andr
Édesany
ismerősöm
személyisége
galaxis
Levélt
feldolgozni
lelkileg
beszerzési
érvényesítheti
Szombaton
viták
elolvasni
VIZS
Olvass
elképzelhetetlen
##teorológiai
sie
megfoszt
##yull
szit
beszélő
megíg
mindvégig
##ködött
gyógyítani
szakdolg
nyelvek
építették
visszam
##iroda
##aszi
##õe
melyeknek
iker
##olót
##rendező
elvesztette
áldozata
értelmiségi
hatvanas
Jókai
##nyelvű
##ef
átadja
Erdélyi
MM
szolgáltatásait
alkotnak
##arin
éreztük
kun
Tet
##unit
hatékonyabban
centi
precí
köszi
hung
íny
rejtély
Mások
dat
##ázást
animációs
tevékenységi
léphet
##IKA
##eztével
változhat
fordító
hallgatás
##eker
##ajár
Médi
országa
elı
megál
anatómi
prófét
döntenek
tehetetlen
jegyezte
Szij
##éséért
augusztusban
percen
##nson
érzékelő
##ozzanak
##ottabb
vák
kérdéseiről
választást
továbbjut
energiahatékony
Azoknak
ügynökség
rólunk
gyűjteni
érle
nátrium
##tettünk
felállított
##szerzési
hozzájárulásával
tekintjük
RS
lehű
karantén
írj
##lterjed
készségek
faktor
##funkció
nyúlt
füg
galamb
##cht
művet
bánat
Life
keressen
Dub
Volks
közleménye
nyitás
bevételek
Music
##ödött
Ezeken
##dőlt
lelkip
##ive
járványügyi
##olhatják
mindnyáj
látogatói
##napot
csatornán
megáld
1972
##PU
ítélte
Beat
képernyőn
tágabb
##ffice
Feri
használok
mindazokat
javasl
elérheti
mestere
rendőri
helyezése
jutalom
hegység
cselekv
kíséretében
szakterület
szavazó
Hami
##értékes
lelkesen
nék
Oda
##uszok
##veltebb
##érben
Tatab
törvényhoz
fájó
Baranya
félek
leck
moh
munkacsoport
##assanak
őrölt
nézte
ülni
##iája
##abétesz
Ku
##prő
elállás
egészséget
kápoln
##álltak
##aszok
munkaszer
oldalakat
Megint
Televízió
megegyező
összeeskü
tárc
attitűd
##dy
növend
##okauszt
termékekre
alkalmazásának
##gót
rólam
bővítése
szerkesztés
szobr
közreműködő
INF
találkozót
öböl
megelőz
megbízás
látogatható
javaslatok
berlini
létez
##ellátás
nélküle
emlékeztetett
kövér
##ólap
Veres
selejtező
vitát
feltűnt
keves
kialakulhat
vin
DC
##aji
akadálymentes
általánosságban
készítik
##aros
jótékonysági
bejegyzést
utóbbit
##trágy
végeztem
magánszemélyek
esélyegyenlő
##vasztás
kedvezmények
ste
képzése
legrégebbi
##cze
amerikaiak
Készítette
##személyes
tanácskoz
infláció
technikát
tartalmaznia
visszajelzést
##́s
vereséget
leghosszabb
engedélyeznie
##issal
munkások
érdeklődését
##04
ion
##tegen
mondatot
szavai
sajnálom
ta
Igazán
Drága
jelentkezési
Tap
##oston
indulni
Sup
állítottak
feldolgozott
##oldás
szakadék
burkolat
árán
utazik
szándékkal
összegyűjtött
CSA
átvette
prédik
##özni
beszédében
búz
Link
##ptikus
##õen
##éltük
orvostudomány
többségi
##vallom
félelmetes
##ofil
PROGRAM
##ilabd
elvet
##szü
##épes
kellemesen
biztosak
##klub
terhet
TV2
Est
reggelen
zökkenő
panorám
tisztítása
Értes
nacion
EC
egyformán
csopor
robbanás
Intel
SM
évnél
##elm
földszint
felajánlott
##emelő
megillető
Hangsúly
##örténelem
sárgar
Fit
kötős
nagysága
kategóriás
partnereink
gombák
naprakész
##jegye
újságírók
##oszteron
##őkre
csír
okt
elvét
sakk
brav
##büntet
létrej
##űrész
elbesz
körébe
hagyták
üzemben
##cina
ajánlattevő
jutunk
jol
Rózsa
homályos
csirk
melyekkel
elefánt
##jeinek
##ványok
##anulmány
állatkert
ijed
Magyarországról
##elt
szeptemberében
vágó
elmos
Lib
Bitcoin
csalás
helyettese
töltik
##ántúli
##felúj
##venció
dram
asztr
izgalom
meséli
kiállító
csalódás
Légy
##gés
brutális
visszaford
##59
kísérletet
érzékelhető
elvek
tetov
dalokat
osztott
Bas
elérést
##írni
alkalomra
eldob
trükk
##UK
##alist
OP
##edben
kifejt
Korlát
##lub
fegyelmi
megindul
dog
igyekeztek
##esel
hordozható
##bog
elhanyagolható
Aug
Plusz
lényegét
1949
veszpr
BME
pic
letelep
##don
som
iskolákban
##miklós
Képes
januárjában
langyos
kivételt
Júl
boj
álláskeres
nemsokára
kényelmet
ORSZÁGOS
##érett
fiataloknak
##jegyek
##his
##ublik
terek
##kolni
indulunk
##ognit
történeteket
##kok
boszorkány
##SÉGI
csökkenthető
testmozgás
másképpen
JEL
##iro
##ítené
Ib
kompozíció
Hagyomány
fenntarthatóság
valóra
úszás
munkanélküliség
segítőkész
jelentették
evolúció
ráz
tudatosság
tragédia
koffe
fotózás
végered
állapotba
##57
felerős
##hite
brüsszel
költséghatékony
megosztott
Együttműködés
dial
jegyzett
légkondicion
1918
áttekintése
férfiakat
leiratkoz
olcsóbban
##sszet
Business
állapotában
##oto
##cskán
lények
new
Kaposvár
örömére
##kek
sóval
témáról
Jeruzsálem
##nus
##ámpír
drót
egyenletesen
érzések
típusai
napjáig
vigasztal
elkötele
Novák
deviza
##helyre
hasnyál
főzzük
Üdvözlettel
bevándorlás
suli
jövedelemadó
rejtélyes
Ban
##fejlődés
ima
##redi
hívjuk
Av
gyerekkel
Álm
néhányan
irányzat
írói
nyomor
Zemplén
megtartása
##esszel
éjszakát
teljesítette
##ivár
jutottunk
vénás
Cit
Óriási
naptól
fenek
##ponttól
##awei
##üller
bus
csoki
##halom
Eleinte
##ntrop
##ukott
részük
köszöntötte
PH
tárgyalt
Kati
##ásáért
##közösség
ablakon
közelébe
##nam
személyeknek
könyvelő
pontatlan
nyugtalan
fölösleges
előterjesztés
megteremtés
megpróbálja
Önöket
megismerésére
válaszd
módosítására
IB
ster
##ovi
körülményeket
elavult
kérdését
##peri
Kosár
fejedelem
Pop
Feltételek
##művelés
medencében
kidolgozás
ügyintéző
Bihar
sütés
Pas
főkapitányság
szájon
1973
Kett
környezettudatos
##éved
közgazdász
anyagát
##őrség
##obotok
meghaladta
##veszter
##oltan
ágyban
reméljük
LX
##arton
##put
elkerülés
mesék
University
tárgyat
kölyök
jogkör
térjen
munkakép
növényeket
végrehajtani
kényelmesebb
felelt
sötétben
grafikai
csökkenő
Sun
kerülne
Moszkva
##ikben
szempontokat
legb
fölötti
##UP
perspektív
elképesztően
Fenntart
WHO
Váci
kötve
##űl
arculat
értékének
munkálat
##könyvtár
kapjuk
##iler
##ÁLT
lelkiismere
többre
elkezdte
##jan
értelmi
##AZD
bélférgek
hoztam
elváltozások
kézbe
fűződik
vesze
fre
##orr
hidrogén
##védők
átvált
definíció
elszige
##tev
manuális
székhelyű
##számok
legjobbak
együttlét
szobát
száguld
könyvét
félidőben
közalkalmazott
Tekint
jellemezte
videókat
szocializmus
áldozatot
szerződéstől
használjon
válaszolta
Jö
##íted
##üld
##EREN
fat
lekérd
##kendő
##étere
##ságuk
indítani
mechanikus
##tábor
portré
forrásokat
kezdés
fellépés
járna
tam
póz
jeleket
visszaes
##pre
sikerek
Alapvető
rendszerű
egzotikus
eper
Ebbe
vesztette
kalória
fillér
szid
szemöld
XIV
vizsgálatokat
kiszűr
Szervező
vezetőedző
jellegét
tulajdonságait
ugyanannyi
Ká
rendszernek
középfokú
Írás
kukorica
egyházak
##ítésben
visszhang
Nyári
érzelem
burgony
lépjen
jelezze
ellenőrzést
##nális
banán
foglalkozom
rendszereket
##alb
##tessük
Cre
őst
Jim
1976
küldi
szavait
Valent
sek
egyénileg
##lez
##ezzen
pamut
##ria
prior
pozíciót
folytatáshoz
bújt
ÚJ
Szlovákia
megkezdett
elvezet
##agyott
Youtube
##szolid
sztrájk
legkevesebb
forgat
kitű
SEO
munkahelyen
kutatása
##folyás
##sáv
küzdelm
Arc
##ékei
csöv
hatálybalép
##lta
epi
élettani
hangon
kulcsa
ajánlatkérő
kig
##lemények
rögzítése
vegyszer
farm
alkotja
lettünk
Különös
hírekről
publikált
##osabbak
##őzése
##itim
##álóbb
##telik
tov
rendeztek
irodában
méhnyak
oldaláról
##arnokban
##kérés
jársz
##gyermek
Környezetvédelmi
terhére
Júlia
##uv
örültem
egyszerűsített
felelősségre
megnézzük
JÓZS
jubileumi
kutatást
lelő
##onatúj
4b
##úzeumi
adóked
##tech
LG
álláspontja
vásárlása
BI
elkezdeni
magasra
##ogatta
beindul
vaníli
##egyházi
utakat
SZTE
gyógyszerekkel
viselet
gyűjte
használd
étteremben
##nélkül
tüz
elfelejt
Suz
együttműködő
kiindulva
intézményekben
##ássa
kontén
##látogatás
Britanni
##ikra
hívnak
kW
##sm
házilag
megszűnése
követelés
jelet
nyilvántartásban
##érete
##ográfus
hímvessző
bosszant
homokos
##keret
##alás
gyűjtése
tőzsd
kijelenti
osztályban
fizetést
piacot
##ulások
##rén
bon
fertőzöttek
németországi
Lép
borász
Mel
1969
szándéka
##gépek
##jesztés
fagg
kerámia
reperto
selyem
leszer
közjegyző
felfedezése
boka
JÓZSEF
##zetem
kérdéssel
főiskolai
GM
##alv
TÖ
mam
kérje
kívánják
##tenger
statisztika
##káni
júniusban
munkafolyam
fajták
##napon
felkelt
eltérések
nyelvtud
Vir
filozófiai
##melt
cin
értük
eddiginél
##ámoló
##andináv
munkájukat
tisztelt
megvenni
bepillant
##nesz
ismertetett
funkcionalitás
térdízület
plébános
korlátozások
romlott
hanyag
elév
Ét
##hom
remeg
##itte
érdeklődést
serkent
fennmaradó
tervezése
bánásmód
Azután
előfizetői
hatásának
küzdenek
készíti
##áji
megmutatkoz
##szige
működtetése
Másod
##értünk
köb
működtet
napirendi
##szerepet
változatot
hazafelé
Rendezvény
javít
##KÖZ
Blog
otthona
váladék
##áikat
Valahogy
Vé
brüsszeli
benső
Mindkett
stílusa
aktus
Megjelent
adózás
Baz
vezetőjének
felelősséggel
##ando
Levente
kifogástalan
költe
élethelyzet
nyugtató
##építési
ölel
Öreg
Trich
##VEZET
vegetári
háztartásban
MR
##ETE
nehézséget
lelkiismeret
##eire
##tetések
beszéltek
brók
##cast
sportos
Kiegész
Lehetőség
sokrét
Rög
Tiszta
gátolja
2500
Kizárólag
belvárosi
Létre
várat
Megjelen
ülése
##ogatók
babak
1940
ismertté
##ÍTÁS
##veszte
fogékony
##nag
tenyész
##kuty
Bulg
vércukorszint
ISTV
##ilóg
##rendi
##ezetesen
termékeit
órai
tanácsi
találják
részből
##uer
##pedett
##észlet
Amazon
spam
VAGY
gondolkodik
gyászunkban
Lux
##arján
##közös
vásárlást
szaun
pénzintézet
Után
##lapon
éber
##azol
##imat
permete
fejlődni
sérülése
lip
bonyolultabb
##ítanunk
kivég
íme
##kapitány
liber
KÉR
##usza
##sõ
köszönheti
Önmag
zöldséget
Bejelent
meglepetést
területei
vonni
Önk
##égett
Wikip
karri
Üzlet
szálló
fav
őse
Felek
gyökere
##önként
élethez
nyitottak
tároljuk
társasház
szellőz
cselekedet
##ING
tejszín
frusztr
filozófia
Beth
##nézet
láda
indoklás
Marketing
homoszex
jelzálog
búza
Pic
##ognitív
páratart
##sebes
hint
##ativit
Meglep
kösz
##súlyosabb
kosárba
tyúk
tized
##ítheted
betegnek
##áinkat
használatáról
tetszés
kezeléssel
lefedettséget
##nézni
EF
rizikó
ISTVÁN
periódus
kevert
DI
ágynemű
következtetni
tippek
visszatekint
magukra
tessék
szerencsém
##erét
ötször
Funk
##lor
vizsgát
fennállása
kifizetni
file
hagyaték
béta
Visszatér
szemek
##költség
vélte
Nektek
tudnia
papíron
napraforg
szikla
foglalta
Bt
levet
influenza
bélféreg
##nár
múltban
ezúton
public
##magazin
feloszt
szakter
tervezte
lábam
szülin
beik
##alapítvány
versenyképesség
Cla
egészségesebb
Kerék
megvásárolható
koromban
vegyület
élére
megzavar
##immel
gyöt
szavazt
Múlt
##pol
estek
bevont
mennyivel
megelőzni
Ext
tagállami
meglepőd
szorult
feleségét
Vasas
vétele
elvisel
Tegyük
##hagyma
Pénzt
##ukciós
kalauz
láttán
elkészítéséhez
értesül
szurkolók
##rent
Javaslat
Ukrajna
megszünteti
gravit
##őeljár
küzdeni
##alló
csinálok
install
anyaggal
mac
Portfólió
durv
gasztronómiai
javaslatokat
nyereg
tulajdonosi
ismerteti
diplomáciai
4f
különösebben
abszt
háttere
rendezi
Tün
##ikán
ellenkezőleg
tervezik
amióta
Szig
térképen
olajos
##sérült
amelyeken
elektronikusan
##OTTSÁG
eltal
Évek
##sik
mentesül
##ugoszláv
koncertek
Nóra
jogerő
##menek
játszótér
szükséglet
innentől
play
termál
értékeit
lecsap
tech
tartandó
sérelm
falra
megjelenítése
szakértője
javulás
beszéltünk
autóban
felfriss
részese
##ázd
példakép
##nyák
##kedések
Autó
szőke
leegy
savas
##ermében
matt
##wagen
kódex
meddő
##osítási
##ábla
bírnak
alakulása
legkülön
Anita
csökkentett
##űzési
megjegyezte
törvényszék
teáskanál
szerencsejáték
##opolit
vizsgálják
F1
1977
mosógép
fejfáj
tojások
nb
kiment
1974
Siófok
##kedvelt
sorol
hitte
elvtárs
tehetnek
megélni
Sos
Galaxy
végtelenül
Hitler
hosszútávon
kérése
negyedévben
##óbor
szegély
Kin
szelektív
##acskó
keményebb
##cience
Informatikai
bokr
irányítani
diagnosztikai
mögötti
mondok
Fazekas
Hollywood
##szerû
##áty
##ovszky
##feladat
##ítaná
Ízületi
szelep
##avon
Chi
küty
Rac
cseppet
ügyvezetője
Valamennyi
##bab
unió
szemünk
kötél
vezett
hőse
##eiben
DS
##ato
próbálták
vállalkozási
Lényeg
nyilatkozatát
##nózis
cukorral
##unizmus
sétány
megmozdul
szellemiség
Ta
befolyásolhatja
novemberében
Kiderült
##álnia
igazolást
Len
fejlesztők
Let
kabinet
##EB
##lix
elégedettek
stabilitás
díszt
parkban
büszkék
ítélték
##hato
Nyugdíj
##ódva
iskolánk
##ószoba
##ászavar
nyaki
békét
##tetésére
Szeretnék
nal
méretét
fejezetben
Viz
vezethető
szat
veszt
húzódik
Felügy
##árad
mexikói
érdeklődési
BB
országosan
konzor
azonosított
lépésről
gondolatokat
##arta
Számtalan
megkóst
##lőd
Love
igényelhető
osztályok
##vények
próbáld
vásárlói
brand
válaszadók
##ényes
Budaör
XV
Nyugati
intenzitás
utazást
##emű
##rick
##aro
felár
közlése
##ALL
instr
tilalom
##VH
kérelmére
estén
Ipari
semmis
Lud
veszett
##rome
kötelezettségének
szabályozása
rokonság
alakulás
vonul
nagyap
Giardia
elektronikai
szombathelyi
terhelő
rokkant
álltam
oldja
beruházási
##vették
Dunak
hegedű
versenyeken
kajak
élményét
Cam
támadást
adóalany
témákat
##tivitás
ED
visszerek
öröme
recepció
lelkét
##ubb
építőipari
kétségtelenül
jelentkezhetnek
tanácsol
Mindemellett
kegyelm
értesíteni
##ttel
egesz
fogható
Vállalkozás
következetes
##áira
szegénység
olimpia
megemlíteni
##anon
vizsgálta
##opéd
váltja
ruhákat
telített
tizedik
ellátását
kérdeztük
##ukhoz
szintetikus
anyakönyv
köznevelési
##round
Jaj
előrehaladt
tapasztalatom
kihirdet
érs
terveket
##afa
##ovid
Kub
##munkát
gumiabroncs
kívánnak
##akes
odak
albér
##veszik
porszív
##itani
tárgyát
ert
távolról
##zász
szövődmények
##ódások
elveszíti
tagad
erekciós
##csillagos
jókedv
tömb
Nógrád
lift
##sang
tégla
elhelyezés
tagország
ülést
Tilos
verziót
##ultunk
##isze
##rangú
élőlény
mondhatom
házba
közösségben
asszisztens
érdekeinek
Szijjártó
nevével
##ámadás
értékeli
törökök
kérdezze
végbe
Ox
életen
Remény
##vont
milliméter
jócskán
fellend
petrezse
gondolatot
mindennel
bejelentést
fogorvos
kibocsátás
##hirdetés
görb
foglalkoztat
apróra
anten
címer
Információszabadság
producer
tartogat
rendszerességgel
ujjak
iráni
##mok
##yr
##templom
trip
kaposvári
##artás
porckop
eladási
fejlőd
államban
##lı
lenye
##édzs
##isa
##iköz
minap
vizsgálták
##várt
autógy
Részt
paprika
munkálkod
##íthatóak
határán
zajlanak
használjunk
Régen
úri
üzemeltetési
fájdalomcsillapító
Sand
Wars
##KÉP
bízt
szállítani
CXX
ellenőrizze
végezték
kapcsolati
létesítmények
veszprémi
étkező
kapcsolatfelvétel
##áttal
kiszor
készítjük
friz
##onyos
Liga
##ognak
SC
pert
kiak
duzzan
##ágai
##ázzuk
köp
önnek
hozzátéve
rendszeren
találhatunk
jegyzet
beszéltem
Comm
kihat
##olas
##úzta
megalk
zsir
bejelentése
ábrázoló
##irodalmi
##ombin
Templom
szerepeltek
vonalat
akiről
kértek
onk
##ünkről
Felhasználási
milliót
##ikre
Szűcs
##ÁB
multi
elmenthessük
párkapcsolat
##nával
diszkrimin
sérülést
atmosz
gál
hagymát
nyitvatart
Bakony
Francis
##löny
referencia
Rita
tudtok
Jót
nyü
##likus
elkövető
népes
érdeme
fokhagymát
érthetetlen
##versenyen
##feldolgozó
Legg
Brazí
elnézést
##egett
##Patika
Koszt
##kozik
markáns
Segítség
látványosan
centrum
##odtam
bit
rendellenesség
kilométert
sötétség
Disney
##illan
##javító
bírósághoz
húg
Büs
1971
Romániában
Bajnokok
anyagilag
feltűn
Főosztály
érintik
Moszkv
gyógymódok
##hai
visszahív
forintba
ugyanilyen
CH
##aker
##fejű
FOR
lehetek
##tetem
törvénye
lábakon
értékesítése
##knek
fogta
Spor
kérdeztem
Tanul
észrevétel
FŐ
farmer
töred
Jelentős
féltől
##üss
Szél
##abbi
feleségem
üzletág
százalékuk
##aren
atlét
fizetnek
kézilabda
##híd
illúzió
finomabb
Hamilton
##nyitó
kidolgozása
versek
##ifi
mindennapokban
fás
##oterápiás
ugyanabban
felgy
erejével
kesz
életévét
büntetőeljár
##hallgatás
kirek
Daniel
##ezzünk
##psi
lúg
lámpák
Jac
##levele
Mike
földgáz
Örömmel
##yer
kend
Látogató
tagjának
##csaba
bolgár
hatott
megjelenést
Áld
hanyat
rászorul
internete
Bir
mélység
halk
Valam
estére
##áltan
működtető
visszaáll
vezetékes
ötle
##usta
Kerül
kialakításában
Jord
hasznosak
feltett
leírást
##üzemi
Utaz
##mé
locsol
zsírégető
legkö
örömét
küzdelemben
##gazdálkodás
kedved
##ergy
tartózkodik
sodor
racionális
keresztyén
##aja
Előtte
segíthetnek
##szfér
reprezentatív
hűség
öltöző
ugrott
nemzetek
CN
olyasmi
##munkás
háta
##kenti
##értem
##pénztár
választásokon
oklevél
összehív
vendégeink
disznó
##lje
meghirdet
##emről
ígért
zöldségeket
##APEST
előfizetés
fogyasztóvédelmi
zsúfolt
##ódjon
Ezer
##csúcs
##falvi
beszámolt
városokban
Fradi
##ASZNÁL
vadonatúj
megszav
href
##cd
példák
HáziPatika
távozik
##atoknak
jelölő
felhasználóknak
##halmi
rendeznek
szembenéz
élvezetes
felvállal
buborék
##íve
tüntetés
segítettek
Big
Kelemen
##léshez
##utód
veszít
Társadalmi
tak
##uska
youtube
TR
nevére
##Sz
vakcina
megtalálják
Las
borzalmas
özvegy
bibli
pince
Paks
restaur
megnyitás
Rudolf
gyártása
hányás
chat
méregtelenítő
hátránya
boldogságot
székrek
karik
Magyarországnak
iparűzési
elégtelen
javasol
##gyártás
Mah
##SSZ
Belgium
hozzászok
magunkkal
##lot
foglalni
CVIII
rágcs
műtárgy
szaktud
közepére
Mór
##abol
pályázaton
magából
előfordulása
William
állókép
roll
környéki
ítéletet
fűszeres
Csupán
##sík
##ködnek
##úszó
boltok
olvasói
##énak
##aságot
elvesztése
ijesztő
kötőszövet
Teremtő
évekre
hozzáadjuk
Istennel
járja
felügyelete
hatalma
Háza
kórkép
márvány
finomság
rec
ismeretterjesztő
eredményre
színre
##zükség
négyes
elérhetők
gépeket
mármint
Istentől
erőmű
hátizs
Day
##TON
háborút
sovány
vitéz
Habsburg
környékbeli
##EZŐ
erekciót
##ermi
torkol
BUDAPEST
jóváhagyott
felmérések
elnökségi
mikrofon
##autók
##csuk
Ester
megadásával
ruhadarab
Önnel
XVII
Central
történjen
kultúrát
terhelt
mágikus
percek
##pesti
pecsét
##aci
szerződő
tetszőleges
esélyes
lehúz
bizonyítják
gyakorolja
##ey
beiratkoz
##ATAL
##éjük
Nyilatkoz
Zoli
##fd
Társadalom
űrhaj
Huawei
emléket
Gyakorlatilag
CR
aprop
##orb
meditáció
Mere
elhagyta
##jtett
kibocsátott
##növekedés
örömteli
Kazinc
együttese
Tartalomjegyzék
Megt
##orzs
##termék
légúti
levált
szíriai
Ken
tudással
##ljön
Figyelm
távolságot
migráció
összehúz
Tv
értékelési
kialakulásában
##egyede
ütő
cseresz
##nője
kagy
##fekvő
##éktelen
nyugdíjba
tempó
hasnyálmirigy
cr
feszes
don
##egyedik
kizáró
##foglaló
működjön
befolyásolni
fokozatos
levelező
##ltünk
alapjai
vitorl
1967
hirdeti
eszközei
##GYI
övez
Megsz
##EGYZÉK
##viszonyok
beszámolója
Száll
Napok
fedélzet
Dam
Előfizető
szereted
részeit
videok
Hirdet
sajtóban
csökkenés
példányban
fiatalon
sms
OKJ
##ikos
szárított
##assam
##ogva
Mónika
továbbítása
##mász
Zenekar
##bányai
adminisztratív
##apeuta
tartózkodó
Lélek
párja
újraind
nőstény
vállalkozást
Kedvenc
MB
Megk
##100
elfelejteni
létszáma
eljutott
felelősek
liturg
##anéz
##ister
atmoszfér
Die
befizetett
házastárs
1800
##adíj
Class
szállodában
jogorvoslati
Street
elárulta
személyazon
sopron
ajánlatos
jelentkezését
előmozd
IK
légző
ty
##geni
Hamvasztás
##ix
Véd
visszafelé
##latokat
##so
Merkel
szauna
Andrássy
Leggy
Tíme
megtakarítás
##tur
##áldem
tanter
tehetjük
segítse
díszített
202010
##OLGÁL
Európát
##rian
##zit
ezres
bund
töltse
Stand
elemeit
nőttek
leányvállal
találkoztak
##hetes
szakmában
követhető
elismerte
sérti
honlapja
Szekszárd
##gótarján
szolgáltatással
megőrzi
rap
##almár
1900
##zalag
dri
implantátum
Egyezmény
Zalaegerszeg
azoknál
hist
jelenlévő
Nálam
változatlanul
zenészek
problémákra
##ÁJÉKOZTATÓ
##erty
##ália
üzemeltetett
tettük
hangverseny
fejemben
higiéniai
##ombor
váltotta
kiadni
kertész
##lya
találhat
keresési
fö
##tive
Kard
utóbbiak
megrendelések
HOGY
betakar
mozogni
emeleti
Szervezeti
alkalmazunk
uram
emlékére
##múl
##ukból
##ágnes
##művészek
##ÍTÉS
másodper
Múzeumban
szavatossági
előrehaladtával
Jour
Afrikában
beállításait
##als
élettel
történnek
Maxim
láthatóak
##menedzsment
nyújtunk
Jézust
hitelek
##tets
##kulátor
tájékoztatjuk
leírtak
gárd
##ápoly
##közlés
nemzetközileg
hozzájárulást
##pór
fejező
##ozói
##szűr
fiát
találat
csatornák
##álati
viselkedik
##sg
stil
veter
szobrász
vágys
farsang
októberében
##St
##uhan
élte
látványt
KL
Nagyjából
hányinger
##SZK
vágysz
szavazni
Tünde
zárni
Richárd
létrejövő
##érmet
számlák
rávilág
pillanatnyi
szabályt
##ouch
##forniai
##rica
hirdett
hever
blogot
zsákmány
Mitől
élményeket
üresen
##ÓD
##okia
vizek
Szeretne
méltány
tolvaj
lelet
Hunyadi
hie
kifizetett
intelligenci
##abor
kancellár
Stúdió
koktél
haladunk
elnyert
1959
rés
##úllyal
musical
FELH
készülni
feleslegesen
Sosem
kiválasztás
progresszív
felhasználva
Blo
Halász
hangsúlyozni
örülni
Akadémi
egyenlőtlen
felvásár
nyíló
megnyitó
##ool
detek
települést
moderniz
jutalmaz
kijut
##win
keretet
egysége
meghagy
##nában
Klára
sely
emberekre
megérdemel
rettent
szerencsét
megállapítja
termékeink
évtől
társasjáték
alkalmazásában
pigment
fax
csik
mérések
sorát
##kong
##ollyal
mondanom
##ményeket
vágni
Munkaügyi
kevesebben
Népi
gyertya
##gener
##fajok
szertartás
##kultúra
elsődlegesen
Roz
##cki
nyitni
##igris
##iner
aspektus
megakadályozni
Volkswagen
hozó
Ball
##beköt
bedob
Eszköz
NASA
Igy
##gazda
záp
közbeszerzés
bb
##ALM
##VIS
megfigyelő
jóindulatú
megoldására
vízálló
komposzt
prosztatitis
gyakorlata
étele
Dohányzás
ellenjaval
Szövetségének
kétel
megvalósítására
Shar
UT
##jogosult
mérten
ellenük
prefer
meghatározottak
##felvételt
ismétlődő
fojt
##vo
Holnap
Ung
feladatát
vérben
##ager
ideológiai
vénák
kínálatában
májusában
előkészítés
előad
szava
anyagokból
mozaik
felhasználását
##mérnöki
##zásra
hormonok
##szereplő
##zı
kulcsszav
##ách
dohányzó
Portfóliónk
hatállyal
sup
ugrás
Gellért
Milán
##áti
##átort
elfogadják
##szerkeze
kaptuk
##örgő
230
szótár
gépen
megpihent
zuhan
megtaláljuk
külföldről
szlovén
államnak
Kúria
támogatásban
mondd
psoriasis
vetette
##szás
leírását
körvonal
##irányítási
##ugrott
kognitív
teljesül
Abaúj
baromi
##okos
leszármaz
engedelmes
kormánypárti
Kont
Csab
Pályázati
Marc
##ove
zug
tanácsos
Megg
határidőt
kapcsolatát
verziója
rádiós
ellátások
jegyzőkönyvet
FIGY
Alaptörvény
terepen
##brán
mélyre
Láb
hírlevélre
büdös
Aus
##ajáték
születnek
##áiról
élővilág
kutatócsoport
számoltak
temetés
##oom
sírt
kihasználni
szakembert
##ermékeny
mikroszkóp
Esterházy
számlázási
helyiségben
módjára
korlátozása
fertőz
lányom
leple
magabiztos
lakhat
összesített
végki
ajánlatokat
Közösség
festői
Ábra
kétezer
tudt
jutalék
Szex
falon
engedni
Pir
kocka
magammal
4a
idegenek
kockázatos
úgysem
mák
##esztel
##ériában
##MB
##izálják
csakhogy
##ikáját
bemutatásra
Lac
pénzbeli
karaktert
részletesebben
igazad
alkalmazva
##kov
Mindenképpen
BIZOTTSÁG
##NAK
informatika
szereplője
lovak
zsidóság
Cat
##pán
lezajlott
legkedveltebb
Miskolcon
bízom
bep
csü
feljegy
érzet
Bol
Smith
kiépítése
##cét
##cb
békéltető
##ócs
##vice
hárman
##robotok
formater
elrende
Steve
pit
##okraták
Elmondta
TEST
fenntartott
kisugár
előzőleg
végrehajtó
kérhető
##ánsok
kisváros
##denz
##ERT
Gran
Kali
rét
szóltak
teljesítő
szakmát
foglalás
ügyfélszolgálatot
felére
kitág
irre
##FK
Szomorú
válasszon
féregfertőzés
##eszék
esni
szivacs
##onia
##ULT
betegségei
felüli
érdekképvis
##képződés
PAR
##öcs
névvel
Viktória
Show
szolgáltatása
melan
csomagban
tündér
szan
Kreatív
BR
üzenetét
önmeg
##álásában
megszabadul
évektől
megnyert
mellettem
##ítetlen
##umer
Pozsony
szívből
karaktere
megközelítő
adóév
jellemzőit
INT
feladatra
hidratáló
##rk
##ulák
százez
Tab
típust
##orf
Gyönyörű
nálad
lízing
Település
che
##ításnak
szőlőt
##ofi
elrejt
mondás
akiknél
megérkezik
csapatát
Gre
Vaj
Toyota
##mo
ai
daganatok
##ázatot
Nyugod
6000
bunk
##orony
##vízi
értékelte
real
##atter
Újpest
asztalon
##íthetetlen
pdf
lakóhelye
verset
beszámolót
##ussanak
virágot
##uda
nyüzs
Hírlap
Tot
##yörgy
feladatkör
Asz
tudó
céljának
őrizetbe
##allas
sutt
kisebbség
##ágó
Palot
garanciális
polgármesteri
##ázzák
visszaigazolás
##essünk
Európába
plug
bizalm
Jos
misszió
közmű
tanulság
jártas
##filmek
##csökkentés
bejelenteni
Vig
büszkeség
Rózs
büntetést
##centrum
semmibe
értető
szántó
Ezekkel
##ped
merevlemez
érvényesíteni
gót
##erma
Lee
bányász
önmagad
ciszt
verb
szórakozó
néhányat
##túr
járadék
##szkij
ajánlotta
##alát
##mentem
Labd
sportolás
Használja
szerinted
kizárja
fizetnie
##bánya
##szervezetek
egyeztetett
Bluetooth
Veron
életveszélyes
Napló
kompon
Nagydíj
##ssük
##henger
intézménye
nevetséges
játszottunk
követték
ei
célkitűzése
érzéstelen
keltett
Ugy
kúp
Munkás
##formáló
bármennyire
megfejt
követelményeinek
helyzeteket
Győző
##uther
##atokon
tinédzs
Püspök
párok
férfinak
Tudja
SZABÁLYZAT
diabétesz
korunk
##ökken
üzletben
rögzítő
addigi
fertőtlenítő
működéséről
##fone
Maria
invit
öregedés
tengerparti
##goly
##áztatás
Egyet
Ellenőriz
archiv
##programok
kivételesen
Nekik
Tisztelettel
lobb
értelmet
levezet
érettség
lemondott
steril
lemondani
##íthetők
kolbász
##teltek
Barcelona
propagand
szendvics
pászt
konszolid
Húsvét
##una
rendezésében
kemen
újjász
döntöttünk
dolgokról
szegények
MAG
##ársaink
Csehország
##AND
billentyűzet
benz
mennyiségi
szívét
##óktól
kiteljes
karbantartási
háztartás
arthritis
fedez
##ezetül
dedik
##ölve
750
összegben
hirdetmény
Működési
palesztin
formái
fájdalma
##kezel
sokk
##e0
bármiféle
békéscsabai
artéri
lapon
docens
legdrág
##tta
gazdák
nbsp
biztonsággal
Illés
nov
##éjének
pillanatában
##osszolg
szakosztály
melyről
próbára
Dózsa
krémes
##vol
jelentések
csipet
##ffe
lassabban
esélyét
gondoltuk
##filmet
##mg
##sztár
Végig
##futott
##lterjedtebb
hátán
Bemut
kapjanak
Stan
mélye
##fiók
ferenc
##távol
információval
jogv
kitalálni
szembesül
végb
lamb
Meleg
akire
szerkesztője
kapitalizmus
szépsége
karbantartás
végzünk
##teiben
##chin
pásztor
helyiségek
Csík
Könny
károkért
##zlovák
Móricz
gyógyászati
##lelk
##ökött
képviselte
ötszáz
barn
##táris
##szlovák
alagút
módszerei
felrak
bőröd
horizont
sorolhat
##löv
továbbfej
aktivál
Sötét
##furt
Kecskeméti
##őtt
közkedvelt
##igénye
Megy
##aló
Fis
korty
morális
elfogyott
##beton
oké
kínos
tanfolyamot
eszköztár
csökkentheti
elkezdi
összeszere
pozícióban
##cariasis
játssza
##hetitek
motorral
felügye
összegének
Elsőként
##legény
##dos
cont
padl
megoldással
keringési
##anel
feljegyzés
##blok
ÉRT
vetélkedő
patkány
előrejelzés
Barna
Victor
árver
Barbar
1938
Melyek
jelö
Up
sarkal
nyújtson
lekvár
Érdekesség
fűz
megcsinálni
##áid
tartható
bízik
eltakar
Tudni
készítményt
egyetértek
törekszünk
Központban
melegebb
##erápia
Gol
Mini
helyezik
##higi
fene
mobi
gyűlöl
kitalált
##akespe
állítanak
adap
hűs
órákon
##ülésre
megbirk
esze
bravúr
készítették
érdekek
tanítása
éjszakára
jövőkép
##yök
frissítő
emigr
##valója
részleteit
összefogás
##ízi
tetejét
Kapcsolat
visszaszer
Schw
##has
érzek
kivel
megeng
##izátor
##ezetesebb
salak
megértése
készenlét
Közbeszer
bevásárlóközpont
##ezelés
felvonult
##ubban
##ELV
Rena
sivatag
észrevétlenül
antrop
céljait
1947
növényt
időszakos
National
mondod
építve
közelgő
##udy
gyarm
szarvasmarha
##ényen
##üveget
apuk
álláspontját
Sur
besze
fogászati
átül
Portugál
segg
##field
Rec
lábon
éhség
preszt
darabokra
égbolt
tevékenységéről
rendjéről
néptánc
iOS
tenné
##xx
kötelesség
telefonszámát
elkészítés
Bach
Magam
viszonya
nyilvántartott
cas
##áseg
Alv
olívaolaj
Amely
infrastruktúr
##yar
mozdony
plaz
##lick
Titk
úgymond
##tekkel
tanterv
élőhely
##oler
jelenséget
##ea
Spir
Nyílt
##főző
ilyesmit
anyai
Labor
##nyá
végrehajtás
legfiatal
kreativit
használhatjuk
jogával
megbízhatóság
kezdődőe
hirdető
mintav
kompetencia
kezdődően
megyeszék
felszerelve
válaszát
követése
##PR
bemeleg
szélsőjobb
legitim
tagozatos
fenntartásához
tablet
##órák
##PONT
ajánló
Északi
azonosítására
##írozott
képzőművészeti
##halál
##épek
tisztázni
##épett
hétf
Idegen
kilencedik
korábbinál
##műhely
##ÉM
rontja
figyelmeztető
ellenszolgáltatás
Őszintén
beles
kapuit
kérdései
Hihetetlen
beköszönt
Diós
kérdésekkel
fizetős
elö
indulhat
időköz
1958
Nar
jobboldal
fővel
101
Stef
##mell
##írja
##akespeare
elősegítő
tegyek
##iak
elégséges
egyensúlyt
megmunk
rakni
beállt
megmér
Ünne
franciák
Körös
##cf
##ates
életút
##olsz
húzta
jogutód
##kéz
műsorvezető
kitüntetett
##lsi
olvasd
megvalósítását
nézek
célul
##EKT
megör
maraton
fejleszti
kölcsönhat
hidegen
jöhetnek
durván
Kla
menüpontban
kisméretű
Hódmezővásár
ellensége
Tesco
szerets
##ONY
nyitja
##elég
kolléga
rögzí
csomópont
dolgom
ven
kvalifik
szeretsz
kultura
márkan
Belv
Sors
jegye
titkosszolg
Királyi
##formát
Radi
##ékos
segítve
szokása
jelszót
PRO
##avállal
csúszt
##pof
fárasztó
lu
##zia
##ttél
izomzat
legsúlyosabb
BE
kritikai
Fáb
##vani
feltárt
##zsel
##izmussal
művei
izzó
##györgy
kvant
kimutatható
koncerten
##órát
italt
puc
Vén
elhallg
vallja
##öc
Extra
Benne
elmenteni
érzésem
Lan
helyekre
tudása
megszerezte
reményked
paprik
##tábla
leegyszerűs
##ndi
SD
összefon
életciklus
kormányzás
rendelkezéseket
vajat
##küldő
módban
Meggy
Összes
u003cdiv
balett
abort
képviseletében
cseleked
hallom
csatlakozni
valamelyest
hozzájárulhat
vadászat
vízen
Vörösmart
##ison
fejlesztésű
üzemeltetője
muk
komplik
Olvasd
OB
##ítod
vegyék
megsérült
##világban
##ivatott
gördül
##ikről
1964
egészsége
örömöt
Indiában
hűtős
giardia
érkeztünk
legelterjedtebb
##ásunk
magy
meghívást
##fol
történetben
dramat
gyap
##sorozatot
szereztem
piacán
kihozni
##határozó
kapcsolni
Gör
##hártya
tévhit
##milliós
bonc
szervezés
egészségesen
Kosz
legdrágább
diploma
1946
##ttag
##meleg
Unióban
##napok
melegben
trombózis
megvár
samp
alkalmanként
Charles
tervezni
megtisztel
törpe
##nyé
közvetve
MINDEN
reménytelen
Röv
##tatta
Bélféreg
Csák
modellje
diktatúra
semmiképp
sugar
gyulladások
konferenciát
Eli
##aikkal
jat
hőmérsékleten
Ilyenek
hiányát
kúra
Lew
##őzik
##úzs
balesetet
organikus
Társulat
gátló
##ZÉS
alkalmazási
lig
ötvenes
##nisz
ülnek
##ítvánnyal
kiszáll
gárda
##utatni
vés
##osra
##hm
zal
szerelmese
írjon
##ds
##liz
szénhidr
##esemény
Dí
felismert
##ORSZÁG
1919
##ányai
fekvés
arcán
##ujt
##őkben
elõtt
gyermekkori
tüzelő
Összeg
környeze
módosíthatja
mered
megléte
virágos
fejezi
gombás
fényképe
party
munkavédelmi
nos
pszichológia
hagyma
típusát
kombinációja
magaddal
állapotok
##egyeztet
összem
négyszer
letör
keresőoptimal
privat
nagyközönség
hatékonysága
tesztoszteron
Anya
érem
Pénteken
Poz
színét
Soci
felkar
##műtét
Korábbi
bankkártyával
##iták
sürgősségi
feltételez
Nyilvánvaló
bevenni
##koron
Tehetség
településeken
##felv
cipőt
díjra
Jön
márkák
Szovjetunió
elsőfokú
Legtöbb
trakt
emberhez
átmenet
efféle
trilóg
alkalmazására
##IUM
dőlt
##hard
Deut
##ozásának
halále
déd
ÁLL
segítése
mic
okokat
utalva
##apcsolt
megcsod
helyettesíti
követelményeket
##LEN
menedzser
cy
igazságszolgáltatás
##ESCO
kezden
##sza
##letben
##lane
pompás
##őke
hasznot
Hiány
fokozódik
háromszáz
Egri
káposzta
félbe
bámul
élesen
##zetel
reál
##ads
Fájd
##jó
veszed
Kanad
működtetett
hazaiak
éveiben
##atkozás
ajánlatt
kényes
Frigy
eszünkbe
edzések
Szász
##fész
szükségesnek
nyű
##eggyel
rajtad
közelebbről
kijár
mott
urak
Fü
Választási
##burgi
közössége
##hiba
##ican
csillog
House
1941
kvázi
bemutatására
emlékeznek
születésének
válasszunk
Ezekre
reményt
##figur
##kár
Müller
##olés
havas
átalakítása
esztétikus
jövőjét
babát
1965
ifj
ld
hívás
##ottal
Evangélikus
##UB
engedte
Rév
belügyminiszter
szemre
rot
üzeneteket
Szilvia
elszenve
##viselés
MDF
##Fi
többszöri
papírra
tükrözik
##onna
CC
128
látszó
kommunikációt
észrevétele
mozgásszervi
rose
kipróbáltam
##szott
Előadó
Anglia
rout
dobogó
magassága
pénzből
mintsem
tervezők
Röviden
skót
Johnson
üldöz
idom
##értelem
rangos
Brexit
##művelődési
Független
cd
Tej
kijött
##ÁNAK
nót
##attá
##csoly
véglegesen
kommunizmus
arányú
Sáros
##leírás
kereske
##köl
járd
telepítése
##növelő
SZEM
rohadt
##éleszt
##ozata
Ajándék
glükóz
könyvtárak
villam
##ösz
részein
##közeli
szemtan
honvédelmi
##csillag
##oldalán
becsületes
riasztó
Su
kötődés
tűzte
vámpír
magabiztosan
vágyott
Out
##lény
elmenek
IMF
##ulásához
termet
Krón
elküldése
##ezel
ajtón
aden
népszavazás
##ezzenek
fazon
München
Ins
##kozni
bírságot
spektrumú
##tessék
megfordult
határozatlan
dobozban
##iának
##ésekről
szerelvény
mih
megtétel
##onóm
##vágó
##LŐ
gyúr
ÖSSZ
munkatársaink
Sokáig
bohóc
kot
##zéke
##pályán
romániai
Wall
sebészeti
Berg
##isztencia
iratkoz
Lili
tábort
árva
##özőbb
##ozáns
##jaikat
Step
Georg
reszelt
döbbe
##ámnak
megtalálta
meghúz
Imádom
AT
estét
##számla
rendeltem
népet
Bizonyára
Hideg
audit
##index
Les
1939
bizonyul
Egészséges
##álkodási
Viv
bajnokságot
ablakban
bejegyzések
akarata
hegyen
##gyök
domináns
szerződéskötés
szezont
##olyai
Wolf
##élesség
mozognak
##orító
fonál
székletben
rózsa
moszk
##aszolgált
gazdája
csatolni
##almazták
Gyermekek
##ártó
##ÍZ
##arra
átvett
erotikus
egymásba
munkáltatók
cégeknek
egyetemek
Henrik
édesanya
jelentőséggel
egyenértékű
##ertől
FEJ
öne
növelte
mondanivaló
##cil
##komp
parkolási
##romb
népdal
horgászat
elküldi
esténként
kisbab
megnéztem
saláta
szándékos
képességeit
trágy
osztja
##ütött
Kés
állomása
##jong
hazaj
fehérjét
##orth
lehetőségekkel
felelte
##vérek
nyersanyag
sokrétű
##akozás
##HÁZ
##megállap
beavatkozások
belef
programjának
tasz
pillanatot
verte
Enik
beler
##vele
megérte
weboldalra
épületében
1963
győzni
visszaélés
valószínűsége
##melés
##kiált
Zrí
kulon
##inst
betartani
rekesz
##ájaként
anyatej
intézményt
wc
júliusban
berendezése
püsp
lépő
##tetők
zúz
210
érintkezés
##tetten
mondatok
lőt
alakította
Mediaworks
oktatók
jét
hátralévő
játszotta
leggyorsabban
##lehető
##uval
rendszerében
##sey
könyör
bontak
receptor
vívott
##harang
elmúlik
##olin
töv
holokauszt
étrendet
##kákat
jelentkeztek
körökben
Feltétele
árad
megindult
munkahelyek
##idi
eljárni
##EMÉNY
koncentrálni
zivat
bug
teológiai
kimenetel
Cle
küldje
lélekt
##áramlás
tizennégy
##ítõ
óvintéz
gyömbér
##barna
##stílus
engedik
##ETI
##vasút
érintés
körút
Pad
win
testen
kezdeményezett
szakáll
diagnózist
megvédeni
kocsit
##ítenünk
heter
Ismere
vastagabb
kerete
elülső
##írók
mozgását
megváltoztatása
##penót
törékeny
essz
vágya
dologban
tehén
vény
##vic
bas
éljen
Vörösmarty
érhet
opciós
tevékenységeket
felveszi
lehettek
Univerz
apróbb
alakját
magöm
##TEL
csapatának
forintból
képbe
verzi
##esztes
##végén
szellemében
##erősítő
láthatóvá
használhatják
sikerét
ISKOLA
belem
projektben
értelmét
##aster
vitaminokat
##köves
szituáció
szimul
rendellenes
programsorozat
ecset
##llo
lenniük
Tímea
115
lábszár
##ESZTÉS
olvashatsz
Shakespeare
fejlődnek
kiszámíthatatlan
Előter
tojásokat
megoldásokkal
horog
szolgáltatásainkat
barack
##gépe
tartsuk
##szerrel
nitrogén
##DOR
201904
tengeren
vitatott
megértés
Tre
##nevét
kézbesítés
Képző
##ítatlan
grill
arcul
Budapestről
201910
vetni
##gazdagabb
időbeli
épülnek
ízek
biztosításához
kredit
egybeköt
Ram
személyeket
sugárzó
##odafone
trendek
Utazás
AJÁN
diagnosztizált
##lar
béle
megform
változtatása
Bosch
művelődési
##záll
személlyel
##blog
omega
##eki
dunántúli
vő
lelkesedés
##ermar
felsze
ólom
járművet
##LE
rajongói
ventil
Megtal
##alin
##ELMI
##ammal
betegeket
##ényben
véghez
tételek
zenék
értve
vizsgáljuk
májusi
Egyszerre
huszadik
szentély
unatkoz
linkek
Vers
férfias
tévés
miniszterel
##éneke
csatlakoz
halottak
eszem
időd
##sk
vesztett
alakították
##pedagógiai
##öltve
desszert
strap
betegeknél
Szól
élhető
Alek
##neken
##kereset
##LA
károsodás
##következ
##ELM
gondolkodó
kft
Nyrt
máz
##ásabb
##álásának
döntőbe
végbélnyílás
Kornél
Évente
##egi
műsorban
világossá
Demokratikus
##avil
Pesten
##arázs
AV
##tartási
##NEK
kiirt
laikus
##ványt
piramis
szédülés
életkorban
##metrikus
emlékét
múltra
sod
prése
##zeni
##lsius
kápr
munkavég
Leszok
felkészítő
##rajzol
##annia
tulajdonban
##usti
történni
sw
bür
felbontású
olyankor
##eleme
hagyva
ünnepségen
emlő
őrző
##ömp
megnyomásával
Naponta
győztese
Magd
jogorvoslat
figyeljünk
##abin
munkasz
vékonybél
Hirtelen
##éjében
Ész
spekul
szeretünk
kollégáink
##figyelő
teszel
kilogramm
magukban
##rendezvény
autent
evez
Rub
kritikát
sisak
kitüntetés
##121
megtalálod
legyőzte
##ökre
Pénisz
tennünk
megkérdezettek
engedélyezése
ni
főosztály
elviselni
határozni
Roma
sötétebb
##hábor
nevezési
teh
tipikusan
##inal
legkülönb
##urzus
##anic
pass
elejére
Ábrahám
Good
##vázió
Ázsia
emésztési
olvasta
adattovábbítás
emlékezünk
##kölcsön
Pack
kúr
elérhetőségei
világító
kezdtük
márciusában
Laj
népszerűségnek
számba
folytatjuk
##őrlésű
porn
United
Inc
legkiv
ágazati
feltárása
semmivel
kov
Pécsett
Gord
nyilvántartást
eszten
szemed
rendelést
kicsivel
Bob
elemekkel
legveszély
aláren
költséges
nonprofit
jogának
szakon
viselkedése
ápolás
kifejezni
Fest
részletei
vadon
hőmérséklete
Hallg
Simi
hírportál
Has
falvak
Scott
ismerünk
részvételre
Hozzászólások
felületre
gyere
bátorság
festés
motorok
hosszútávú
hozzon
alapértelm
szervezni
beavatkozást
Jane
pályafutása
nyílás
bizonyította
fokra
kilót
Ügynökség
likvid
##aradics
##istak
Déli
Létezik
Műhely
vitat
##ókhoz
sorolható
PDF
More
szerkesztett
éls
Aktív
PÁLY
Főiskol
beleszere
megbeszélés
fordulójában
biztosítására
kanál
##alkat
forrásokból
potenciál
[...]
